#version: 0.2
i e
Å Ĥ
Ġ p
Ġ w
Ġ s
Ä Ļ
Ġ n
Ġ z
Ä ħ
r z
c z
o w
Ġ t
Å ¼
c h
s t
n i
Ġ d
r a
Ã ³
Ġ m
Ġ o
Å Ľ
a ÅĤ
Ġ k
s z
n ie
r o
Ġ j
d z
Ġp o
Ġ i
Ġn a
i ÄĻ
g o
Ġ b
l i
Ä ĩ
rz e
l e
a k
a n
c i
Ġn ie
a r
Ġd o
a m
n e
Ġs iÄĻ
y m
Ġj e
Å¼ e
Ġz a
n a
e m
Ã³ w
ÅĤ a
k a
y ch
Ġ u
r e
â Ģ
rz y
k o
a t
w i
k i
Ġw y
Ġp rze
Ġ a
ni a
w a
j Äħ
ÅĤ o
c e
cz y
Ġ Å¼e
dz i
Ġt o
c ie
Ġ g
o n
j e
cz e
ow a
o r
k u
Ġt e
Ġs t
d y
d a
l a
dz ie
o ÅĽ
e r
c j
Ġo d
Ġ ro
Ġb y
p o
Å Ħ
w o
Ġj ak
c y
t y
b y
k ie
r y
m i
Ġ c
Ġk t
âĢ ĵ
Ġm o
t a
e n
Ġ P
Ġje st
aÅĤ a
Ġk o
Ġp rzy
w ie
n y
r u
Ġkt Ã³
Ġm i
l u
a d
st a
Ġ ch
e j
t u
ow ie
s i
o b
Ġt ak
Ġpo d
Ġ cz
Ġ -
Ġs z
a s
Å¼ y
n o
Ġ S
a l
sz y
ow i
m y
n Äħ
t e
Ġs p
ra z
Ġn i
Ġd z
ÅĤ y
m ie
Ġ ÅĽ
Ġ M
Ġ 1
am i
sz e
Ġp ro
Ġ f
b i
p i
n ych
z y
ÅĤ u
oÅĽ ci
r Ã³
Ġw ie
Ġ K
cj i
Ġt y
Ġro z
Ġo b
Ġi n
Ġp ra
Ġm a
. .
c a
e go
Ġ W
l o
e k
j a
Ġc o
jÄħ c
N ie
d u
ne go
p ie
s ki
w y
g i
t o
Ġ A
ÅĽ ci
g a
ne j
n ym
Ġ go
Ġ C
Ġ (
Ġ B
Å º
aÅĤ o
Ġm ie
Ġ T
b ie
Ġje d
s kie
Ġ 2
m u
Ġ âĢĵ
z a
ow an
Ġ czy
Ġa le
m a
nie j
o l
Ġ r
Ġw i
o s
Ġt ym
Ġ re
e z
j ÄĻ
Ġs po
Ġprze z
Ġ R
ni u
w e
Ġm u
u Å¼
Ġ lu
Ġp a
Ġz e
P o
aÅĤ y
Ġ âĢ
N a
Ġ J
Äħ d
n ÄĻ
b a
ow o
ch o
Ġs am
l ko
Ġdz ie
l at
p ra
Ġb o
Ġ D
i l
Ġ le
k t
k Ã³w
Ġte go
oÅĽ Äĩ
Ġb ÄĻ
ie r
Ġ ra
i n
ĠktÃ³ re
Ġ e
Ġd la
a ch
m o
Ġw szy
s u
s ka
Ġprze d
dz e
ow y
Ġw iÄĻ
b o
u n
dzi aÅĤ
Ġ G
Ġ h
Ġs Äħ
p e
n oÅĽci
Ġna j
cz Äħ
Ġdz i
an a
p u
Ġty lko
o st
Ġk on
d e
Ġj uÅ¼
Ġ Z
Ã³ ÅĤ
Ġz na
Ġb ar
ÅĽ Äĩ
Ġ li
Ġp owie
f i
d ni
sz cze
s y
Ġk a
o m
owa Äĩ
ci a
Ġwszy st
sz a
Ġ L
ÅĽ li
s a
s p
ÅĤ em
ow e
st y
ow aÅĤ
cz a
Ġsp ra
ÅĽ cie
z u
Ġpo t
Ġs ob
k ÄĻ
s ie
Ġ O
dz o
Ġw o
Ġje j
Ġw ÅĤa
Ġp e
Ġs k
a li
Ġje go
Ġ I
s k
Ġ ci
J e
0 0
g u
Ġs ie
Ġmo Å¼e
ar t
Ġby ÅĤo
Ġb ez
ow ych
Ġs wo
st ÄĻ
i m
Ġm nie
g ra
u d
Ġcz as
Ġpo z
Äħ c
nie m
rz ym
Ġ "
Ġ Å¼y
r owa
p a
.. .
ĠbÄĻ dzie
ÅĦ st
on y
cj a
Ġby ÅĤ
r ÄĻ
aÅĤ em
ÅĽ my
ow ej
an e
d o
Ġ lat
o na
kie m
en t
u r
Ġ Å¼
g l
ro d
ĠâĢ ŀ
Ġw z
Ã³w i
Ġsob ie
Ġk ie
Ġ1 9
Ġp i
Ġ raz
n ak
z na
Ġo s
Ġ N
Ġd a
Ġs y
Ġ E
Ġ H
c u
cz nie
ĠktÃ³ r
Ġch o
Ġi ch
âĢ Ŀ
Ġg dy
an y
st o
Ġza p
Ġ F
Ġod p
Ġst a
Ġg ÅĤ
wi Äħ
ĠktÃ³ ry
Ġte Å¼
ym i
Ġd e
Ġ ce
Ġt u
ÅĤa d
Ġmo g
w Ã³
w aÅĤ
i a
Ġ rze
wi a
nÄħ ÅĤ
jÄħ ce
ni ÄĻ
o ne
Ġz ak
s po
ra n
Ġmo Å¼
Ġo k
Ġje szcze
j s
ni k
owa nia
Ġbar dzo
âĢ Ķ
Ġp an
t er
we t
pra w
skie go
cy j
dz y
Ġp ier
Ġk u
T o
rz u
Ġz ost
le j
stÄĻ p
Ġro ku
Ġ 3
Ġ cie
Ġm Ã³wi
Ġ cze
Ġ U
Ġdo b
Ġte j
cz ÄĻ
j i
Ġte n
ow ego
b u
cj ÄĻ
rz Äħ
Ġo p
k Äħ
le m
a j
z e
) .
Ġby Äĩ
b li
at y
am y
ĠÅĽ wi
i ch
ci Äħ
Ġm y
Ġ Nie
Ġu sta
ĠÅ¼e by
wa Å¼
g ÅĤ
s iÄĻ
Ġo raz
ni ka
e l
a da
Ġpra w
ĠP ol
p ad
Ġw e
Ġmie js
ÅĽ nie
d ÄĻ
Ġo g
f or
n oÅĽÄĩ
e t
n u
s ko
Ġp ow
Ã³ b
rz a
Ġb i
t em
skie j
ÅĤ Äħ
i i
c je
cz ne
t Ã³w
t or
ÅĽ l
ni st
Z a
Ġsam o
g ie
Ġz ro
Ġjed nak
owa nie
Ġna d
ĠâĢ Ķ
Ġn o
w iÄĻ
Ġc aÅĤ
ÅĤ am
d Äħ
Ġpe w
Ġj a
s o
Ġkie dy
u m
Ġna wet
Ġt am
s ÅĤ
si Äħ
ch a
c Ã³w
ow Äħ
y ta
Ġ2 0
o sta
Ġd ru
Ġ Å
Ġst an
ÅĤ e
Ġby ÅĤa
cz u
Ġr Ã³w
em u
b ra
Ġpier w
sz ÄĻ
Ġst ro
Ã³ l
Ġt a
Ġd y
Ġz am
Ġtak ie
Ġt ra
j u
Ġo st
a st
li w
W y
Ã³ r
ĠP o
e c
ar y
li ÅĽmy
Ġjak ie
st u
Ġpo li
Ġg ÅĤo
Ġp owi
Ġlu b
l an
Ġ ak
rÃ³ Å¼
cz nych
pi s
Ġk il
Ġm e
dzie j
t rzym
Ġko m
Ġj Äħ
Ġst o
Ġcz ÄĻ
dz a
ĠwiÄĻ c
cz as
Ġz d
p rze
d nie
n t
ki ch
P rze
Ġka Å¼
Ġp u
A le
Ġmu si
z i
l ÄĻ
ce j
Ġg dzie
C h
Ġjak o
Ġdzi aÅĤa
rz ÄĻ
J ak
wa Äĩ
t aÅĤ
Ġodp owie
ow ym
Ġk ra
wie r
Ġa l
j em
Ġc oÅĽ
Ġp ie
ski ch
Ġt ych
Ġi m
Ġt rze
Ġni Å¼
Ġw p
r i
ni c
Ġch wi
sz ka
Ġd ro
Ã³ j
Ġw sp
Å¼ a
czy wi
re s
rz Äħd
st e
ka z
Ġ lo
Ġ 4
Ġmi aÅĤ
Ġwy ko
wiÄħ z
ĠmoÅ¼ na
Ġs u
Ġswo je
on ych
k sz
er y
Ġb ra
s ku
Ġr ÄĻ
rÃ³ ci
) ,
on o
czy Äĩ
k ÅĤad
Ġ ru
ĠK o
Ġ ar
D o
Ġ 5
ki m
dzi Äĩ
ĠktÃ³ ra
Ġspra w
ĠC h
an s
Ġs i
ka ch
Ġpra c
Ġte raz
Ġsz e
owan e
ĠrÃ³w nie
p y
Ġf i
Ġg ru
b ym
s ÅĤu
Ġzro bi
Ġtak Å¼e
Ġ ry
C zy
z ie
M o
Ġza w
Ġwy da
r Ã³w
Ġpa ÅĦst
i o
cz nej
Ġp re
Ġz n
Ġd u
jÄħc ych
sz ych
ĠM i
Ġz w
dze nia
cze go
Ġp owo
Ġs ko
ci w
Ġw a
ÅĤ owie
iÄĻ dzy
u ro
t k
Ġpo l
t nie
Ġd ÅĤu
Ġwszyst ko
Ġo r
pe ÅĤ
ĠÅĽ rod
" .
Ġst ra
d ÅĤ
Ġsz y
Ġ Na
s ÅĤa
sz Äħ
Ġw ar
un k
ow aÅĤa
Ġa by
Ġko ÅĦ
ra l
g ÄĻ
u je
d ar
an o
Ġs ÅĤu
ni Äħ
dzi ÅĤ
Ġg ra
owan y
Ġjed no
Ġm am
Ġspo s
Ġni c
d at
ci u
nÄĻ ÅĤa
dz Äħ
ĠÅĽwi at
Ġz da
Ġb u
Ġna s
Ġw ym
Ġro dzi
Ġlu dzi
Ġ20 1
an ych
cze j
sz ym
Ġni m
Ġ ÅĤa
or y
t wo
c Äħ
T ak
jÄħ cy
Ġzna j
Ġch ci
Ġni ch
ĠrÃ³wnie Å¼
d em
r w
czy ÅĤ
Ġa u
i st
ski m
s e
Ġro bi
Ġc iÄĻ
Ġpowie dziaÅĤ
Ġost at
nym i
sta wi
dzie Äĩ
r Äħ
Ã³ d
Ġo n
Ġz wiÄħz
ĠP a
Ġsz cze
cze nia
wi ad
ob a
c o
cz ny
B y
O d
sz cz
ĠÅ¼ ad
Ġby ÅĤy
Ġz osta
Ġje ÅĽli
Ġ2 00
Ġma jÄħ
Ġnie go
Ġm at
Ġal bo
m en
t ych
Ġjak i
Ġ rÃ³Å¼
ga ni
w ar
Ġko bie
mi s
Ġdo ty
ni kÃ³w
o d
kie go
ÄĻ Å¼
Ġp iÄĻ
te k
Ġp yta
le Å¼
Ġs ÅĤ
Ġz mie
Ġko lej
ĠktÃ³ rzy
P rzy
Ã³ Åº
sze go
âĢ ¦
da Äĩ
ĠÅĽ mie
ni i
Ġwo j
st rze
Ġm Ã³
st Äħ
sz u
ni Äĩ
st an
Ġb ud
ĠM ar
o k
ĠwiÄĻ cej
rÃ³ d
g dy
Ġpro b
sz ej
Ġz ÅĤo
st em
e ÅĽ
s cy
k ry
Ġmie szka
t ÄĻ
k tu
dzi aÅĤa
Ġspos Ã³b
an d
Ġb a
Ġt ro
Ġsie bie
k ow
Ġna u
m al
czywi ÅĽcie
Ġp rowa
ĠT o
g e
tu a
Ġt em
Ġin for
ni os
t ar
Ġsz ko
ĠktÃ³r ych
Å¼e j
nÄħ Äĩ
Ġp ar
Ġwie l
t ro
aÅĤ am
z n
cze nie
d en
d Ã³w
Ġpra cy
ch ÄĻ
Ġa ni
gl Äħ
Ġu wa
ĠwÅĤa ÅĽnie
t Äħ
cz nego
te dy
ĠwÅĤa s
Ġprze ciw
Ġpo mo
ĠgÅĤo s
w u
Ġkil ka
ne k
m niej
Ġbar dziej
Ġpot rze
Ġcz ÅĤowie
ĠJ e
y ba
t ra
Ġz ÅĤ
Ġcz ym
da w
Ġ 6
Ġt wo
ch u
d Åº
k ami
Ġd nia
a Äĩ
ty w
ni cy
Ġsy tua
a ra
c ÄĻ
M i
Ġmo je
ta j
Ġpa ni
g ÅĤo
w at
Ġz ie
Ġnie j
Ġm iÄĻdzy
Ġw ol
ĠÅĽ wie
ÅĽ mie
f e
Ġz mi
t wa
Ġsp e
Ġwy p
n ku
Ġdzie ci
Ġk rÃ³
Ġprzy pad
st wa
r em
P ro
Ġpro je
C o
a nie
Ġpot em
sz ÅĤo
or u
k ÅĤa
kie j
owi Äħ
dz ÄĻ
am iÄĻ
lat ego
Ġm ar
cie Å¼
ĠbÄĻ dÄħ
Ġb ie
ru d
Ġnie z
Ġzost aÅĤ
Ġs er
ciÄħ g
Ġpoli ty
Ġp at
Ġszy b
Ġ V
Ġza ch
g ro
d i
Ġci Äħ
wa li
Ġdob rze
g le
Ġok re
t ka
ĠktÃ³r ym
liw oÅĽci
ĠA n
Ġd wa
Ġpowi n
Ġin nych
z iÄĻ
go t
Ġu Å¼y
Ġcho dzi
mi ast
pe w
Ġos ob
Ġkt oÅĽ
Ġch ce
Ġpe ÅĤ
Ġos Ã³b
Ġm ÅĤo
ĠM a
Å¼e li
ĠZ a
dze nie
ÅĽ le
ĠkaÅ¼ d
ĠmÃ³ gÅĤ
lo gi
ch y
Ġspo ÅĤe
Ġf or
Ġz wy
gl Äħd
Ġdo mu
Ġzaw sze
âĢĿ .
c jÄħ
st wo
o ÅĤ
Ġna m
Ġp Ã³Åº
Ã³ Å¼
re n
p rowa
sze dÅĤ
Ġz go
Po d
Ġd uÅ¼
za cji
Ġczas u
ĠB o
Ġk ar
ni cz
Ġst os
Ġkt o
Ġp rÃ³
Ġtrze ba
Ġje dy
Ġst ar
le Å¼y
Ġwy so
wa nia
p ro
Ġo ko
Ġ 7
o z
ni ÅĤ
ÄĻÅ¼ czy
ĠJ a
Ġwszyst kich
Ġusta wy
nist er
ÅĽ wiad
d ÅĤu
Ġt ÄĻ
t rz
gl ÄĻ
mi n
ĠW y
Ġwie le
wÃ³ j
Ġwie m
Ġt wa
Ġpo ja
s ce
Ġstan owi
Ġw ska
a le
g Ã³l
l am
si ÅĤ
k ro
i s
Ġpo my
ci ÅĤ
ĠktÃ³re j
owa li
Ġw al
Ġor gani
Ġp Ã³ÅĤ
ĠwÅĤa ÅĽci
at u
sk Äħ
ĠÅ ļ
jem y
ĠS z
Ġ 8
Ġdru gie
owan a
bie ra
Ġs ku
Ġ ek
W ie
ko l
Å¼e nie
Å¼y ÅĤ
ĠÅĽwi ad
cho dzi
Ġw tedy
k ra
k re
1 9
e ne
m ent
Ġjak by
Ġmi a
t p
T e
in ans
Ġm niej
Ġjest em
l ar
na d
Ġs w
Ġcze go
sta w
Ġpro du
Ġtak i
Ġsp rze
Ġspra wie
st ar
ĠwiÄĻ ksz
ych o
Ġpo ko
Ġob ec
Ġinfor ma
ie dy
on u
b ÄĻ
Ġni gdy
Ġs e
Ġ1 0
by t
cj al
nie nia
Ġ an
sz aÅĤ
Ġpod ob
ÅĽ niej
cz na
Ġt emu
ne r
sz cza
rz wi
Ġp ÅĤa
ĠL e
Ġgo dzi
Ġ la
Ġlu dzie
z d
ÅĦst wa
rz aÅĤ
ĠM o
Ġwszyst kie
b ez
Ġpro ce
h e
Ġmy ÅĽl
Ġpro stu
Ġchwi li
Ġcz u
re sz
p at
pie j
Ġm aÅĤ
Ġgo spo
t rze
Ġ cy
Ġa Å¼
st ra
k ty
Ġroz po
Ġwy b
G dy
s er
ro m
ĠE uro
Ġw cze
o t
le p
Ġjed en
na j
t ak
ni m
or t
wie k
c em
po m
Ġh ist
t an
Ġmi aÅĤa
er i
glÄħ da
Ġdoty czÄħ
stÄĻ pu
ne m
cz nym
Ġch ÅĤo
Ġin te
ow ÄĻ
praw dÄĻ
C z
owan ych
w aÅĤa
ĠktÃ³re go
ĠÅ¼y cie
Ġpu bli
Ġt rzy
Ġo t
Ġte le
l Äħ
Ġ 9
Ġm ÄĻÅ¼czy
Ġle cz
on Äħ
Ġo j
at o
Ġna z
w czy
Ġch yba
Ġpo le
z m
Ġw ra
N i
Je ÅĽli
rzy ÅĤ
Ġk ry
rze nia
Ġza wo
Ġd rzwi
ca ch
Ġo na
Ġz m
Ġpo prze
c k
tu ry
Ġwz ro
sty tu
ĠW ar
ĠK ra
i t
Ġu waÅ¼
da l
on ym
Ġde cy
ĠR e
we st
Ġraz em
Ġp as
ro n
kol wiek
ÅĦ ski
Ġmiejs ce
Ġpo m
le t
pie ro
Ġ at
bez pie
ĠW ie
Ġprob lem
Å »
Ġchci aÅĤ
Ġni Äħ
r owi
la z
po d
J a
Å¼e nia
Ġko nie
Ġo czy
2 0
Ġzam ie
ĠÅ¼y cia
ĠpÃ³Åº niej
ĠPol sce
ĠgÅĤ Ã³w
p re
Ġcho Äĩ
ona l
Ġpo nie
ku jÄĻ
Ġspo j
ĠÅĽmie r
Ġp ana
u l
cz nÄħ
g Äħ
Ġdzie c
N o
mi na
st ru
Ġf ak
cz o
g an
K iedy
wa nie
nist ra
Ġf a
Ġ ÅĤ
w en
Ġpod czas
Ġko sz
u s
stÄħ pi
ĠK a
to ra
b ar
" ,
Ġstro ny
ĠI n
u sz
ta l
Ġ1 8
Ġpot ra
Je st
Ġf unk
Ġty le
Ġpo czÄħ
Je d
zu mie
h a
d er
Å¼y Äĩ
Ġprzed stawi
Ġza u
Ġtu taj
Ġg ro
u ra
Ġwsp Ã³ÅĤ
Ġ em
w em
t ku
Ġtro chÄĻ
.. ..
Ġczas ie
Ġko le
ta ch
K o
Ġu m
Ġf il
no si
k ÅĤ
f a
dz Äħc
Ġu d
Ġi st
at a
Ġsta nie
Ġmie Äĩ
te l
Ġgospo dar
Ġmog Äħ
Ġprzy got
ĠczÄĻ ÅĽci
Ġpod ej
Å ļ
owi ada
ni o
Ġz oba
mis ji
te go
du je
Ġda lej
Ġo fi
Ġk siÄħ
ku ra
Ġw Äħ
Ġwy ja
Ġm amy
Ġpro gra
ra Åº
d ow
Ġna stÄĻp
Ġfi r
czy ÅĤa
jÄħce go
cz ym
Ġo kaz
ĠR a
ci Äĩ
noÅĽci Äħ
ar Ã³w
Ġroz u
b e
owa rzy
Ġtem at
z ji
Ġgdy by
Ġk rzy
ÅĤ ÄĻ
re k
Mo Å¼e
Ġob owiÄħ
wa l
Ġk la
er s
go d
k owi
Ġza pew
n ow
Ġk i
Ġkil ku
s ÅĤy
Ġczy li
Ġs o
to m
Ġin ter
Ġt rud
ĠpaÅĦst wa
Ġp amiÄĻ
si ad
Ġjaki ÅĽ
cie l
Ġ am
Ġwszyst kim
Ġa d
ÅĤo n
zu je
Ġp lan
Ġrze czy
Ġ X
am ie
Ġ art
Ġle k
Ġob ie
Ġmo c
D ziÄĻ
Ġpo nad
Ġu ÅĽmie
ĠC o
Ġu st
Ġda w
Ġna prawdÄĻ
ĠÅĽ ci
t en
an Äħ
Ġz de
Ġ1 5
Ġz u
Ġb li
Ġwcze ÅĽniej
Ġwo je
Ġodpowie dzi
Ġz do
Ġlat ach
Ġb ro
Ġo pi
Ġwp rowa
Ġwie lu
bi or
c ki
Ġ19 9
Ġd latego
ÅĽci a
Ġpowie dzieÄĩ
ch ni
ĠktÃ³r Äħ
Ġwz glÄĻ
. ,
Ġst y
u t
Ġd wÃ³
Ġf inans
Ġ l
Ġdo m
Ġin ne
at e
Ġk ro
ak a
Ġg a
ĠWar sza
wiÄħ za
Ġjakie ÅĽ
Ġp la
c iÄĻ
Ġprzy jÄĻ
Ġtak ich
rzy sta
T y
p li
Ġza s
Ġma sz
Ġw spo
S z
Ġrze cz
i Äħ
Ġza j
g ar
Ġw nios
ch ro
ĠP ro
ĠciÄĻ Å¼
Ġst wier
g en
re dni
rzy Äĩ
Å¼ Äħ
ob ec
Ġspo tka
Ġk ier
Ġs ek
Ġwi ad
Ġd ni
Ġt ÅĤu
Ġw ÅĤo
Ġn p
Ġn r
ko n
w ÄĻ
t ej
Ġna leÅ¼y
Ġko mu
Ġprzy ja
le k
ar ÅĤ
t ki
an ej
t ow
Ġza da
W i
ĠkoÅĦ cu
Ġ rzÄħd
Ġi Å¼
Ġz ami
Ġwp ÅĤy
pe ra
Ġkie ru
ar i
Ġszyb ko
Ġdzie wczy
p ej
Ġs ÅĤy
Ġprze cieÅ¼
Ġroz m
Ġu mie
ma ch
Ġwa Å¼
Ġmy ÅĽli
Ġza czÄĻ
Ġcz ar
Ġzost aÅĤa
re w
li z
Ġzrobi Äĩ
ĠdwÃ³ ch
Ġpo praw
w Äħ
sta wie
n g
ĠB i
wi ÅĤ
ĠÅ »
ko na
t i
Ġwszy scy
k le
Ġ rzu
rze nie
r ow
owa niu
cz ki
Ġb ada
Ġj ÄĻ
Ġzna le
ni aÅĤ
B o
g ÅĤa
ra ch
ow u
e s
Ġpra wo
Ġpo zy
Ġsob Äħ
Ġpo za
M a
Ġo zna
Ġli cz
Ġdz iÄĻ
W szy
ĠP rze
Ġi le
Ġpra wa
Ġswo ich
Ġsy stem
mi o
Ġw s
Ġk lu
da je
y t
cie m
owan o
Ġc aÅĤy
al nie
ĠP i
sz ÅĤa
o by
Ġni kt
Ġk west
wi Äĩ
ka za
s em
ÅĦ skiego
g ry
Ġpo ÅĽ
I E
s Ã³w
gra ni
Ġg Ã³
Ġdo dat
ĠczÄĻ sto
kt or
nie nie
wiÄĻ k
I I
je ch
b ud
nia ch
jÄħ ca
l y
ĠT ak
k nÄħÅĤ
ÅĦst wo
Ġzak o
wie ra
y taÅĤ
Na j
Ġkra ju
Ġre ali
dzi ÅĤa
Ġu li
Ġ Åº
Ġhist or
D la
ĠÅ ģ
ka Äĩ
Ġs en
li we
Ġd ÅĤo
Ġpoz osta
b er
Ġz byt
pie ra
Ġtakie go
Ġmia sta
Ġo ce
rÃ³ci ÅĤ
ĠsÅĤ owa
Ġpod at
Ġprze j
ak u
Ġza czÄħ
ce go
Ġk ur
âĢĿ ,
Ġpierw szy
Ġpotra fi
âĢ ŀ
Ġsz u
wie t
Ġm as
po zy
Ġswo jÄħ
jÄħc ym
Ġlat a
Ġo f
b ro
Ġprac ow
ĠdÅĤu go
e w
ĠC z
ĠduÅ¼ o
Ġuwa gÄĻ
Ġos oby
Ġraz ie
t ym
ciÄħ Å¼
Ġby li
Ġrozu mie
Ġp ÅĤy
ĠgÅĤ owÄħ
Ġpyta nie
Ġchwi lÄĻ
Ġpre zy
Ġp owa
Ġo trzym
Ġsz czÄĻ
Ġz wie
go ÅĽ
k ar
w szy
cyj nych
st Ã³w
ch em
ce r
Ġs il
Å¼ u
si ada
Ġmiejs cu
Ġwsp Ã³l
siÄĻ cy
Ġb an
Ġbez pie
wo l
ĠL i
cz ni
jÄħce j
Ġsytua cji
ĠA r
Ġprzy j
cia Å¼
jÄħc Äħ
dziaÅĤ em
an ego
d nia
cj on
ko m
ĠD o
dÅĤu g
Ġp rz
dzie li
Ġproje kt
Ġn or
Ġmi nu
da ch
Ġmog ÄĻ
ÅĦ czy
Ġpo stÄĻp
c ami
p er
Å ģ
g n
Ġjedno st
Ġponie waÅ¼
ĠkaÅ¼ dy
Ġdru gi
st aÅĤ
Ġprzypad ku
Ġpra wie
ra Å¼
Ġwy j
peÅĤ nie
ĠchÅĤo p
ĠPol ski
na ch
z o
Ġpo sta
Ġpo r
ÅĽ la
Ġs ÅĤo
Ġ1 2
bar dziej
Ġsto p
Ġle piej
Ġza ÅĽ
Ġst ud
Ġu cie
Ġkon tro
ĠW o
ĠzwiÄħz ku
Ġj as
Ġwy pad
Ġar ty
Ġwym a
jÄĻ cia
Ġw sze
Ġz aÅĤo
Ġszcze gÃ³l
f ek
wia Äĩ
sz ko
cz noÅĽci
Ġre gu
Ġpowo du
Ġty s
m an
p on
ĠF ran
Ġswo im
R oz
Ã³ le
âĢ Ļ
Ġu ro
Ġkra j
ĠR os
ce p
P ra
Ġza st
Ġ :
Ġsamo cho
Ġprze wo
p or
Ġspra wa
ĠksiÄħ Å¼
cie li
ĠW i
Ġpotrze b
Ġjed nym
ĠsÅĤu Å¼
ni ami
w aÅĤy
Ġpro szÄĻ
dzie l
jÄħ ÅĤ
Ġku l
Ġprzy kÅĤad
Ġ .
Ġna dzie
Ġbud Å¼e
g Ã³w
ko ÅĽci
Ġo by
ru cho
cza j
Ġjedy nie
Ġu cze
Ġ rzÄħ
Ġdo piero
Ġp art
e li
Ġra d
Ġt rzym
Ġu l
ĠK on
Ġza trzym
ko j
Ġroz wiÄħza
ĠN i
Ġmi li
Ġwie ku
wy Å¼
ĠP ra
t ne
Ġdo sta
liw oÅĽÄĩ
Ġdzie ÅĦ
ĠT e
p ÄĻ
Ġmie li
ĠgÅĤ ÄĻ
Ġmog ÅĤa
Ġjak Äħ
Ġk siÄĻ
K a
or Ã³w
pa da
Ch o
owie m
dz aj
Ġzna laz
Ġtak im
t ni
mi aÅĤ
Ġpowie dziaÅĤa
Ġtak a
Ġpo czu
ÅĽ rÃ³d
le r
Ġza bi
ra bi
lo m
Å¼ d
le nia
u si
Ġm l
Ġd wie
Ġmieszka ÅĦ
wÃ³ r
Ġod w
ch i
si aj
Ġo pu
ÅĽ ni
Ġp al
Ġp ry
Ġstro nÄĻ
an ym
Ġcz ÅĤon
Ġpew no
Ġdla czego
Ġpoz wo
pod ob
Te raz
Ġwar un
ĠS e
en ta
r wa
mie c
cze ÅĽnie
Ġza sa
Ġnie kt
Ġi sto
Ġ3 0
k Ã³ÅĤ
Ġ1 6
al ne
Ġzak re
Ġu trzym
d aÅĤ
Ġog Ã³le
Ġek sp
ĠL u
ste ty
Ġst aÅĤ
sz czy
nie n
Ġdrugie j
cze niu
k owie
Ġte r
ĠczÄĻ ÅĽÄĩ
Ġw art
ĠjÄĻ zy
Ġt ran
W e
d li
ak Ã³w
wÃ³ dz
Ġswoje j
aÅĤ u
cze s
L e
sz czÄĻ
Ġist nie
Ġje Å¼eli
cha Äĩ
Ġ1 7
Ġ ÅĤÄħ
DziÄĻ kujÄĻ
Ġjak im
M y
Ġob ro
Ġdob re
Ġmiejs ca
a ni
le n
rze Äĩ
k e
ÅĤe ÅĽ
Ġco raz
Ġk an
Ġd wu
ra mi
Ġna leÅ¼
la ch
ĠC zy
le nie
ka l
Ġw obec
Ġnaj bardziej
ĠJ ak
Ġzie mi
cy d
Ġe le
ĠN o
ĠS ej
Ġdo ku
Ã³ sÅĤ
p rzy
Ġdy sku
ĠA le
or em
cyj ne
Ġnie wie
cze ÅĦ
Ġo ÅĽ
Ġzap ro
pi ta
Ġni mi
ĠpoczÄħ tku
t ru
nÄĻ trz
Ġg ene
Ġdzi ÅĽ
ro bi
Ġkier ow
Ġzau wa
Ġsam ym
ÅĤ Ã³w
1 0
in g
ĠR o
Ġza bra
Ġt owarzy
Ġsk rzy
Ġsta ra
Ġsz tu
Ġpo sÅĤ
Ġcie m
Ġdzie n
I n
Ġle p
st i
dy n
ce n
Ġra czej
Ġm Ã³j
Ġpo rzÄħd
al o
czÄħ c
tu je
Ġjed nego
czy na
Ġna pis
Ġj u
Ġp s
Ġcze rw
Ġza in
Ġce lu
Ġnie po
Ġjest eÅĽ
ar d
mo Å¼
k aÅĤ
Ġs ÅĤa
Ġzost aÅĤy
Ġu zy
Ġmiejs c
g nie
szy ÅĤ
Ġwy star
Ġroz ma
stan owi
Ġraz y
ĠÅ¼ oÅĤ
ĠdziÄĻ ki
sp ek
ru m
la cji
h i
Ġmi nister
Ġpi s
Ġce l
Ġn owe
t ami
ni ki
Ġro dzaj
mu je
Ġnaj lep
ĠobowiÄħ z
ow oÅĽci
Ġpraw da
Ġcie bie
Ġsz a
ra j
sze nie
b Äħ
se ÅĤ
ter y
Ġzu peÅĤnie
Ġtele f
v i
owaÅĤ em
Ġch ara
Ġdo ÅĽÄĩ
ie n
Ġwska z
Ġspra wy
ĠczÅĤowie k
Ġ1 4
Ġjed nej
naj mniej
Ġo czywiÅĽcie
Ġdo kÅĤad
ĠczÅĤowie ka
Ġa b
Ġza d
Ġw ej
t wie
ĠkaÅ¼d ym
Ġ1 00
Ġu dziaÅĤ
Ġp le
p ÅĤy
d ent
resz cie
Ġdzi w
Ġzam k
Ġpra kty
Ġob raz
v e
Ġo ni
Ġprob le
rÃ³ t
pra c
Ġd ow
ra ca
gi i
czy n
nie sie
ost aÅĤ
ĠbÄĻ dÄĻ
ÅĦ skiej
do podob
k rÄĻ
Ġmat eri
h o
Ġwy ÅĤÄħ
cze ÅĦstwa
Ġpod staw
Ġw ciÄħÅ¼
Ġ1 1
nic twa
li ÅĤ
te ra
Ġro k
Ġza le
Ġ1 3
Ġmi mo
Ġtwa rz
Ġw ÄĻ
Ġob u
ĠÅĽwiat a
Ġsk ÅĤa
w aÅĤo
½ ï
Ġprze prowa
c kiego
w er
Ġg ÅĤu
Ġna dal
Ġpraw dzi
cz one
Ġoko li
O b
Ġtra fi
Ġna gle
Ġzdo by
Ġb e
Ġo ne
ĠA l
Ġ ,
Ġro bo
r wi
t r
Ġk re
ĠKo misji
ku je
ĠmÃ³wi ÅĤ
Ġmo men
ĠmÅĤo d
s ji
Ġob ok
k owe
Ġin nego
M am
o mo
Ġostat ni
li n
dzo ne
Ġpie niÄħ
an u
Ġu rzÄĻ
Ġwy nika
Ġi de
ar u
ak i
ĠpiÄĻ k
Ġk at
niej sze
Ġznale Åº
g na
m iÄĻ
Ġza raz
Ġpa nie
ery ka
ni Ã³sÅĤ
ĠmoÅ¼ liwoÅĽci
a z
Ġwi do
ka cji
ĠS ta
Je Å¼eli
un ku
Pro szÄĻ
m e
Ġpo siada
Ġt re
Ġpo seÅĤ
Ġin nym
Ġmusi aÅĤ
ce nia
Ġk or
Ġpro kura
wi at
wa la
Ġn e
cz ony
Ġod e
jÄħ Äĩ
sze nia
Ġm ÄĻ
? ?
ĠT y
Å¼y ÅĤa
Ġs wÃ³j
p ar
Ġcho ciaÅ¼
Ġf o
Ġod by
ni ku
ĠprÃ³ b
Ġro l
ĠdziaÅĤa l
Ġczy n
j cie
ĠJ o
Wszy st
for m
pi sy
sz taÅĤ
Ġst aÅĤo
I A
Ġm iÄĻ
Ġ x
S t
go dnie
k wi
Ġwy raz
Ġmo im
Ġo chro
J ego
Ġo pie
k cji
ĠkoÅĦ ca
D zi
ĠuÅĽmie ch
c aÅĤ
Ġprze pis
ĠzaczÄħ ÅĤ
Jed nak
Ġprzed siÄĻ
p iÄĻ
B ar
na czej
Ġce nt
d niej
Ġpowa Å¼
st rzym
By ÅĤ
Ġm or
Ġe ner
Ġswoje go
z ja
rzy ÅĤa
Ġsp Ã³ÅĤ
k cie
li Äĩ
Ġoko ÅĤo
Ġst wo
cze k
Åº dzie
Ġmi ÅĤo
Ġw rÃ³ci
ÅĽ nia
c ka
Ġdo ÅĽwiad
sÅĤa w
Ġ19 4
cz ka
Ġpa ra
ĠdziaÅĤa nia
Ġpo ru
Ġpierw sze
Ġsam a
Ġspraw ÄĻ
ci ÅĤa
Ġw ÅĽrÃ³d
Ġu sÅĤy
ĠÅĽwie cie
Ġko l
d am
Ġwy glÄħd
Ġm et
kra i
Ġwoje wÃ³dz
Ġcie ka
Ġo siÄħ
o mi
Ġzn owu
Äħc ych
Ġdzi siaj
Ġu z
ce nie
_ _
Ġwy glÄħda
Ġzako ÅĦ
sy j
rze j
Ġd rze
Ġna to
szÅĤo ÅĽci
Ġpo ÅĤo
Ġwsze l
t ny
rÃ³ b
ĠgÅĤ owÄĻ
Ġp unk
cj ali
Ġtakie j
je d
Ġm aÅĤo
Ġkonie c
Ġk amie
Ġog rom
ĠrÄĻ ce
Ġwspo m
g li
Ġkobie ty
Ġspe cjal
Ġjed nÄħ
Ġlu dz
Ġo cz
Ġnato miast
n ki
Ġzakre sie
ĠrÄĻ kÄĻ
ĠÅ¼oÅĤ nie
Ġtwa rzy
Ġpoko ju
Ġob ej
Ġstro nie
Ġpew nie
Ġtak Äħ
Ġwy bra
Ġin we
ĠMi nister
cj ach
Ġu zna
ĠI z
w nÄĻtrz
ĠpaÅĦst w
Ġte re
Ġpomy ÅĽl
le gÅĤ
Ġwie cz
ca le
Ġt wier
an t
Ġjest e
Ġmog li
ka zy
tu ral
ĠA m
Ë Ŀ
Ġoby wat
s ek
po l
Ġku pi
Ġfunk cjon
st er
ĠwiÄĻ k
Ġ19 8
Ġd em
Ġzmi an
1 8
Ġwie dziaÅĤ
te res
ka li
gie m
mi nistra
Ġkiedy ÅĽ
Ġwi dzi
wi aÅĤ
W iÄĻ
Ġorgani za
Ġle ka
Ġwyko na
Ġpo ÅĤu
en tu
ta Äĩ
Ġe fek
Ġbi aÅĤ
ro z
ĠEuro pej
Ġprzewo dni
Ġzna czy
S A
Ġp er
ta cji
na wi
pre z
ĠS t
o logi
t owaÄĩ
ch e
p l
ni ÅĤa
ow ski
ĠkrÃ³ t
ob ie
Ġsze ro
Ġraz u
Ġinforma cji
Ġpowi nien
Ġpow sta
resz tÄħ
ĠpieniÄħ dze
pie rw
i r
Ġmoje j
Ġd owie
ow aÅĤy
ĠcaÅĤ Äħ
Ġzn Ã³w
Ġzde cyd
Ġg e
aÅĤo by
Ġre sz
K to
Ch ci
Ġzas ad
Ġ2 5
ni kiem
Ġz y
le g
Ġzd r
Ġwym ie
Ġzosta nie
o nie
ĠciÄħ gu
Ġsk ÅĤad
ĠNie m
st rz
Ġwy d
lo ne
Ġzmi any
Ġw rze
na l
Ġs Äħd
t h
Ġob ser
ĠÅ¼ad nych
owi ad
D latego
na le
Prze z
Ġjak a
S am
owan ej
Ġw raz
d ne
ĠC i
Ġpra cu
Ġele kt
je sz
Ġe uro
ĠÅĽmier ci
ĠI I
Ġi naczej
k owych
Ġk sztaÅĤ
w ane
Ġf un
Ġpoz io
Ġprze wi
Ġs a
Ġnau czy
Ġkom p
Ġprzy po
p oÅĽ
Ġna zy
Ġgdy Å¼
Ġprzed e
Ġspe ÅĤ
t am
R e
Ġu de
Ġnie mal
ĠS o
Ġml n
Ġp l
rowi a
Ġpomo cy
Ġz nak
pi sa
Ġchara kt
p owie
Ġst rze
t na
Ġty tu
Ġrobi Äĩ
ĠgÅĤ owy
Ġ 0
D zie
Ġnie u
no c
k owaÄĩ
Ġu kry
Ġb owiem
Ġmu zy
Ġsk Ã³
czywi st
ĠM ie
my sÅĤ
ĠÅ¼y ciu
Ġd owo
n Ã³w
Ġnor mal
owan ym
Ġt aj
Ġsk ar
dze niu
ĠpaÅĦst wo
Â Ń
Ġog Ã³l
Ġspo koj
Ġzost aÅĤo
oÅĽci Äħ
Ġm nÄħ
ĠR ze
le w
Ġna rod
owan ego
Ġz ni
1 5
ĠÅĽrod kÃ³w
t w
Ġw ych
za leÅ¼
Ġpie niÄĻ
m Ã³w
Åº ni
owa niem
Ġch cÄĻ
Ġda le
o nego
ak ie
Ġuwa gi
Ġd al
p ÅĤa
z mu
Ġo two
ne t
Ġwy ob
Ġpow ro
Ġjed na
cz ych
Ã³w czas
ow aÅĤo
ĠÅĽ wiÄĻ
Ġs ier
n d
Ġdro gi
Ġnie rucho
½ï ¿
Ġpa pie
Ġprze strze
rz aÅĤa
ciÄħ ga
Ġpo sie
T en
Ġob o
Ġkieru nku
Ġk as
Ġza b
sze ch
Ġz im
a nia
½ï¿ ½ï¿
on Ã³w
szy Äĩ
ĠpiÄĻ Äĩ
Ġpomo c
Ġk oÅĽci
Ġzain teres
Ġt Äħ
ra d
Po tem
ni j
Ġ ÅĤo
ma ga
ĠgÅĤÄĻ bo
1 2
ĠcaÅĤ kowi
Ġdziec ko
ĠrÃ³Å¼ nych
ÅĦ ska
Ġra mi
arÃ³w no
Ġdo cho
Ġt ru
g er
Ġwy raÅº
ĠD e
S po
Ġnaj mniej
Ġra mach
cyj nego
ÅĤa szcza
Ġinwe sty
c am
Ġn owo
ar e
Ġud aÅĤo
Ġnie co
nÄĻ ÅĤo
d ia
Ġza po
L u
ra Å¼a
Ġwyma ga
Ġpot wier
as ad
cie j
Ġno cy
wa jÄħ
Ġe lem
Ġwy Å¼
k owo
Ġmi l
Ġza nim
Ġwo dy
P anie
ĠwiÄĻksz oÅĽÄĩ
Ġk wo
al ny
ĠÅĽrod owi
st wie
Ġwyda je
c om
ch Ã³d
Ġty pu
R o
Ġwoj ny
ci s
Ġwyp owie
ĠwzglÄĻ du
mo c
g ad
Ġm Ã³w
O czywiÅĽcie
k rzy
Ty lko
bli Å¼
Ġroz wo
Ġza jÄĻ
Ġo cze
mie niu
pra wie
Ġzro zumie
Ġwi daÄĩ
Ġp rem
Ġw ro
ÄĻ dzi
Ġw ycho
Ġwy jÄħ
Na wet
ĠJ u
k Ã³j
Ġwy wo
ce nt
Ġpan u
st w
Ġst ru
tych miast
Ġnie ch
le s
Ġb rz
Ġno c
Ġbra k
Ġsp ad
Ġnadzie jÄĻ
Ġo grani
ĠB ar
si Äħc
Ġwy ro
nÄĻ ÅĤy
ĠÅĽ le
Ġ19 7
ĠbÄĻdzie my
ĠmoÅ¼e my
e ÅĤ
Ġza cho
Ġprzy najmniej
tu ra
r ym
Ġ Y
ĠP O
Ġna tychmiast
Ġmoc no
ĠdotyczÄħ ce
Ġdo st
T u
ĠwÄħ tp
ĠdokÅĤad nie
ksz taÅĤ
Ġczas em
S Äħ
si Äĩ
z dy
Ġmi aÅĤem
Ġsty cz
Ġ Â
Ġpo ÅĤÄħ
T ym
ĠD a
sz li
i um
ÅĦ skich
Ġkon tak
Ġwoj sk
rzy st
Ġw cale
Ġsko ro
Bar dzo
Ġe g
ni ca
my ÅĽl
Ġu da
Ġpoz na
Ġz gÅĤo
Ġw as
Ġu ch
ĠP an
Ġin ny
Ġc u
li m
Ġpo s
ĠB a
Ġsam ego
Ġzap yta
gie l
Ġma ja
t nych
Ġni czym
ty cznie
ni one
Ġprze kona
ĠprzedsiÄĻ bior
Ġprzy zna
Ġwz iÄħ
Ġ5 0
Ġh o
Ġdro dze
cie le
ro Å¼
Ġmo ja
Ġot war
tor y
Ġpod stawie
Ġkon ku
c ych
Ġozna cza
P an
P ier
Ġproje ktu
Ġo to
Ġtrze ch
ĠbyÅĤo by
w nÄħ
Ġmi aÅĤy
un kt
Ġna sze
Ġw reszcie
cz onych
ĠO d
w an
ĠM e
T a
Ġwra Å¼enie
Ġs ym
mie nia
Ġrodzaj u
Ġpry wat
Ġrodzi ny
Ġpra wi
z er
Ġpo cho
3 0
Ġzap ytaÅĤ
i Äĩ
Ġlu bi
Ġob a
ĠtÅĤu ma
Ġobec nie
Ġpro pozy
skie m
Ġna szych
o nej
kie r
Ġpyta nia
Ġprzez na
Ġcze ka
Ġzgo dnie
Ġz re
Ġd r
je Å¼d
ĠmoÅ¼e sz
ĠcaÅĤ ej
da nie
Ġz ja
Ġtwo je
Ġjakie j
ĠAn d
Ġodpowie dni
z w
Ġza gro
Ġsz pita
ra cji
rze m
Ġh i
ĠosiÄħ g
z wy
Ġsprze da
Ġad ministra
Ġroz wi
tu r
ĠP rzy
Ġucze st
Ġjeste ÅĽmy
m ÄĻ
cz kÄĻ
ow ymi
Ġok rÄĻ
Ġk rÄĻ
Ã³ re
ro st
Ġpoja wi
Ġpoprze dni
s or
gra fi
le ga
dzie siÄħ
ĠPi S
re su
Ġdo sko
ka zu
Ġz arÃ³wno
n ne
Ġpod kre
Ġminu t
Ġpoz ostaÅĤ
Ġw ymi
Ġnie miec
Ġdo stÄĻp
Ġza czyna
ĠznaleÅº Äĩ
Ġwiad om
Ġza ba
Ġzmie ni
Ġo pera
c kiej
Ġprezy den
Ġwie sz
Ġmomen cie
Ġin stytu
Ġko goÅĽ
dzi li
Gdy by
or d
Ġzna cznie
ÅĤ Ã³
Ġ v
Ġcie r
Ġi l
J uÅ¼
Ġpowie rz
sk ar
00 0
k an
n nych
n ka
- -
ĠcaÅĤ e
Ġwo kÃ³ÅĤ
ĠW a
ĠM u
Ġb ÅĤÄĻ
w art
wo je
Ġmi aÅĤo
Ġgo r
li za
st r
d wie
Ġna szej
Ġo sie
dz iÄĻ
Ġzami ast
Ġwiad omo
Ġpre ze
Ġni ko
Ġprzeciw ko
Ġk l
s on
Ġty siÄĻcy
Ġak tu
Ġb ym
nie ÅĽÄĩ
Ġsw ego
Ġd Åº
Ġli p
Ġchci aÅĤa
f er
cyj ny
wa ran
ĠS a
Ġkobie ta
Ġin nymi
Ġprac ÄĻ
li ka
Ġdzie dzi
no s
Ġre gi
Ġwy ciÄħg
Ġwie lo
li wie
Ġpo rÃ³w
k owa
Ġkon kre
Ġdecy z
Ġnierucho m
an ta
mis ja
at er
w z
cie la
ka zuje
w sze
Ġna sz
c kie
Ġsu k
ĠmÃ³wi Äĩ
Ġdzie je
rÃ³ j
cie c
M usi
zn aÅĤ
wie n
czy li
Ġzak u
Ġt ry
Ġgdzie ÅĽ
ÄĻ dzie
Ġpo now
ĠporzÄħd ku
Ġz nik
Ġop ÅĤa
Ġfi zy
jed no
Ġzast ana
Ġwe dÅĤug
sz nie
Ġwi dzÄĻ
rze ÅĦ
k owy
wiÄĻ ksz
Ġre li
wi cz
Ġna dz
cz noÅĽÄĩ
ga ch
Ġk am
Ġwy zna
ĠK u
ÅĽci u
Ġszcze g
ÅĦ skie
Ġza wiera
Ġpo sÅĤa
ĠmoÅ¼ liwoÅĽÄĩ
Ġarty ku
Ġgo t
czÄħ cy
Ġmi nistra
al nych
Ġpierw szej
.... ....
Ġstan u
Ġwy na
Ġb la
ĠW il
Ġhistor ii
Ġau to
Äħd Åº
an ow
Ġrze czywist
Ġkla sy
Ġch ÄĻ
Ġmoje go
ĠÅĤ Ã³Å¼
ÅĤ aÅĤ
. )
Ġzosta Äĩ
ob i
Ġcy wi
1 7
Dla czego
Ġg Ã³r
Ġze spo
Ġu rzÄħ
Ġte ch
sz Äħc
Ġp owy
Ġchce sz
Ġdo strze
Ġn owych
Ġw Ã³wczas
ĠNa rod
sz am
ra m
1 6
Ġe ko
Ġp rÄĻ
cz ona
no mi
Ġ ana
Ġka pi
Ġ2 4
n ny
Ġwi dziaÅĤ
Ġk im
Ġmy ÅĽle
pra wi
st ro
ĠA u
ĠS y
Ġan ty
Ġczego ÅĽ
Ġza rzÄħ
Ġoj ciec
Åºdzie r
Ġzda niem
Ġwart oÅĽci
Ã³ g
cyj nej
le gÅĤo
Ġte k
ĠM ich
jÄħc o
ĠPo d
Ġgru py
Ġpraw dopodob
Ġc Ã³r
Ġza pom
k Äħd
Ġop owie
ĠmieszkaÅĦ cÃ³w
Ġre prez
Ġpo ra
niÄĻ cia
Ġu czu
ĠP e
dz am
o ÅĤa
cj onal
Ġdob ry
on ymi
/ /
Ġzak ÅĤa
ĠpieniÄĻ dzy
ÅĽci Äĩ
pi su
Ġp unkt
ob rze
ĠB y
Ġnie bezpie
Prze d
Ġpi sa
niÄĻ cie
sÅĤu gi
Ġg ry
Ġjedno czeÅĽnie
5 0
ni ce
D D
ne s
ĠÅ¼ad nego
Ġsie dzi
Ġwy bu
cz aÅĤ
ÅĦ skim
ĠuwaÅ¼ a
Ġbez poÅĽ
ÅĽci Äħ
r waÅĤ
Ġsz ans
ĠJ an
de l
Ġzmie nia
Ġpowin na
aty w
t on
ĠB e
L i
Ġg mi
m ar
Ġpom iÄĻdzy
Ġko rzysta
Ġod da
Ġprogra m
li ty
si a
Ġst at
ne mu
Ġna szego
kaza Äĩ
Ġpa Åºdzier
ĠWie l
Ġu prze
Ġry nku
ko ÅĽÄĩ
1 4
Ġtele wi
Ġod kry
c kich
Ġpro c
Ġprzy pom
g h
Ġb lo
em i
ent Ã³w
ĠrzÄħ du
n owa
ro b
n ami
Ġzw ÅĤaszcza
Ġ19 3
Ġfir my
M ie
al nego
Ġch cÄħ
Ġam eryka
Ġh and
Ġz ÅĤa
Ġh a
ie ra
ĠkaÅ¼d ego
ow nie
Ġodp owiada
Ġpo ry
Ġkobie t
Ġz or
Ġdo j
Ġfa ce
na rod
Ġmi ast
w w
Ġpod ÅĤo
n aÅĤ
Ġk wiet
1 3
Ġwy po
Ġwyso koÅĽci
rÄĻ cz
b or
Ġpo ch
A l
Ġodp arÅĤ
Ġpo mi
t at
owan Äħ
jÄĻ cie
Ġdoty czy
Ġdzi aÅĤ
ty j
Ġnaz wi
ÅĽci ÅĤ
Ġn um
szu ki
ĠÅ» y
Ġjak ich
st emu
Ġ19 6
Ġtra kt
Ġwy Å¼ej
Ġpowin no
Ġ [
k la
pu szcz
My ÅĽl
Ġsier p
Ġpierw szym
ie l
Ġci aÅĤa
Ġdo prowa
Ġza rzu
w ki
Ġfil m
wa j
Ġu bra
lo t
D Z
Ã³ ki
Ġpoz wala
ro ni
Ġg rze
Ġpo je
Ġznaj om
Ġp ÅĤo
ĠT u
Ġ2 2
Ġod rzu
Å¼ na
owa ÅĦ
z du
ja ch
Ġprzy by
ĠU krai
k owej
t Ã³
Ġli sto
ĠL a
Ġpi Äħ
wia jÄħ
Ġd anych
Ġs cho
Ġdob ra
Ġpi ÅĤ
g ami
Ġza tru
Ġna stÄĻpu
pi a
ĠO r
yt aÅĤa
Ġna tural
ĠD u
Ġp Ã³j
k ÅĤo
ta rz
Ġstycz nia
ĠU SA
Ġni czego
fe ren
ÅĦ ca
ĠmÃ³wi Äħc
Ġk ad
sie j
Ġcz tery
w ym
Ġpro fe
wo z
Ġjak oÅĽ
ra t
w any
Ġmie siÄĻcy
ĠMar szaÅĤ
moÅ¼ li
ĠszczegÃ³l nie
wa jÄħc
Ġna szym
Ã³r ych
z wo
ĠwspÃ³ÅĤ pra
Ġszko ÅĤy
Ġse na
w ego
Ġby ÅĤem
Ġpe wien
Ġpo ÅĤ
Ġz aÅĤ
Ġ ÅĤad
on t
Ġi dzie
ar ÄĻ
Ġp ÄĻ
Ġpo stanowi
Ġru chu
Ġpar ÄĻ
Ġznaj du
Ġle Å¼
Ġsp owo
re ktor
ĠH e
Ġz mu
kro tnie
nie c
ĠR y
Ġoj ca
ĠwyÅĤÄħ cznie
ĠgÅĤÃ³w nie
Ġlu d
Ã³ z
Ġme dy
Ġprzy jem
s am
la s
Ġniez wy
go r
wnÄħ trz
Ġg waÅĤ
Ġmu szÄĻ
go dni
Ġznaj duje
Ġza tem
Ġi t
Ġcze r
W ÅĤa
Ġzrobi ÅĤ
Ġk Äħ
ĠS i
Ġn os
b el
Ġrze czywiÅĽcie
t tp
wz glÄĻ
Ġdzie siÄĻ
Ġwy gra
ra k
Ġmog ÅĤo
g nÄħÅĤ
A N
Ġb rze
ĠR u
ÅĽcie j
Ġsy stemu
f y
Ġo ÅĽwiad
Ġostat nie
ĠÅĽ la
Ġw ers
fi ka
Ġmia sto
Ġw am
Z e
: //
niÄĻ te
Ġg ar
bie g
Ġsi ost
ni wer
ĠW e
ĠRa dy
ĠÅĽ redni
sp Ã³ÅĤ
Ġfak t
Ġpro te
Ġprze stÄĻp
P owie
Ġmie siÄħ
ja w
tych czas
Ġz wiÄĻk
ato miast
Ġof er
ko ÅĦ
Ġtaj em
ĠC ie
Ġsze f
sze k
pie nia
Ġzd rowia
Ġpod mio
Ġdu Å¼e
Ġs ami
Ġpo pu
Ġu wie
Ġpowin ni
Ġmie sz
jech aÅĤ
kaz aÅĤ
Å¼ ony
nÄĻ li
Ġzawo d
Ġdoku men
Ġsi ÅĤ
Ġbu dy
Ġme to
dziaÅĤ u
Ġtrud no
nÄħ ÅĤem
Ġm art
rz Äħc
Ġmo ich
Ġwrze ÅĽnia
Ġgodzi n
Ġpotrze bu
Ġzw rÃ³ci
ĠmoÅ¼ liwe
ĠP u
ĠcaÅĤ ym
bie ga
w ych
Ġrze kÅĤ
Ġza pis
Ġpole ga
Ġmi ni
Ġar gu
wi am
ĠrÃ³Å¼ ne
Ġru ch
q u
Å¼ one
Ġb ÅĤy
Ġz i
A T
Po za
ĠkrÃ³ l
ĠB u
Ġkon su
Ġko ch
w ej
Ġu czy
Ġna mi
! !
Ġpo kry
Ġsam ej
t Äħd
aÅĤ bym
N atomiast
Ġwie dzieÄĩ
Ġma szy
Ġpoprze z
Ġmo jÄħ
Ġ4 0
ĠgÃ³ ry
Ġwnios ek
O st
T rze
b ry
Ġniewie l
Ġwyko ny
da nia
Ġprz ycho
ĠwÄħtp liwoÅĽci
wa niu
ĠÅĽwiad om
o ra
ĠnastÄĻp nie
ĠmÄĻÅ¼czy zna
sz em
Ġnieruchom oÅĽci
lu b
Ġprzy czy
ch nÄħÅĤ
Ġmu szÄħ
Ġsi ÅĤy
Ġrozumie m
Ġn owego
Ġs m
b r
bie gÅĤ
Ġsku te
Ġbli sko
en d
Ġdow Ã³d
Ġst u
ĠposÅĤ Ã³w
Ka Å¼
Ġpomo cÄħ
Ġwe wnÄĻtrz
ĠPol ska
Je szcze
Ġgodzi ny
Ġnie d
Ġcho ro
Ġau tor
Ġkolej ne
Ġpoli cj
ĠKra kowie
ty czne
Ġposta ci
ĠzaczÄĻ ÅĤa
t nej
ro zumie
Ġu su
czo raj
sy te
Ġdziec ka
Ġgru dnia
le c
g rze
pi Äħ
k am
k s
Ġ '
Ġpa cje
By ÅĤa
Ġpol skich
v er
in form
Ġkole i
Ġczerw ca
ci n
niwer syte
Ġokre sie
Ġs mu
Ġspos ob
Ġsko ÅĦ
z ny
j ak
ĠbÄĻdzie sz
Prze cieÅ¼
Ġty god
nic ÄĻ
zy j
Ġzap ÅĤa
Ġpre z
Ġk rze
ci Ã³ÅĤ
k rÃ³t
ĠgÅĤo ÅĽ
Ġda je
en ty
Ġk art
2 4
Ġwy dat
ĠcaÅĤ kiem
ĠgÅĤo su
Ġsytua cja
ĠR oz
Ġp lu
ĠB er
Ġob sz
ĠprÃ³ bu
Ġpomy sÅĤ
Ġw ÅĤÄħ
czas em
Ġponow nie
Å» e
We dÅĤug
Ġ19 5
by ÅĽ
Ġt zw
Ġnaj waÅ¼
sz ÅĤ
Ġmie ÅĽcie
Ġprezy dent
pra szam
cj ami
P i
Ġtere nie
Ġk m
Ġnie wy
Ġz er
ĠR ad
Ġty p
cze ÅĦstwo
ĠS am
R O
Ġd ar
Ġzwy ciÄĻ
cze r
Ġodpowiedzi al
J ej
Ġf ran
t noÅĽci
Ġzwy kle
Ġz ob
S T
Ġw pad
Ġspo dzie
Ġg u
Ġwyko rzy
Je stem
Ġlip ca
Ġsu mie
Ġ2 3
or tu
r ii
ĠP ar
A r
Ġsy n
w or
ĠszczÄĻ ÅĽcie
Ġop owiada
Ġniekt Ã³rych
Ġza gra
czy ÅĤo
ko ÅĤa
dz ony
Wszyst ko
Ġs ez
Ġz ga
Ġlo kal
Ġbro ni
Ġit d
Ġpom Ã³
k lu
b ur
mi a
ĠH a
Ġpowo li
Ġry zy
Ġtran sp
szcze nia
ni aÅĤa
w ski
sy w
Ġkre dy
Ġjakie goÅĽ
Ġwz iÄĻ
Ġk rwi
li i
Ġci aÅĤo
dzie n
Ġeksp er
Ġpowie t
ĠSe na
lo na
ĠG o
Ġu p
Ġostatni ch
Ġod ez
ÅĤa ch
ĠZ ie
sz ki
S ta
en s
rz ad
Ġinforma cje
Ġra dy
Ġokaz ji
c ÅĤa
Ġmar ca
szcze gÃ³l
P a
Ġrozwo ju
Ġpoz ba
wo lu
Ġz nie
li na
Ġkom pu
le piej
Ġzro zu
wia jÄħc
Ġkan dy
Ġwie r
lek s
ĠR z
1 1
m Ã³wi
Ġsz czy
Ġpew ne
g iÄĻ
ĠM y
k nÄĻÅĤa
Ġprowa dzi
ĠkaÅ¼d ej
ĠG a
Ġn owy
ĠÅº rÃ³d
Ġsam e
Ġdo tar
ĠdziaÅĤa ÅĦ
ĠwÅĤaÅĽci wie
Ġto r
Ġpew noÅĽciÄħ
Ġok res
Ġsp ÄĻ
Ġprzed mio
Ġau t
mie r
owa ni
Ġuli cy
u sza
ĠNa j
ÅĤo po
ĠP io
ĠgÅĤ owie
Ġpracow nikÃ³w
d ny
Ġistnie je
Ġsk le
ĠdziaÅĤal noÅĽci
Ġsp rzÄĻ
Ġo skar
w am
Ġostat e
Ġb ry
i om
Ġocze ki
ĠMi nist
ĠcaÅĤkowi cie
Ġb ÄħdÅº
Ġwyb or
Ġwy peÅĤ
ĠwyraÅº nie
dza Äĩ
ĠdÅĤu gi
an ki
ĠWarsza wie
Ġre k
ktu ry
Ġdecy zji
Ġwy stÄĻpu
mi i
sz t
n ar
Ġwy t
Ġch or
p h
Ġinte res
Å¼ ÄĻ
nios ÅĤa
Ġlek ko
Ġop ar
c kim
ment Ã³w
Ġwsp ar
Ġz resztÄħ
Ġkon ty
ĠpÃ³ÅĤ noc
Ġz dÄħ
Ġz bro
ĠwÅĤa dzy
Ġmie j
ra ÅĤ
s ÅĤo
ĠpoÅĽ wiÄĻ
Ġcharakt er
szy ÅĤa
c ym
Ġka waÅĤ
ĠwiÄĻ zie
Ġd niu
Ġhist ory
p ort
g at
Ġuzy ska
Ġstanowi sko
Ġ2 7
Ġem o
Ġpozio mie
ca Äĩ
Ġd ia
Ġzak a
ura t
Ġin ni
krÃ³t ce
Ġtra dy
ĠmÄĻÅ¼czy zn
dzie ÅĦ
Ġsuk ce
B i
Ġspo d
ĠS te
Ġgru p
Ġpunk tu
ĠU nii
Ġcz emu
ĠS u
Ġwi at
Ġdo tychczas
Ġs ka
gani z
Ġspoj rzaÅĤ
C Z
Ġza bezpie
Ġdo p
Ġ *
Ġdzi siej
Ġwzro k
de ÅĤ
ych i
rÃ³ cz
Ġdro gÄĻ
er w
dze niem
ĠÅº le
Ġpodob nie
dze ÅĦ
ĠL o
Ġ Äĩ
Ġkwiet nia
B ez
ĠS tan
Ġznaj dzie
z j
Ġnie stety
Ġsk Äħd
Ġwyko rzysta
Ġz gi
ĠwpÅĤy w
g ni
ok ra
Ġwypad ku
Ġtra kcie
Ġsp a
f f
Ġs ali
ĠbudÅ¼e t
ĠsÅĤ Ã³w
Ġnie wi
Ġzwie rzÄĻ
Ġszu ka
Ġze bra
Ġpo inform
Ġog ÅĤo
ĠF i
W tedy
ĠbudÅ¼e tu
Ġnaj pierw
Ġprze szÅĤoÅĽci
Ġsu b
Ġwy rzu
ĠdÅĤo ÅĦ
g la
ĠPa nie
Ġzd ol
Ġko misji
Ġza sko
Ġroz pat
Ġos oba
Ġu praw
le ÅĦ
i mi
R A
ĠpaÅºdzier nika
ĠÅ¼ad nej
w ÅĤa
Äħ Å¼
ĠÅĽwie t
Ġod bi
g aÅĤ
dz wo
d liwoÅĽci
Ġmog ÅĤy
Ġpo stawi
Ġrozpo czÄĻ
Ġak urat
ie nt
Ġprawi dÅĤ
Ġro syj
Ġmi strz
Ġpopraw ki
w cze
Ġd rew
s s
wa ch
Ġczy ta
Ġod wie
ro l
Ġsze p
ĠwÅĤo sy
ni n
dnie go
b Ã³w
Ġak tyw
Ġg i
Ġpo sÅĤu
ĠMo Å¼e
Ġnaj bliÅ¼
Ġpozwo li
Ġprzyja ciÃ³ÅĤ
Ġsp ytaÅĤ
cze niem
Ġi tp
dziesiÄħ t
Ġra cjÄĻ
Ġo dzy
ĠsÅĤu cha
ĠjakÄħ ÅĽ
Ġwal ki
Ġa g
d ii
Ġproble my
ĠcaÅĤ ego
Å¼e ÅĦ
ĠPro kura
ĠEuropej skiej
Ġzaj m
Ġp r
Ġokre ÅĽl
i on
Ġz amy
Ġpo mie
Ġo cho
Ġkomu nika
Ġocz ach
ĠD zie
Ġm ru
tor Ã³w
wen tu
Ġb ru
Ġnum er
Ġpoz iom
Ġsta Äĩ
ali ÅĽmy
ĠÅĽrod ki
u jÄħ
nu je
pi Äĩ
Ġob li
spo li
Ġc aÅĤa
S Z
kt Ã³w
dzi ÅĤo
Ġsierp nia
Ġspra woz
ĠbezpoÅĽ redni
Ġx D
niÄĻ ty
w ana
Ġko s
Ġo ku
Ġdale ko
Ġme cha
nia Äĩ
al nej
ĠK rzy
ali z
li zacji
Ġszczeg Ã³ÅĤ
Ġwol no
Ġno gi
Ġf ra
Ġwar to
dz onych
Ġ2 6
Ġprezyden ta
ĠwaÅ¼ ne
Ġza leÅ¼
wie nia
Ġdy rektor
ĠmÃ³w iÄĻ
O t
Ġkon sek
n tÃ³w
Ġzoba czyÄĩ
Ġd wo
Ġwi l
Ġz dzi
Ġdrugi m
Ġo rze
d ak
Ġpier si
l ami
ĠzwiÄħz ane
ci sk
Ġp ad
Ġo ka
Ġar e
Ġin f
Ġws cho
Ġp ÅĤ
Ġmat ka
t kiem
i na
Ġz wol
Ġna stÄħpi
Ġkolej ny
Na stÄĻp
niej szych
j my
ĠWarsza wa
M ar
Ġgo dz
D a
ni ony
Ġodpowie dÅº
Ġprzypo mina
l ne
K on
ĠG ra
M Ã³wi
Ġw si
ĠT a
ĠmÃ³wi Äħ
k owego
li a
ĠG e
ĠC ent
li k
sty czne
Ġte chni
Ġu bezpie
Ġt rwa
Ġpro sto
Ġodpowie dziaÅĤ
by ÅĽmy
Ġ2 8
Ġkry ty
f ie
Ġps ycho
ÅĽli Äĩ
Ġnie zaleÅ¼
Ġbezpie czeÅĦstwa
Ġkom enta
Ġpol skiego
Ġse ku
Ġz ÄĻ
Ġst Äħd
Ġu pad
Ġwy nosi
Ġi d
tk owo
Ġza wie
Ġs kier
Ġtym i
fi k
Ġh ttp
dzi sz
ĠE l
Mi mo
ow skiego
dzie la
Ġi z
Ġznalaz ÅĤ
Ġjakim ÅĽ
t nego
Ġnaj wiÄĻksz
ĠchciaÅĤ bym
O n
Ġpo pro
Ġme di
Ġorgani z
ĠwiÄĻksz oÅĽci
Ġczym ÅĽ
Ġlisto pada
Ġsto i
Ġz bli
mi aÅĤa
nic two
Ni c
ĠC ze
le tnie
Ġw strzym
Ġd ane
Ã ©
Ġspe cjali
Ġpra g
Ġinte resu
M u
Ġt he
Ġst aÅĤa
Ġtran s
Ġbud ow
Ġda Äĩ
Ġu j
d ek
Ġ ÅĤu
ĠSej mu
Ġzast os
Ġwi zy
Ġg wia
Ġcie p
Ġs ÄĻdzi
Ġpi sze
Ġku p
Ġspokoj nie
am a
Ġkry ter
Cz as
Ġg ÄĻ
Ġde lika
ak s
Ġin ten
Ġt ar
al na
Ġprzepis Ã³w
as a
Ġcz te
k aÅĤa
Ġna r
Ġnie bie
Ġf aj
ĠÅĽmier Äĩ
Ġpo jÄĻcia
Ġps ychi
2 00
Ġpow szech
Ġch u
Ġproce s
logi i
n na
Ġc ud
kÅĤa da
Ġprogra mu
on ami
ĠF un
Ġor gan
n nego
Ġost rze
ĠR ob
mi ot
sze ni
ĠBi aÅĤ
Ġproble mu
2 1
Ã³ rzy
st aÅĤa
ĠK oÅĽci
ĠuÅ¼y tk
Ġstud i
Ġre ak
gi a
ĠM at
Ġpo szczegÃ³l
P ol
o ni
Ni kt
m os
Ġkwest ii
s la
ĠÅĤa two
cz nymi
Ġh u
le y
pra wy
Wy so
Ġe ta
ĠB ry
wi ÅĤa
Ġspo tk
Ġnaj wy
Ġorgani zacji
ĠEuro py
D ru
Ġkontro li
Ġstos unku
Nie stety
Ġli nii
T am
Wszy scy
dz ono
ni cj
Ġdzie l
wÃ³ d
Ġz mniej
Ġwyja ÅĽ
Ġsp ort
Ġsie ci
Ġte ry
for ma
Ġu cz
Ġmusi aÅĤa
Ġak cji
ĠciÄħ gle
ow er
Ġwnios ku
Ġwie lko
Ġj ad
ĠporÃ³w na
Ġw ez
cz em
Ġa lko
ĠS po
Ġko go
Ġeuro pej
t owaÅĤ
Ġd i
rz as
Ġjaka ÅĽ
Ġtery tor
Ġeg z
Ġwiel ki
Ġkor yta
Ġg waran
ĠH o
Ġza o
ar ÅĤa
jeÅ¼d Å¼a
Ġpas a
Ġkl ien
cyj nym
wen cji
By ÅĤo
Ġra no
nie si
yta nie
Ġod wo
Ġtelef on
Ġmi nist
Ġochro ny
Ġmie siÄħc
2 3
cie ra
d ÅĤem
Ġbo h
d owaÄĩ
ĠK ar
le ni
s et
ĠPo li
Ġkandy dat
Ġwy nik
Ġzak ÅĤad
Ġnaj wyÅ¼
Ġpo bli
2 5
Ġwiel kie
Ġprze sta
Ni gdy
dzi aÅĤy
s h
Ġt uÅ¼
Ġstwier dziÅĤ
ĠgÃ³ rÄĻ
Ġprzy szÅĤo
nic Äħ
ĠpeÅĤ ni
ĠdÅĤu Å¼
Ġ ?
Ġprze by
Ġuz asad
Ġpar lam
Ġch i
* *
Ġk rew
ÄĻ p
Ġmu sie
Ġpod rÃ³Å¼
sz ÅĤy
Ġpierw szego
Ġu sÅĤu
Ġzap ach
g no
Ġwszyst kiego
Ġt ow
DziÄĻ ki
Ġzob owiÄħ
ow oÅĽÄĩ
Ġzapro pon
ÅĦst w
Ġpo Å¼y
le ra
Ġcz a
Ġpol skiej
Ġ2 1
Ġpro pon
Ġe du
ĠÅ¼ad en
Ġpowin ny
ĠwzglÄĻ dem
Ġwym y
Ġ6 0
Ġmo ment
Ġko mi
Ġprodu k
Ġeko nomi
Ġog ar
ĠpostÄĻp owania
ow cÃ³w
nie Äĩ
sÅĤa wa
ĠJo h
p aÅĤ
Pod ob
ga Å¼
ĠmÃ³gÅĤ by
Ġdo szÅĤo
ĠsÅĤuÅ¼ by
Ġpowro tem
Mo Å¼na
Ġch cieli
ĠpomÃ³ c
Ġb ur
Ġniko go
Ġf e
Ġu s
ĠmiÄĻdzy narod
dzi ÅĤem
Ġwy niku
Ġnie do
sz ony
Ġnie przy
Ġ ÅĤy
rzy ÅĤo
ÅĦst wie
Ġpozy tyw
an ka
Ġ ;
Ġ2 9
ro du
ĠsÅĤ owo
Ġ rzad
Ġwi dzenia
Ġh e
Ġrozpo rzÄħ
Ġdu ch
Ġzasa dy
Ġlo tni
WiÄĻ c
Äħ ÅĤ
Ġpo peÅĤ
Ġdro b
ĠrÄĻ kÄħ
Ġst re
Ġdrugie go
Ġreali zacji
Ġzd ra
Ġpotrze by
st ej
D e
ĠH i
ĠRe gi
Ġin stru
dzi a
Ġod ci
Ġi ÅĽÄĩ
ĠmÅĤo dzie
ĠKra kÃ³w
Ġmateri aÅĤ
ĠÅĽ nie
ĠH ar
C ie
Ġsamo rzÄħd
Ġem ery
sza Äĩ
Ġpo da
Ġcent rum
b at
Ġza nie
gra m
Ġws piera
Ġim iÄĻ
Ġpow tÃ³
Ġrozm owy
Trze ba
Ġo l
al nym
ĠÅĽrod ku
Ġ201 2
d ami
ĠprÄĻ d
Ġza leÅ¼y
ĠPo zna
Ġzja wi
ĠW ÅĤo
ad e
Ġlo gi
Ġsek re
s ach
s pi
Ġwyko n
Ġp rzym
Ġfran cu
Ġs ch
Ġst er
jÄħc ymi
b un
nicz ych
Å¼e k
Ġmet rÃ³w
za cja
ato li
A R
f li
ĠwÅĤas ne
niej szy
ĠciÄĻÅ¼ ko
Ġz bud
w skiego
Ġdru gÄħ
d owaÅĤ
Ġnaj lepiej
Ġpoli cji
Ġz ez
ci o
ĠÅ¼oÅĤnie rzy
Ġsze re
Ġnie o
ci li
Ġbada nia
Ġje Åº
t nym
Ġ /
Ch yba
Å¼ ona
Ġtrzym a
Ġan giel
po spoli
rabi a
Ġci cho
W o
ĠRos ji
ta rza
owie c
zwy czaj
gro ma
Ġkon cer
akie m
n oÅĽ
Ġkon tra
ĠA dam
Ġod czu
gÅĤ ÄĻ
Ġbi ur
glÄħ daÄĩ
Å¼e m
Ġu two
ĠD ziÄĻ
Ġprodu kcji
P ani
Ġdo daÅĤ
ĠmÃ³ z
Ġsto li
Ġzaw ar
Ġu my
ĠmyÅĽl ÄĻ
cz nik
Ġ ËĿ
Ġprze my
ĠL on
Ġbi or
Ġusta w
Ġs ur
ĠT V
Ġo pis
ÅĦ cu
ĠrÃ³w no
O N
Ġum owy
Ġsta ro
Ġmusi my
Ġpo szuki
nie waÅ¼
ĠSej m
d na
Ġdo tk
Ġsze ÅĽÄĩ
pu bli
Ġprze kaza
czy ÅĤem
t nÄħ
Ġpow strzym
Ġusta wie
m Äħ
Ġkon stytu
Ġprze czy
so lu
ĠG re
owa liÅĽmy
__ __
te rze
O W
Ġpra ce
ry sty
Ġwy stÄĻp
Ġe wentu
Ġsek su
Ġd aÅĤ
Ġwystar czy
Ġlicz ba
2 2
Ġofi cjal
P ew
Å¼y li
Ġwo li
le ci
Ġlu tego
k owaÅĤ
ĠÅĽ pie
Ġspo ro
j Ã³w
ch aÅĤ
Ġsy gn
c one
Ġd Ã³ÅĤ
Ġch wy
Ġnie nawi
Ġwi os
za jem
Ġosob i
ĠF a
rze ÅĽci
Ġdo d
at ry
Ġ Ã³w
? !
Ġpolity ki
ĠD la
re ch
ĠpostÄĻp owanie
siad ÅĤ
nia jÄħ
Ġli st
Ġprokura tury
Ġw czoraj
ĠK rÃ³
Ġf ar
Po z
Ġw rÄĻcz
Ġw cho
Ġco dzien
si ÅĤa
Ġstro n
Ġsamo chÃ³d
Ġt wÃ³r
Ġmo cy
MyÅĽl ÄĻ
E R
Ġdru Å¼y
Je ste
pa Äĩ
mie nie
ĠdÅĤu gie
ty ka
Ġdo star
Ġo prac
d r
ĠczÅĤon kÃ³w
Ġwi Äħ
Ġk ÅĤopo
c ony
Ġzapew ne
Ġwido k
nie ÅĦ
Ġsw ej
Ġs ce
la cja
ma wi
Ġpo ciÄħg
S y
ÅĤu ma
szcze nie
Ġzd jÄĻ
ĠksiÄħÅ¼ ki
trze b
kow ski
âĢ ĭ
n am
ĠP re
pisa Äĩ
Ġobser w
ĠCh i
Ġsp i
Ġnie spo
l nego
Ġpart ii
o ty
Ġza wi
p onu
f ry
Ġlicz by
l ny
ĠÅĽci an
Ġod d
z ÅĤ
pa nii
Ġsza c
la cjÄĻ
ĠN e
gra nicz
Ġwypowie dzi
Ġz biera
l on
Po nad
ĠWo j
Ġot wiera
ÅĤo s
Ġu zn
let ni
Ġpew nym
Ġty godni
Ġzauwa Å¼yÅĤ
ĠurzÄĻ dni
ĠchoÄĩ by
Ġar chi
Ġte z
Ġstanowi ska
½ï¿½ï¿ ½ï¿½ï¿
ko ny
Ġsz ar
Å¼e niem
Ġproce du
Ġwy sy
sp on
Ġtech no
w aÅĤem
ĠP os
ĠMie j
d niu
Mi aÅĤ
cze ni
p art
ĠZ jedno
Ġce n
Ġmusi sz
Ġte ren
ĠU E
Ġofi ar
b le
Ġpol ski
ĠPol akÃ³w
Ġte or
ĠK at
ĠgwaÅĤ tow
e ra
ĠÅĽrod ka
ĠzaÅĤ at
rze niem
cem y
Ġwystar cza
Ġk wa
Ġwy co
dzi ÅĤy
Ġmar szaÅĤ
Ġpo Å¼
tu rÄĻ
Ġfun du
Ġprowa dzone
Ġopi nii
ĠgÅĤos em
b iÄĻ
st rzy
sz aÅĤem
legÅĤo ÅĽci
dza nia
ĠG da
Ġu moÅ¼li
za cjÄĻ
Ġsen s
Ġs al
Ġm al
t ymi
Ġzasa dzie
Ġprzy szÅĤoÅĽci
Ġsz k
Ġko lo
w ano
Ġprze su
Ġdysku sji
e la
Ġp il
Ġza gad
Ġrodzi cÃ³w
sta wia
U S
Ġusta wa
Ġsamo lo
Ġbi z
Ä ĺ
nÄĻ ÅĤam
Ġprawdopodob nie
ĠMarszaÅĤ ku
Ġdo ro
Ġu czni
s kÄĻ
Ġprze kon
Ġpowie trze
C H
Ġw d
rÃ³ g
Ġin dy
Ġstra Å¼
Ġu wzglÄĻ
v a
Ġz bior
Ġpod pis
Ġz du
Ġter mi
wie nie
Ġnaj wiÄĻk
ral nie
rzÄħ t
nik ami
Ġ8 0
ĠK i
Ġni by
sz aÅĤa
at em
Å¼e niu
Ġreali z
Ã³ dz
p al
Ġniewie le
Ġzna czenie
Ġdysku s
Ġpod jÄĻ
Ġgo ÅĽci
ĠL ud
ĠT h
no szÄħ
Ġbro ÅĦ
Ġpot ÄĻÅ¼
Ġsko ÅĦczy
p Ã³w
Ġokaz aÅĤo
p rz
Ġin nej
Ġg nie
s c
ĠszczÄĻ ÅĽli
ak o
Ġpo maga
Ġzor ganiz
Ġmat ki
waÅ¼ a
bi a
ĠR P
Ġsytua cjÄĻ
Ġjednost ki
tu rze
Ġwol noÅĽci
ĠT he
Ġcz war
Ġob jÄĻ
cz ar
Ġpo ni
Ġost roÅ¼
Ġzwy czaj
n nej
Pod czas
Äħc ym
Ġosie m
pu szcza
owaÅĤ am
ĠmaÅĤ e
li ÅĤa
Ġproblem Ã³w
Ġdziewczy na
ĠI II
Ġre j
Å¼y ÅĤem
DZ IA
Ġpo go
Ġ201 0
Lu dzie
ĠciÄħ g
P at
Ġprze pisy
P ow
ÅĦ ce
Ġkul tury
s pie
cyj na
Ġza stÄĻp
Ġkat ego
pi ÅĤ
n Ã³
Ġdaw no
Ġser ca
Ġu spo
Ġpozy cji
Ġ9 0
l nych
an g
szÄĻ dzie
ĠBo ga
Ġmusie li
Ġstop niu
Ġstra sz
Ġo czu
Ġinter net
Ġdzien nika
ĠpomyÅĽl aÅĤ
h am
Ġwy biera
Ġk ÅĤam
Ġli tera
Ġka z
Ġ and
Ġza t
ĠK om
g Ã³
dzo na
do by
Ġre je
i ÅĤ
Ġkwest ia
Ġ +
ki mi
r ych
Ġz bi
Ġz b
ĠdziaÅĤal noÅĽÄĩ
Ġpubli cznych
Ġrzeczywist oÅĽci
Ġwy stÄħpi
Ġstan dar
il l
Ġpo rozumie
Ġbra ku
ĠzÅĤo tych
Ġpro f
ĠFran cji
s cho
Ġkonty nu
Ġmieszka nia
Ġbada ÅĦ
Åº nie
Ġto bÄħ
W ar
Ġwie my
ĠÅĽwiat ÅĤa
Ob ec
C i
czy k
dÅĤu Å¼
ĠA d
ĠO l
lo g
l nie
C zu
ĠrozwiÄħza nia
Äħ b
Ġro lÄĻ
ĠskÅĤa da
Ġspo ko
Ġn owej
Pra w
Ġko ÅĤo
Nie ch
Ġko ro
Ġjak oÅĽci
ĠwÅĤas nej
Ġuprze j
an ce
ĠRegi onal
Ġsamocho du
st ym
ĠdÅĤu Å¼ej
Ġg Ã³w
Ġener gii
rze niu
B ÄĻdzie
Ġh er
d nych
ow ca
ĠsÅĤ ow
Ġat ak
Ġsie dem
Ġbudy nku
ko r
ÅĤ owa
Ġkon stru
Ġdo kona
Ġwie dzÄħ
ĠCh o
Ġczas Ã³w
Ġcz uje
fi kacji
ĠrÄĻ ki
Ġt war
K u
O p
Ġk r
Ġju z
lo zo
gi j
Ġzie miÄĻ
kÅĤa du
ĠmaÅĤ Å¼e
Ġzda nie
Tak ie
KaÅ¼ dy
Ġdrze w
Ġfo to
S ie
Jed no
ĠW ÅĤa
p ki
Ġzn am
Ġuczest ni
a g
Ġkupi Äĩ
st ry
ĠÅĽrodowi ska
Ġspotka nie
s ami
lu bi
ĠpoÅĤu dni
Ġcz ter
ĠÅļ wiÄĻ
lu m
Ġwyja ÅĽnie
Ġz are
Ġprze kaz
G dzie
ĠP ie
ĠktÃ³r ymi
ĠN A
ĠF e
ĠÅ¼y je
Ġod de
Ġzada nia
t aÅĤa
Ġwyna gro
Ġpowierz chni
Ġpat rzy
r ie
Ġzmi anie
owi cz
Ġze wnÄħtrz
k owym
Ġi nicj
Ġwarun ki
dzÄħc ych
Ġsy na
la Äĩ
Ġser ce
ĠPol skiej
R a
Ġpolicj an
da cji
Ost at
Ko lej
owa l
lom et
Ġwy bo
ĠoÅĽ rod
Ġrami ona
Al bo
mie ni
c t
o te
Ġko szu
Ġdecyz jÄĻ
Ġst ary
Ġmecha ni
Ġm on
Ġrobi Äħ
Ġtrzy dzie
ĠÅĽwiat ÅĤo
pie r
Ġde fi
Ġprzewodni czÄħcy
K t
st ego
at or
Ġwp rost
Ġnie daw
Ġzmie niÄĩ
Ġu tra
ĠBo Å¼e
Cz ÄĻ
Ġba b
ĠS tra
ĠC a
Ġzw raca
ĠM am
ast ro
P S
la cje
Ġza zna
Ġzost anÄħ
st wem
an na
ĠW ro
glÄħd aÅĤ
Ġp kt
c Äħc
Ġwie dzy
te lu
Wszyst kie
Ġostat nio
Ġfra g
S ko
Ã ĵ
Ġza grani
e na
Ġp y
Ġzna czenia
dzie my
ĠS Äħ
Cho dzi
Ġu po
Ġw chodzi
Ġpowy Å¼
ĠG dy
Ġdosko nale
Ġzdr owo
Ġb Ã³
l nej
Ġ201 1
Ġg at
ÅĦ cÃ³w
Ġczas ach
wi du
T A
Ġpod oba
ĠÅ¼y Äĩ
Ġzm ar
Ġkolej nych
czy ÅĤy
Ġzm ÄĻ
dz aÅĤ
Ġsen su
ĠmÃ³wi ÅĤa
ej m
Ġau tom
Ġga ze
ta li
pie c
bi li
Ġsz an
Jak ie
Ġro ÅĽli
ra c
ĠwiÄĻk sze
P amiÄĻ
ĠD i
Ġprze ÅĤo
Ġnapis aÅĤ
Ġsam Äħ
Ġ7 0
Ġza dzwo
Ġk rÄħ
rzÄħ s
f o
rzÄħ du
dzi ale
y a
ĠC ar
ĠKra j
pospoli tej
Ġrzu ciÅĤ
Ġs ki
st ki
s en
Ġzale dwie
je kt
Ġpla cÃ³w
ĠrÄĻ ka
o du
sz one
Ġszko le
Ġproce nt
ĠU niwersyte
ĠuwaÅ¼ am
Ġpodej m
Ġwypo sa
Ġpodat ku
Ġi mieniu
Ġk atoli
dza jÄħ
Ġty siÄħ
Ġdo kon
sz to
Ġgospodar ki
Ġode bra
u jÄħc
ĠH en
ty cznych
Ġaut ob
P os
Ġab solu
Ġz wo
cyj nÄħ
da le
Ġper spek
l ni
pra wa
Ġbu dyn
N A
ĠWy so
pie nie
ĠEuro pie
Ġwra ca
ĠAm ery
rÃ³ci ÅĤa
Ġdro gÄħ
Ġludzi om
a u
Ġpot en
Ġkonku r
Ġsp rowa
Ġspotka nia
Ġpo par
ĠwÅĤaÅĽci cie
Ġzw ro
Ġpo siad
stan owie
Ġwy siÅĤ
Ġprze Å¼y
Ġpa niÄħ
S p
Ġ owo
ĠPa ÅĦstwa
Ġ201 7
un ki
Ġzada ÅĦ
ra b
Ġhand l
Ġw rzu
p la
Ġw nio
Ġko cha
Ġgmi ny
ÅĽ wiet
Ġm ro
Ġwi dziaÅĤem
R ze
ĠwojewÃ³dz twa
Ġpra ca
Ġdo my
Ġdz wo
Ġd ek
gu je
Ġd ach
czym y
Ġku chni
st ka
Ġpopu lar
men ty
zu jÄħ
Ġelem ent
Ġwi na
ÅĤa nia
Ġnie s
Ġra miÄĻ
Jak o
Å¼ onych
k li
sty cznych
t ry
ĠÅ¼ ona
Ġdy rek
Sz anow
Ġdwu dzie
Ġz le
ĠJe ÅĽli
ĠO b
ĠS to
Ġzaj mu
k ana
Ġczte rech
Ġch rzeÅĽci
s Äħd
S to
bi ne
Ġuzy sk
pa ra
19 9
Ġaktu alnie
Wie m
ĠgÅĤos owania
Ġprem ier
ne ra
Ġwie dziaÅĤa
n nym
ĠwspÃ³l nego
Ġprze r
ĠpamiÄĻ tam
Ġ201 4
Ġna gra
Chci aÅĤbym
Ġdro ga
ĠAn gli
Ġsw ych
Ġwzro kiem
ĠG u
Ġd ra
Ġ200 8
Ġkosz ty
Ġniez bÄĻ
Ġr Äħ
ĠpowiedziaÅĤ em
Ġjakiej ÅĽ
Ġobywat el
2 6
b rzym
Ġ201 6
Je den
Ġob ni
Ġs re
Ġwybu ch
Ġmor der
Ġmi an
Ġm Äħd
al nÄħ
Ġso li
4 0
K il
k owane
Ġprakty cznie
Ġo szczÄĻ
Ġk ana
ĠspoÅĤe czeÅĦstwa
Ġpa li
ĠP K
de ra
ĠT ry
l l
d noÅĽci
w anych
ĠczÅĤowie kiem
Ġre zer
ĠM os
Ġr em
Ġ5 00
m at
Ġpor t
ĠJe st
ĠJ ez
Ġty ÅĤu
R Z
Ġrami onami
da j
ĠS h
f t
Ġpo pat
P owi
ĠÅĽ re
raÅº niej
2 8
2 7
Ġu zu
ari u
Ġma ni
Ġpoprzedni m
Ġinte li
ĠdÅĤo ni
ow ni
Ġd ie
su nÄħÅĤ
legÅĤ ych
w aty
Ġna piÄĻ
Ġwiadom oÅĽci
z ÄĻ
Ġpo roz
Ġz je
Ġwyp ÅĤa
Ġm an
dzÄħ cy
Ġil oÅĽci
Ġ201 3
s li
Ġwy trzym
Ġkonku ren
Ġ201 5
Ġtrze ci
Ġ200 9
Ġle gi
Ġpo ÅĤowie
Ġpowie m
Ġbrz mi
Ġka p
sze dÅĤem
Ġna rzÄĻ
Ġprzypo min
at ru
Ġm aÅĤy
Ġce ny
Ġ: ).
k ÅĤy
ĠÄĩ wi
Ġfak tycznie
Ġsko m
Ġza strze
Ġswo bo
Ġzaw art
Ġw rÃ³ciÅĤ
czÄħ ÅĤ
tor owi
Ġwzro st
ĠwziÄħ ÅĤ
Ġki lomet
Ġma cie
bi ja
stru ktury
Ġ200 7
Ġo no
Â ·
ĠZ e
Ġzie m
ĠsÅĤa b
Ġ lam
ĠS p
bi ÅĤ
ost ÄĻp
ĠÅĽ wiÄħ
ĠS kar
j mi
ĠwÅĤas nych
Ġpo chy
Ġnau ki
Ġw ÅĽcie
Ġpo cz
Ġdzie wiÄĻ
Ġwy szedÅĤ
Ġpierw szych
ra sta
ĠÅ¼ Ã³ÅĤ
o re
Ġboh ater
Ġwe st
pi j
Ġpo dzie
k owania
Ġlo ka
niej sza
s j
Ġg l
Ġstra te
dÅº mi
ĠwspÃ³ÅĤpra cy
ĠZ d
Ponad to
Ġre zy
Ġwz ru
ĠG ru
st ych
wi n
Ġo czywi
Ġumie jÄĻ
Ġne g
Ġt wÃ³j
Ġli sty
ĠSta ni
Ġpew nego
Ġr ower
Je dy
niÄĻ ta
Ġwarun kach
Ġelekt ry
Ġu kÅĤad
Ġsprawa ch
d om
ĠrozwiÄħza nie
ĠRze czy
Na gle
ari usz
zumie m
Ġfir m
ty k
un kÃ³w
Ġ y
Ġkry zy
p em
gen cji
cza Äĩ
ĠuÅĽmiech nÄħÅĤ
E N
Ġpl ane
ĠwziÄħ Äĩ
Ġza sÅĤu
pe l
Ġfor mie
Ġpew na
Ġsk ry
Ġprac owaÄĩ
g ru
ĠzwiÄħz anych
ĠTo ma
ĠPa ni
Ġsu per
Ġokoli cznoÅĽci
Ġinwesty cji
Cho Äĩ
Ġsz kÃ³ÅĤ
ni onych
Ġwiel kÄħ
Ġrozpo zna
ĠW al
Ġpu ÅĤ
Ġgo rÄħ
ĠD y
Ġchci aÅĤem
Ġczas ami
Ġsta je
kÅĤa dzie
w ne
dzie ÅĽcia
Ġpol skie
da li
Ġwie rzy
ĠKo misja
ÅĽcie m
we ÅĤ
I ch
ĠNie miec
os po
li wy
an ymi
ĠWarsza wy
Ġklu cz
c al
Ġspoj rzenie
ow nikÃ³w
Za wsze
twie j
Ġwiecz orem
Ġzawo dni
] .
Ġfi lozo
ga zy
ĠbezpoÅĽredni o
Ġgru pa
ĠusÅĤu g
ĠK or
Ġz gÅĤa
Ġst atu
rz one
ĠÅĽ mi
ki n
Ġzad owo
Ġzrozumie Äĩ
rz ony
Ġlo s
Do piero
ti on
Ã³w ki
Ġsko n
wi ony
Ġb ran
Ġkom Ã³r
Ġindy widu
ÅĽli ÅĤ
Ġkraj Ã³w
Ġbud owy
Ġsk rÄĻ
ĠkrÃ³ la
Ġtem pera
Ġdru ga
Ġczu ÅĤ
Ġad res
Ġbo k
Ġstop ni
Ġroz gry
ĠSz cze
ĠspoÅĤe cznej
o ÅĤo
Ġnie szczÄĻ
Ġpreze s
Ġo piera
Ġb ÅĤo
Ġw sta
h u
Ġopie ki
Ġst ad
Ġko rzy
Ġsz lach
Ġkol or
Tym czasem
Ġdop Ã³ki
ro p
czÄĻ ÅĽciej
Ġma j
ĠS ÅĤu
Ġpro ÅĽ
Ġpo p
Ġwyb oru
g dzie
M amy
6 0
Ġwi ary
Ġb Ã³l
Ġ ow
Ġod ej
Ġdziewczy ny
ĠdotyczÄħ cych
Ġw pis
b lem
ĠR i
s f
Ġokre ÅĽ
Ġ Q
Nie kt
aÅĤ ÄĻ
Ġza czyn
Ġm owa
ĠZ wiÄħz
daw cy
Ġniepo ko
Z resztÄħ
mu ÅĤ
ĠWro cÅĤa
Ġu nik
p res
Ġw krÃ³tce
Ġsk lep
ĠÅļ lÄħ
Ġ200 0
Ġe t
o u
Ġt rw
s ci
Ġce lem
Ġwszel kie
ĠspeÅĤ ni
Ġze ch
Ġ3 1
m aty
Ġcharakt ery
i ne
L I
Ġlu dÅºmi
ĠRzeczy pospolitej
Å» y
Ġzd jÄĻcia
Ġjakie go
owiad aÅĤ
Ġtygod niu
Ġna ru
ĠbyÅĤ by
ĠprÃ³b owaÅĤ
Ġ =
w ek
ĠA leks
Ã³ ze
Ġobywat eli
II I
Ġnie peÅĤ
ĠH u
d le
Ġpobli Å¼u
Ġo ch
sz ty
Ġo szu
f inans
Ġkie szeni
Ġo pozy
ych a
Ġdro g
pie ÅĦ
ci na
ÅĤ Äħd
Ġwy sÅĤ
g ÅĤy
Ġw st
ce l
Ġty dzieÅĦ
t kÃ³w
Ġpo ma
Ġocz ami
ie ÅĦ
sta wy
Ġbo m
Ġstru ktu
ĠÅ¼e bym
Ġkryter ia
Ġze wnÄĻtrz
aks ym
to rze
Ġf aÅĤ
Ġsam ych
Ġwy z
f iÄĻ
ja c
Ġpoja wiÅĤ
Ġu t
Ġu r
ĠFun du
dnie nia
ĠmyÅĽle Äĩ
Ġo granicz
aÅĤ e
ĠpamiÄĻ ci
ÅĦ skÄħ
Ġrek lam
Ġdzi ad
Ġt ur
Po niewaÅ¼
Ġprzy szÅĤ
Ġot wart
ĠpiÄĻ ciu
d la
ĠwrÃ³ci Äĩ
Ġma jÄħc
ĠsÅĤuÅ¼ b
part am
Äħc Äħ
ze um
Ġst aty
Ġspra wi
ĠX V
ĠC y
Ġkro k
Czy li
Ġprzy wi
Ġcz oÅĤ
ĠgÅĤÄĻbo ko
Ġniekt Ã³re
ĠÅ¼y w
w ans
Z na
2 9
ĠdziesiÄĻ Äĩ
ĠH ol
Ġma gi
Ġkon fli
Ġka ra
Ġzabra Äĩ
O R
k owÄħ
Ġprze szka
Ġrozma wi
Ġznale zi
Å ¡
Spo j
f u
Ġszpita la
Ġst aÅĤy
Ġbi bli
Ġpoz ost
ĠgÅĤoÅĽ no
ĠP ana
ĠwÅĤa dz
Ġwi n
ba ch
Ġw szÄĻdzie
Ġpracu je
Ġniezwy kle
Ġzwie rzÄħt
Ġmistrz ost
Ġc m
la cy
Ġmi kro
T ego
ĠB Ã³g
Ġkosz tÃ³w
owi cie
ciÄħg nÄħÅĤ
ral nego
Ġc Ã³Å¼
Ġp rowi
Ġin na
ĠDla czego
Ġpraw dÄĻ
Ġat aku
ÅĤa t
Ġkompu ter
k tyw
ĠB an
Ġsty lu
ty ki
ĠX X
sz czu
Ġpie lÄĻ
u ka
Ġpierw sza
Ġ rzÄĻ
ĠkrÃ³t ko
ĠÅ¼ Äħ
Ġu jaw
Ġdy p
m er
g rzy
Ġprze cho
k cja
Ġdo tÄħd
ch nÄĻÅĤa
ĠmiÅĤo ÅĽci
Ġdaw na
Ġodez waÅĤ
ĠzwrÃ³ci Äĩ
Ġzm arÅĤ
Ġwy sp
for my
ĠmÄĻÅ¼czy z
Ä Ħ
U waÅ¼
ĠMar i
Ġzab Ã³j
ĠV i
ĠposzczegÃ³l nych
Ġb rzu
Ġwykorzy sty
li ny
K A
Ġz groma
Ġja zdy
l ak
Ġt le
Ġod wa
os en
Ġpat rzÄħc
Ġd um
Ġsp u
ĠsÄħ du
Ġzapew nia
b an
den ty
re t
Ġzosta li
ĠE d
Ġmog ÅĤem
prze ciw
nos praw
Ġdo staÅĤ
Ġspraw dziÄĩ
cza nia
Ġrodzi ce
Ġspo kÃ³j
S tra
Ġn erw
ar em
Ġ lÄĻ
Ġprz odu
wo dni
ĠmiaÅĤ am
Ġprzekaza nia
ĠT ur
Ġlep sze
Ġbi sku
Ġsie dziaÅĤ
Ġzespo ÅĤu
Ġdo ÅĤÄħ
Ġbli Å¼ej
ni li
Ġzdecyd owanie
Ã³Åº niej
Ġzwy kÅĤ
M e
iÄĻ k
Ġli kwi
ga Äĩ
Ġprze kro
er t
Ġbo i
Ġwiadom oÅĽÄĩ
no szÄħc
Ġmo dli
Ġstan owiÄħ
ch Ã³w
D obrze
Ġzoba czyÅĤ
lan d
Ġdosta Äĩ
ĠDziÄĻ kujÄĻ
p le
ĠMinist rÃ³w
mie niem
re go
Ġwy stÄħ
ru s
Ġmo ze
Ġju tro
Ġroz e
Ġwspom ni
ta cja
ow uje
Ġm nÃ³
Ġalko ho
Ġwiel kim
Ġe pi
Ġs we
Ġm ÄħÅ¼
Ġs et
dem ii
cz ono
Ġpubli cznej
Ġozna jmi
ĠZa cho
rzy ÅĤy
Ġ3 5
wa niem
Ġgra nicy
Ġpra s
Ġop rÃ³cz
Ġczyn noÅĽci
ĠS tar
p s
Ġtre ÅĽci
Ġid io
mu jÄĻ
B a
re d
Ġponie dziaÅĤ
su je
Ġpasa Å¼e
Ġna szÄħ
Ġn u
ĠobowiÄħ zu
bi Äĩ
Ġu mysÅĤ
c twa
A u
fi i
Ġn owÄħ
Ġu cho
rze go
Ġfor mal
Sz cze
Ġw szedÅĤ
Ġre dak
ĠB ra
Ġwoj nie
Ġroz wÃ³j
Ġro s
ty cznej
ĠS praw
ro bo
ĠJ ana
p ow
Ġpyta ÅĦ
Ġprzygot owa
8 0
Ġzap ytaÅĤa
Ġklu bu
Ġna sza
dzie sz
Ġg min
rÃ³ bu
ĠMinister stwa
je chaÄĩ
Ġpodob ne
P re
Ġw nÄĻ
ĠKon stytu
ko p
ĠPro szÄĻ
Z godnie
O P
Ġorganiza cyjnych
ĠD zi
ĠAleks and
Ġszu kaÄĩ
rÃ³ Å¼y
Ġokre ÅĽla
Ġdu Å¼y
j o
ĠM or
Ġol brzym
ar ka
Ġmi arÄĻ
Ġreli gij
Ġzak az
Ġdnia ch
Ġjas ne
Ġza chÄĻ
ÅĤ aÅĤa
ĠwÅĤas nego
Ġze spÃ³ÅĤ
j an
d ÅĤa
Ġczer wo
ĠksztaÅĤ t
ow nik
dzie siÄĻ
Ġpo pra
Ġpo chodzi
lu je
ksz oÅĽÄĩ
ĠdotyczÄħ cym
ych aÄĩ
an gaÅ¼
ĠdoÅĽwiad czenia
Ġsprze d
u nek
Ġwyja ÅĽni
l ony
ĠX I
Ġmili onÃ³w
ĠW ol
ĠskÃ³ ry
ĠPol skiego
Ġokre ÅĽle
ma wiaÄĩ
Ġw dziÄĻ
Ġbie rze
Ġod dziaÅĤ
Ġna rze
sz ymi
Ġsz pi
Ġz wi
i d
ci ska
Ġrozwi ja
ch aj
Ġo go
ĠspÃ³ÅĤ ki
Ġwskaz ane
Ġsz ale
ja zd
ar ki
czÄħ ce
Ġs mo
Ġil oÅĽÄĩ
p an
Ġjednost ek
d ra
Obec nie
Ġwyda waÅĤo
Ġsto le
ĠN or
Ġfir ma
ĠmÅĤod ych
p ytanie
mi u
ĠC on
Ġzoba czy
ĠÅģ o
Ġwy niki
Ġro li
Ġ201 8
Ġkonsu l
Ġml d
Ġroz pa
ĠmiesiÄħ ce
ĠS prawie
Ġpoli cja
ĠM ary
to rzy
Ġzmi ana
Ġpot ÄĻ
Ġdwa dzieÅĽcia
Ġd ym
Ġjednost kach
Ġgodzi nÄĻ
Ġco kolwiek
cz no
Ġneg atyw
ĠNiem cy
ĠdÅĤo nie
wi cza
ry gi
ĠW szy
ĠpowaÅ¼ nie
Ġch cemy
Ġnazy wa
rud no
Ġotrzym aÅĤ
Ġwart oÅĽÄĩ
ĠR ol
Ġgene ra
Ġwie rz
as y
Ġmo ni
Ġzap rze
Po li
ĠdÅº wiÄĻ
Ġkomu ni
Ġle Å¼y
Ġwarun kÃ³w
Ġuzu peÅĤ
t wy
Ġma gazy
cyj nie
R Ã³w
re gu
Ġdob ro
Ġkra jach
Ch cÄĻ
ÅĤo ÅĽci
rÄħ z
Ġco f
Z w
Ġb al
kie n
Ġm le
ĠÅĽ w
ĠcaÅĤ oÅĽci
Ġzamie rza
Ġwz dÅĤuÅ¼
Ġpod e
Ġdzie siÄħ
St wier
za ch
na stu
A K
ĠmiÅĤo ÅĽÄĩ
re j
Ġtytu ÅĤu
dzÄħ ce
ĠS an
Ġpod niÃ³sÅĤ
li ÅĽcie
h y
Ġinstytu cji
Ġh as
ĠP U
t aÅĤem
Ġna da
w kÄĻ
Ġgra ni
ĠÅĽci any
NastÄĻp nie
Ġczy nienia
Ġzada nie
ĠbÄĻ d
Ġobro ny
Ġprzestrze ni
Ġ cia
ÅĤa Äĩ
Ġrobo ty
Ġch ro
ĠkaÅ¼ da
ow cy
zu l
Ġsym bo
Ġza li
g ier
Ġperspek ty
ĠjÄĻzy ka
Ġre f
Ġra n
Ġsztu ki
ĠwÅĤas nÄħ
w ka
D y
Ġw sty
ĠP owie
Ġtytu ÅĤ
Ġwyso ko
ow ne
Ġo glÄħda
ĠwspÃ³ÅĤ czes
lar Ã³w
Ġz bo
?? ??
Ġpowiet rza
Ġgro Åº
al l
no m
Ġmo de
Ġok na
Ġwyco f
ÅĦ cy
Ġwycho dzi
ni ona
ĠmÄĻ Å¼a
Ġli ÅĽcie
cz aÅĤa
ĠÅĽ cieÅ¼
ĠÅĤa twiej
ĠchrzeÅĽci ja
g am
Ġgro zi
L E
w oÅĽci
Ġ200 4
Ġt rÃ³j
ĠJ Ã³ze
Ġprac o
Ġt r
nie niu
Ġnowo czes
Ġli czyÄĩ
Ġkon feren
Ġszero ko
ĠS er
ci ÅĤem
niesie nia
Ġpo kaz
nie niem
Ġz ÅĤam
Ġwyj ÅĽÄĩ
Ġre wolu
ĠAnd rzej
p ali
Ġpro pa
Ġp tak
Ġnaj gor
Ġb ÅĤÄħd
WÅĤa ÅĽnie
Ġostat nim
Ġop an
ĠwÅĤas nym
ĠP Ã³ÅĤ
Ġnie moÅ¼
at Ã³w
Ġroz strzy
A M
Ġinter ne
ÅĤo d
Ġrozm Ã³w
Ġkon cep
szko d
cie r
Ġbo ga
Ġra tu
Ġz wal
ĠP ary
Ġza siÄĻ
Ġu nie
ĠpoÅĽ redni
Ġkur wa
ĠpeÅĤ ne
Dzi ÅĽ
zm em
Ġpowierz ch
Ġadministra cji
ĠB ie
By Äĩ
Ġprze w
c ar
Å» ad
Ġostat niej
Ġkontak t
ĠgÅĤu pi
Ġza biera
Ġpowie dz
dy na
o li
Ġnie m
ĠÅĤÃ³Å¼ ka
ĠwÅĤa dze
ĠProkura torowi
en tal
a la
Ġzw rÃ³ciÅĤ
Ġodw rÃ³ciÅĤ
Ġprzed miot
Ġob sza
Kt oÅĽ
ak cep
K obie
Ġana li
e d
Ġkat astro
one m
Ġdo chodzi
Ġpow staÅĤ
ma wia
ĠRegional nemu
Ġ200 6
Ġw t
a niaÅĤ
Ġrobi ÅĤ
tar i
Ġmiejsc owoÅĽci
sta ura
ent ar
ob ra
ter na
Â »
Ġwo dÄĻ
Wyso ka
ta cjÄĻ
Ġza zwyczaj
s Äħ
Ġhistor ia
by wat
ĠsÄħ siad
sty czny
Ġp aÅĤa
Ġpoja wia
ĠuÅĽmie chem
ĠÅĽle dz
wi t
Ġg im
wi one
ta cza
N I
Ġi mi
t kÄĻ
Ġuprzej mie
ĠPio tr
Ġna pa
ĠJ as
d ol
Ġza angaÅ¼
Ġzrobi ÅĤa
ĠwiÄĻksz Äħ
Ġter min
Ġpotrzeb ne
Ġodp arÅĤa
daw ca
ob Ã³j
ospo dar
Ġu ÅĽwiad
Ä Ĩ
ww w
Ġklu b
Ġi lu
Ġn owym
Ġpo szedÅĤ
Ġpa piero
% .
Ġpowinni ÅĽmy
Ġto bie
ĠK iedy
Ġroz sze
ÅĽci ÅĤa
Ġwy wiad
Do dat
l nym
g ne
li s
M ÄĻÅ¼czy
ĠW ÄĻ
Ġkom pe
ĠbyÅĤ am
Ġpodej rz
ĠB el
Ġh ar
Ġk lim
Ġbry tyj
D z
Ġpotrze ba
Ġmiejs cach
ĠgÅĤos Ã³w
ĠÅĽwiat owej
Ġnie dzie
Ġwy czu
Ġspraw Äħ
le b
Ġat mos
ĠzwiÄħz ek
aÅĤ eÅĽ
Ġdrew ni
Ġm ary
Ġszyb ciej
R R
ie go
ĠniepeÅĤ nospraw
Ġdy sk
ga nia
ĠLon dy
ÅĤ ka
W a
lo nej
Ġpod legÅĤych
Ġg ard
Ġku pu
Z da
ĠjÄĻzy k
Ġstud ia
c ko
Ġru szyÅĤ
Ġbu tel
czÄħ cego
c ona
Ġu szko
rÃ³ci Äĩ
........ ........
Ġn owa
te t
Ġdob rym
ru ch
Ġdo k
ne rw
ĠmÅĤo dy
Ġinicj aty
sz ne
ĠsÄħ sie
Ġu ÅĤo
ĠJe ste
Pier w
ĠHen ry
Ġsprzeda Å¼y
Ġog ro
Ġwy doby
h ol
ÅĤ owi
ĠCh ar
Ġroz sÄħd
ĠobowiÄħz ek
wi aty
Ġsamo dziel
ĠsÄħ dzÄĻ
jeÅ¼d Å¼
Ġta cy
ĠZ ak
Ot Ã³Å¼
Åº Äĩ
Ġtrze cie
cie ka
Ġreprez ent
Äħc o
szy b
Ġko re
ĠIn stytu
ĠCz ar
4 5
Ġwy klu
ĠmnÃ³ stwo
Ġar mii
la nie
Ġk ary
Ġprodu cen
Ġsob o
kie wicz
Ġofi ce
Ġsp ytaÅĤa
ĠG mi
Ġdo daje
mi an
Ġza bie
Ġwiel kiego
O na
Ġsta cji
Ġpoczu ÅĤ
p t
Ġosob ist
Ġnie za
Ġg ada
z je
ro s
e le
u j
Ġ4 5
ĠnaleÅ¼ Äħ
ĠZjedno czonych
Ġpo piera
Ġodde ch
ĠT wo
ĠprawidÅĤ owoÅĽci
Ġwy ksztaÅĤ
WiÄĻ kszoÅĽÄĩ
sty cznej
sta wa
Ġseku n
. ).
rz aÅĤem
Ġrodzi na
Ġpowi nie
Ġdem okra
Ġnie ba
Ġdost os
ĠmiÄĻ k
7 0
ĠS ie
ĠPa ÅĦstw
g aÅĤa
wiÄĻ cej
ĠMinister stwo
Ġna si
Ġry nek
Ġko rzyst
G a
Ġfa bry
J u
ru k
Ġprzy w
Ġog ni
Ġposie dzeniu
Ġrozma wiaÄĩ
ku jÄħ
Ġnie bo
N ad
Ġst ali
C oÅĽ
Ġzre zy
sz oÅĽci
Ġface t
Ġplan u
ĠzobowiÄħ za
Ġa pli
Ġkon ser
al ni
Ġposta Äĩ
Ġza cznie
ĠW in
Ġzam ach
Ġzosta je
Ġga z
Ġdo ktor
an Ã³w
Ġzap ad
M at
ĠÅ¼ ar
Ġinter pre
S u
Ġdo sy
Ġga bine
su m
Ġterytor i
Ġponi Å¼ej
Ġpoje dyn
Ġdobre go
ci ach
r ki
ĠpozostaÅĤ ych
owa c
Ġna by
st os
Ġhttp s
S tan
Ġk lat
n du
no siÅĤ
Ġpozio mu
Ġpoczu cie
ĠzaczÄĻ li
ĠIz bo
Ġnie prze
spo zy
Ġwar sza
Ġpol skim
n p
Wy daje
Ġwz bu
ĠprzyjÄĻ cie
bie nia
wy czaj
ĠzaczÄĻ ÅĤy
Ġosobi ÅĽcie
ni cze
Ġleka rz
Ġsprawie dliwoÅĽci
Ġk wali
Ġzamk niÄĻ
Ġskar b
ĠwyjÄħ tk
Ġchodzi ÅĤo
ĠG i
Ġbra t
Ġpraw em
ty czny
Ġegz ami
ĠKrzy szto
ĠMos k
l d
Ġsena tor
ĠusÅĤy szaÅĤ
Ġpierw szÄħ
Ġmie liÅĽmy
ce s
ĠmaÅĤ ych
Ġwi ce
Ġdu Å¼ej
ĠduÅ¼ Äħ
ĠKa czy
Ġme cz
Ġzap lan
Ġprze ch
Ġprze gra
Ġkon tek
ĠW Y
dy j
Ġsw Äħ
Ġn ego
Ġpodmio tom
Ġu biegÅĤ
R u
du jÄħ
Ġpo kÃ³j
Ġpod wyÅ¼
Ġprzed stawie
Ġm aksym
ni aÅĤy
Ġare szt
at h
ĠCie bie
sze Äĩ
Ġwypad ek
Ġeksp lo
Ġprac owaÅĤ
lo nego
ci wie
ĠTry bun
3 5
Ġbo ku
Ġwsp aniaÅĤ
liw ych
ĠdziÄĻ kujÄĻ
Ġch mu
ski mi
Ġze gar
ĠNaj wyÅ¼
Ġmieszka nie
Ġna g
ĠW iÄĻ
s ch
Ġd ram
Ġta bli
ĠÅ¼ a
Ġprze rw
m et
Ġp yt
Ġcze kaÄĩ
. :
Ġwie ÅĽ
Ġbie g
Ġdziw ne
Ġsystem ie
z on
Ġnaj czÄĻÅĽciej
Ġpat rzyÅĤ
rzy li
Ġdrze wa
Ġszans ÄĻ
en cji
Kil ka
Ġod biera
Ġzatru dni
Ġre staura
Ġpro ste
Ġuro czy
sz ona
ĠJe stem
Ġpowiet rzu
g ent
scy pli
sz pa
Ġzrozu miaÅĤ
ĠwÅĤaÅĽcicie lom
ĠÅĽwiet le
Ġz ÅĤe
ka rz
ÅĤ ek
tu jÄħ
am e
Le cz
Ġznalaz ÅĤa
Ġhi po
Ġ 000
Ġpod ko
Ġsprze ciw
Ġsp rÃ³b
Ġwy bi
Ġzaj muje
ĠSz ko
Ġautom aty
ĠK ul
Ġob ja
ĠwÅĤaÅĽci ciel
Ġu rucho
pi na
Ġbra ta
ĠkoÅĦ czy
u sa
Ġfil mu
Ġprze sÅĤu
ĠJa ro
Ġok no
ĠCent rum
Ġwoj ska
Ġprze ciÄĻ
Ġprzed stawia
u ry
Ġty godnie
ĠkaÅ¼ dÄħ
god ne
Ġmam a
Ġna po
Ġzach wy
Ġna gro
ral nej
Ġ ...
ĠkoÅĽci oÅĤa
an ek
ĠksiÄĻ Å¼y
ow ska
Ġwy sÅĤa
ĠrÄħ k
Ġchoro by
ĠdziaÅĤa nie
S ze
Ġpotrafi ÅĤ
Ġprzygotowa wcze
Ġwy cie
M Ã³j
Ġostate cznie
Ġu ko
Ġu dzie
ral ny
stÄħpi ÅĤ
z da
Ġpo st
kana ÅĽcie
Ġwspo mina
on or
Ġutrzym y
ĠÅĤÃ³Å¼ ku
Ġk li
S i
Ġo rygi
ĠÅĽmier tel
Ġzmian ÄĻ
ĠmyÅĽl Äħ
Ġin nÄħ
Ġnie zn
Ġznajdu jÄħ
ĠW scho
Ġo bi
Ġrze ki
ĠktÃ³r emu
Ġdo larÃ³w
owa Å¼
Ġwyj ÅĽcia
Ġpo stu
Ġroz kaz
Ġ3 00
p eri
Ġfor ma
Ġchwi lÄħ
Sko ro
R z
Ġje zi
Ġte st
Ġwskaz anej
Ġ200 5
Ġzabi ja
gÃ³l nie
Ġnie wol
ĠSena tu
sa rz
ĠzÄĻ by
Ġtwo ja
Ġinten syw
Ġrodzi nie
Ġnie praw
ĠkrÃ³ lew
ĠB ez
Ġpo dzi
Ġspoj rzaÅĤa
ma ni
Å¼y nie
Ġnie ko
Ġkrzy w
ĠH er
czÄħc ych
c two
o lo
p en
ĠG Ã³r
Ġod dziaÅĤy
Ġk oÅĽ
Äĩ mi
Cho ciaÅ¼
Ġpod rÃ³Å¼y
Ġz ba
rÄĻ b
Ġod czy
ĠudziaÅĤ u
Ġpier wo
Ġwsze ch
zu jÄħc
Ġre zul
Ġdo da
en cie
ĠRos ja
Ġzapyta Äĩ
Ġpar u
Ġzapyta niu
Ġgro ma
ĠM on
Ġli czy
Ġstan ÄĻ
Ġzach owania
cie lem
ĠchÅĤop ak
ral ne
Ġwo dÄħ
Ã³ p
ro tnie
Ġzap owie
ĠPra w
Ġhistor iÄĻ
Ġbrze gu
ĠpiÄħ tek
ĠÅ¼ ony
ĠT woje
Ġk lÄĻ
ĠdÅº wiÄĻk
Ġkas y
twa rza
Ġczu jÄĻ
ĠT ra
ĠkaÅ¼ de
Ġspowo d
o ku
Ġb rwi
Ġotwo rzyÅĤ
Z oba
Ġzda nia
Ġtam tej
ĠMiej skÄħ
d nego
ĠtysiÄħ ce
ĠS ch
ĠM usi
d nym
Ġsen sie
Ġgo rzej
Ġtwier dzi
kow aÅĤo
ÅĤ ki
Ġce nÄĻ
Ġnie od
ĠKo mis
z jÄĻ
ĠwyglÄħd aÅĤ
ĠPU DZIA
k owanie
Ġbra kuje
ĠspoÅĤe cznych
Ġop ad
Ġprzyj m
Z am
Ġener ge
Ġlud noÅĽci
Ġpo glÄħd
ĠpeÅĤ no
ĠzÅĤ ego
-- --
ĠZie mi
Ġw zajem
praw dzie
niej szym
n ta
Ġprzy ro
ĠZd rowia
ol at
Ġprzy zn
Ġwnio ski
Ġswo imi
d nÄħ
Podob nie
Ġokoli cy
b rew
Pew nie
Ġdosy Äĩ
ĠsÅĤy szÄĻ
Ġwzro stu
ce sz
wi cy
Ġopu bli
Ġu nika
ĠprÄĻd koÅĽci
Ġprzy jÄħÄĩ
Ġwyob raz
Ġwybo rach
Ġodpowie dzieÄĩ
Ġwyt ÅĤuma
Ġproje kcie
le ty
Ġpod lega
Ġskom pli
Ġumie ra
Ġw stÄĻp
ĠG ospodar
ĠdziaÅĤa Äĩ
ni om
ĠmÄĻÅ¼czy zny
Ġbo j
ĠNa u
G ÅĤos
ĠÅĽwiadom oÅĽÄĩ
Ġnazwi sko
ka j
li nie
ĠGmi nÄĻ
Ġinf ra
Ġzawo ÅĤaÅĤ
Ġi s
ku r
ĠÅ¼ad ne
Ġnie pew
kÅĤa dy
Ġim pre
ra tor
p ka
Ġra di
Ġpreze sa
Ġg en
sze niu
Ġkwo ty
Ġpowo dÃ³w
Ġzacho dni
so by
Ġo dz
Ġgru b
l aÅĤ
Ġwiat r
ĠC iÄĻ
Ġu koÅĦ
Ġkomu ÅĽ
ĠP lat
Ġstan ÄħÅĤ
rod ÄĻ
d ro
Ġpowo duje
ĠmÄĻÅ¼czy Åºni
te tu
Ġpo kazaÄĩ
O ba
nia jÄħc
Ġbez robo
Ġrzu ca
O r
Ġsy pi
Ġrzad ko
Ġmo del
Ġkontro l
kow skiego
Ġpozna Äĩ
Ã ¼
Ġpowie cie
Ġwers ji
Ġprzy wo
Ġrodzi n
no ty
cz kÄħ
ĠPUDZIA N
el l
et h
ni na
Ġby lo
Ġkiedy kolwiek
Ġ ÅĤam
cze ch
o grafi
za Äĩ
A n
Ġregu lar
Ġresz ta
ĠbÃ³ lu
ĠÅº rÃ³
j ad
ĠÅ¼y dow
Ġlo t
Ġwej ÅĽÄĩ
ÅĤo Å¼yÅĤ
Ġod mÃ³wi
ĠksiÄħÅ¼ ÄĻ
Ġod legÅĤoÅĽci
ĠbyÅĤa by
Ġp ers
czo nego
ĠF inans
ĠM an
Ġgo tÃ³w
Ġpal ce
Ġdowie dzieÄĩ
Ġnie chÄĻ
Ġst Ã³p
ĠwiÄĻzie nia
Ġpod szedÅĤ
ĠNi c
Ġporu sza
Ġkosz t
Ġra por
Ġczy tel
ĠchÄĻ tnie
ĠT om
ĠRz ym
Ġprzej ÅĽÄĩ
Ġposie dzenia
Ġdecy zja
Ġwy krzy
Ġter ro
at ak
Ġo po
Ã ¡
By ÅĤy
Ġnar ko
Ġsw ym
Ġwie c
Wy star
Na leÅ¼y
d go
Ġniko mu
ĠO czywiÅĽcie
Ġpro mo
Ġt rwaÅĤ
Ġwcze s
Ġuczni Ã³w
Ġku ch
ĠP at
Ġs for
rze c
N E
Ġczter dzie
% ,
Ġru szy
Ġob ra
Ġprez ent
Ġkonsek wen
ĠâĢ ¢
Ġ19 0
Ġprowa dziÄĩ
Ġniedaw no
Ġte at
Ġty siÄħc
ty cznego
p ach
Ġprze kazy
T ra
Ġpozosta je
Ġw Ã³z
Ġcodzien nie
Ġwiel kich
ĠBry ta
b ÅĤa
S ÅĤu
Ġzach owanie
ro zu
r in
Ġwo da
Ġdob rÄħ
Ġwy czer
Ġl Äħd
Ġpotrafi Äħ
mu jÄħc
Tu taj
Ġpo kazuje
P ie
ÅĦst wem
Ġzre aliz
ĠwÅĤa d
Ġzda je
bi n
Ġz my
p as
Ġpo la
ĠPra wo
Ġosob ÄĻ
Ġosob Äħ
Ġh am
Ch ÅĤo
J o
Ġsi ÅĤÄĻ
wi ata
ĠS A
l ane
ĠO bywat
cz ce
ĠtÅĤu m
ĠwspÃ³ÅĤ prac
dza jÄħc
ri s
Ġg rz
Ġu bo
Ġprze t
Ġpowy Å¼ej
P Ã³Åºniej
ĠD obrze
Ġleka rza
ÅĤu dni
Ġwiel kiej
dow aÅĤy
ĠpamiÄĻ ta
Ġprzyzna Äĩ
li an
G ra
f ery
Ġok rÄħ
Ġwoje wo
Ġwyja ÅĽnia
daw aÅĤo
Ġzabi Äĩ
Ġpew nych
f on
Ġm m
Ġszk lan
Ġam b
ĠzaczÄħ Äĩ
mu jÄħ
Ġpodej rze
Ġnauczy ciel
Ġsu ger
Ġch a
no t
Ġser wi
Ġbra m
Ġk wiat
Ġf anta
Ġpi osen
bi l
b ek
r owie
Ġprzypad kach
Ġob sÅĤu
Ġfunk cji
Ġniekt Ã³rzy
Ġze by
Ġud owo
Ġprzy znaÅĤ
Ġpodkre ÅĽla
ni ÅĤy
ro dzi
Ġspecjal nie
Ġgru n
ĠF or
ĠduÅ¼ ym
ska ch
Ġwyda rzenia
Ġzatrzym aÅĤ
Ġna st
Ġg rzy
Ġprzy szedÅĤ
Ġwy prze
ĠprzyszÅĤo ÅĽÄĩ
ĠÅĽwiad czeÅĦ
ĠumiejÄĻ tnoÅĽci
Ġprze ja
ch am
Ġspra wia
kra cza
Ġprze tar
Ġjas no
Ġd Äħ
Å¼y ÅĤy
Ġprzy wÃ³d
Ġciem noÅĽci
lat y
Ġu znaÅĤ
Ġreprez enta
9 0
t noÅĽÄĩ
Ġpo Å¼e
ĠÅ¼eby ÅĽ
Ġu wol
Ġtwo im
Ġza g
ĠJ or
ĠspeÅĤni aÅĤoby
p to
ĠpÃ³Åº no
pe lu
Ġs kali
Ġs cen
Ġdo daÄĩ
b aty
Ġm aÅĤa
dÅĤu go
dza nie
D A
der ni
Ġf al
Ġban k
Pier wszy
mo cy
k ÅĤe
Ġbi ura
ÅĦ cz
pi i
jech aÅĤa
Ġdosta nie
Ġroz mi
Ġry n
Ġu krai
ne n
k m
Ġ200 1
ow skiej
Ġd aÅĤo
ĠÅ¼ on
Ġso cjali
ta nie
ĠU rzÄĻ
Ġproce su
Ġte ra
Ġniedzie lÄĻ
ma c
Ġprze mysÅĤ
W z
d ie
Ġpi w
szcz one
Ġopie ku
Mi aÅĤa
Ġinforma cjÄĻ
Naj pierw
ĠrÃ³w nowa
Ġpo stanowie
Ġkapi tan
ĠMa g
ĠP ier
ĠJoh n
Ġ3 6
Ġce le
la d
Ġstop nia
Ġprem iera
ĠÅ» e
owan ymi
l ki
Ġdodat ku
Ġe li
ĠwÄħ t
o o
Ġbe dzie
Ġu chy
jcie c
Ġm ono
K om
Ġdodat kowo
ĠoÅĽ wiet
ĠG ene
ni ng
Ma sz
Ġdodat kowe
Ġnajlep sze
os e
rz aÅĤy
Ro zumiem
liw ym
R az
Ġko t
Ġw aka
Ġkompe ten
B ÄĻ
Ġsk ra
ĠT ar
ĠmieszkaÅĦ cy
U R
no cy
Ġple cami
Ġok ru
Ġ rzym
Ġkil kanaÅĽcie
ni ak
Ġu pÅĤy
Ġin sta
ĠKo mi
Ġlek ar
Ġpow tarza
Ġkilomet rÃ³w
Ġpomi mo
Ġpo g
re z
Ġwar i
ĠP R
Ġko lan
Ġprze szko
ce k
Ġmini mal
Ġtelewi zji
ĠC O
S ÅĤy
wi aÅĤa
Ġu nij
Ġszere g
Ġbiz nes
Ġta ÅĦ
Ġprze szedÅĤ
Ġto n
Ġkredy t
Å»e by
Ġsi ÅĤÄħ
Å¼ by
ĠNiem czech
v en
Ġto nem
Ġdecyz je
niÄĻ ciem
ĠM c
Ġwal czyÄĩ
dziesiÄĻ ciu
Ġzmie rza
ĠGda ÅĦ
I S
Jedno czeÅĽnie
Ġwiecz Ã³r
D wa
ologi i
ĠM ia
Ġbud owÄĻ
Ġgim na
Ġzrezy gn
ĠAn to
Ġpo lu
Ġa gen
ĠnajwaÅ¼ niejsze
ĠPo lacy
Ġo sa
Ġ201 9
Ġpo siÅĤ
zy dent
ĠsÅĤo ÅĦca
Ġpo ÅĽle
gh t
kla ski
Ġat rak
Ġtek st
Ġza pa
L A
l Äħd
pu l
z dÃ³w
Ġwy stawi
ĠgwaÅĤtow nie
w ny
ĠÅĽ li
su r
fi a
Ġdom Ã³w
Ġwyb Ã³r
Ġargu ment
Ġb ol
Ġbo g
Ġwy szÅĤa
dow aÅĤo
Ġwska zuje
cz oÅĽci
sty ki
ro na
ĠK siÄĻ
lo s
Ġjedy nym
Ġpi sto
cze kaÄĩ
3 3
Ġtra ktu
W reszcie
Ġdobre j
ĠzakÅĤa da
Ġza rabia
ni czej
rzu ca
Ġsze fa
Ġpowi Äħ
Ġlicz bÄĻ
P u
mie rz
Ġwyp rowa
Ġin spek
Ġw to
Ġpu sty
) ;
Ġpotrzebu je
Ġwnios kÃ³w
Ġskrzy Å¼
S zy
Pro blem
Ġsamocho dÃ³w
Ġst art
ĠwspÃ³l nie
Ġdrzwi ach
k owany
ĠR om
Ġdoku ment
Ġefek t
Ġpozwo liÄĩ
c kÄħ
d l
ĠspÃ³ÅĤ dziel
tor em
Ġ200 3
Ġob ciÄħ
ĠporÃ³wna niu
Ġocho tÄĻ
ĠÅĤÄħ cznie
ĠS tu
ĠrÄĻ kach
Ġsk raj
R y
Jak i
ĠÅ¼y wo
stÄĻpu jemy
Ġpunkt Ã³w
Ġt j
Ġwielko ÅĽci
O klaski
Ġbie Å¼
Ġle Å¼Äħ
ĠD em
d ÅĤo
ĠP er
l ie
ĠponiedziaÅĤ ek
Ġwie k
Ġman dat
Ġme dia
Ġd am
Ġwe wnÄħtrz
Ġko ÅĤ
Ġfinans owych
Ġroz um
Ġnadz or
Ġzda rza
ni ÅĤo
Ġpolity cznych
Ġtrud ne
Ty le
ry j
ĠÅļ rod
Ġdefi ni
Ġwy daÅĤ
Ġprowa dzenia
Ġod po
niesie niu
Ġso cjal
Ġg mina
Ġzbli Å¼a
ÅĤu je
Ġmu ndu
Ġkim ÅĽ
Przy pom
b rze
Ġme ta
Ġprze chodzi
Ġcieka we
Ġwoj na
ĠsprzÄĻ t
ka nie
Ġje sie
Ġwydat kÃ³w
Ġnaj szyb
la nia
Ġmie siÄĻ
raz y
ĠSpo ÅĤe
Ġak cep
Ġb ÅĤa
st oÅĽci
Ġrobo t
m m
Ġost ro
Ġchara k
ĠÅ¼ aÅĤ
Ġo lej
at ali
Ġza pra
Ġwi ny
Ġpre cy
ĠwojewÃ³dz twie
Ġra cji
jech ali
Ġjakich ÅĽ
gÅĤo s
gra f
Ġwspar cia
ĠWo je
ĠWie m
c ow
Ġsobo tÄĻ
Ġd rÃ³g
Ġod nale
Ġwykona w
ty wa
Ġu si
ĠÅģo dzi
Ġpraw dy
Ġzd jÄĻcie
Ġodpowiedni o
Ġko mis
om os
an em
Ġs nu
d nej
ĠA ka
Ġfunk cjÄĻ
Ġob sÅĤugi
Ġogrom ne
Ġz za
Ġta le
Ġproblem em
S er
Ġod robi
Ġsko rzysta
Ġoce ny
Ġedu ka
Ġszcze rze
Ġlub iÄĻ
Ġp ary
di um
ĠCh ry
ni am
ju sz
Ġspo Å¼y
sz ar
zie m
Ġby ÅĽ
Ġrozm owÄĻ
em aty
cz aÅĤo
Ġsub stan
Ġna tury
ra nie
Ġdzi aÅĤo
ĠM aÅĤ
B u
Ġpo krÄĻ
Ġza to
ru sa
ĠCz er
ĠKoÅĽci oÅĤa
mi t
Ġzw ÅĤo
ĠczÄĻÅĽci Äħ
Ġby le
Ġprzedstawi ciel
Ġpro si
Ġtwoje j
DD DD
Ġwy ba
Ġkoro nawi
Ġwe ek
Ġci os
k l
Ġuz bro
ĠN ew
Ġu ÅĤat
ÅĽ wie
Ġs kaz
waÅĤ am
Ġme czu
Ġprojekt Ã³w
ci sz
sÅĤ ych
niesie nie
ĠrozporzÄħ dzenia
Ġdyp lom
ral nych
ĠwÄĻ d
ÅĤa nie
b la
ĠQ u
A m
bie nie
Ġrze Åº
ĠZ am
Ġwi dziaÅĤa
st ko
Ġabsolu tnie
Ġwol noÅĽÄĩ
âĢ ¢
cy fi
ska Äĩ
Ġstra ch
ĠÅĽwie tnie
ĠwÅĤa dzÄĻ
ĠpoczÄħ tek
Ġpostanowi ÅĤ
kie dy
fe ra
Ġu mi
ĠszczegÃ³l noÅĽci
Ġos ÅĤa
k nie
Ġau ta
cj ona
Ġkobie tÄĻ
Ġokre su
ĠWiel kiej
Ġkapi taÅĤ
rz ona
ru je
Ġu pra
B A
Ġautob us
Ġno si
bi j
Ġsamo rzÄħdu
ĠduÅ¼ ych
Ġprzekona Äĩ
dzi my
Ġbo gat
Ġwyso kie
Ġwy rÃ³Å¼
z Ã³w
stÄħpi Äĩ
glÄħda jÄħc
Ġpi as
Ġstat ku
Ġprze sy
Ġstar e
Ġk Ã³ÅĤ
cis nÄħÅĤ
ba Äĩ
ĠAn na
Ġu dziela
ĠÅ»y dÃ³w
Ġpraw ej
Ġza atak
Ġwie dzieli
Dzie wczy
Ġi dÄħ
Ġpo gar
Ġtru dem
Ġcze kaÅĤ
Ġfor my
dz ej
ci ÅĤo
na u
Ġobo jÄĻ
Ġstra chu
Ġprowi n
Ġprodu ktÃ³w
ro k
nosi Äĩ
Ġprzy jÄħÅĤ
Ġst rzaÅĤ
Ġwy sÅĤu
Ġprzy stan
Ġwiel ka
b ol
ĠurzÄĻ du
Ġsz ta
Ġzamie sz
b ami
Ġna cze
Ġzach owaÄĩ
Ġsez onie
ate cznie
cz onym
Ġra dÄĻ
dziaÅĤ am
Ġodpowiedzial noÅĽci
Ġci sza
Ġzakre su
Ġprodu kt
ĠKa zi
or i
Ġza stanowi
ĠduÅ¼ a
Ġprzedstawi cieli
Å¼ onego
ĠAngli i
Ġprzed ÅĤu
Ġst e
Ġ20 20
Ġobec noÅĽci
Za nim
S K
ĠObywat el
czo nej
Ġinte re
ĠmÃ³wi sz
ĠG ro
ĠczÄĻ ÅĽciej
ĠFundu szu
nia nia
Ġok rop
wo ka
sto j
ĠmogÅĤa by
Ġana liz
Ġza robi
Ġdo pu
sty cznego
Ġwyko p
Ġp sa
Â ³
Ġz li
sta nie
ĠC e
Ġd s
Dzi siaj
Ġnie pod
Ġza jÄħÄĩ
Ġfinans Ã³w
Mu szÄĻ
ĠO n
Ġdoku mentÃ³w
Ġdo staw
ĠspoÅĤe cznoÅĽci
ĠBo gu
Ġme tal
ĠNie ch
owi ska
Ġcharak terze
ĠMi nistra
Tak i
szcze niu
Ġwy su
t m
Ġszpita lu
Ġsm ak
Ġpoz by
Ġwykona nia
Ġsfor muÅĤ
Ġg re
Ġa p
w ska
Ġb rÄħz
ĠÅĽwiÄħ ty
li p
Ġopi niÄĻ
Z ami
Ġob chodzi
Ġpat rzeÄĩ
Ġtra m
E M
Ġudowo dni
f r
ka jÄħc
Ġwie dziaÅĤem
Ġnauczy cieli
Ġle wej
ĠsÅĤy szaÅĤ
f il
Ġprzy spie
s cie
Od w
Ġs aty
Ġdwo ma
Ġzdoby ÅĤ
Ġpraw nych
Ġspoko ju
Ġpo kazy
7 5
Ġsp ÅĤa
nicz ka
men ta
s ÄĻ
Ġsku pi
li ng
Ġ200 2
Ġza a
ĠIz ra
Ġczu ÅĤa
ĠCh yba
Ġkomp letnie
Ġ3 3
Ġmru knÄħÅĤ
Ġedu kacji
p ak
Ġb as
Ġporoz mawiaÄĩ
Ġprze jÄĻ
Ġmoni tor
Ġinter pe
Ġco s
ĠÅ¼y ci
cze ÅĽniej
Ġprzyj dzie
Ġpo grze
ĠpÃ³j ÅĽÄĩ
· ½ï
Z ak
Ġwyda w
·½ï ·½ï
Ġroz li
ĠM er
ĠK e
w ziÄĻ
ie rze
lim pij
O bo
Ġna przeciw
ĠdÅĤugo ÅĽci
Ġwyob raÅº
ĠsÅĤo d
T Y
Ġwi dzieÄĩ
ĠwiÄĻk szy
C ze
Ġspotka Äĩ
ĠL in
Ġwielo krotnie
Ġczar ne
ĠâĢ ľ
ĠPa weÅĤ
ĠO s
K i
Ġprowa dzÄħ
Ġtem aty
Ġ #
U ÅĽmie
n owi
owy waÄĩ
at ych
t ana
ĠA fry
Ġtrud noÅĽci
Ġzn any
ĠSkar bu
Ġtrzym aÅĤ
ĠfaÅĤ szy
Ġwz gÃ³
Ġtrafi ÅĤ
dzieli Äĩ
ĠwyciÄħg nÄħÅĤ
ek su
d ry
g nÄĻÅĤa
Ġwyb orÃ³w
Ã³ gÅĤ
Ġuspo ko
Ġce ch
Ġpo cie
Sam o
wi l
Ġodp ad
Ġofi cer
ĠwÅĤo sÃ³w
Ġgdy bym
Ġ â
ĠsÅĤo ÅĦce
Ġdow ol
r ia
Ġstar ego
ska wi
Ġpoten cjal
Ġ: )
Ġde szcz
Ġznajom ych
Ġpan Ã³w
ĠPol ak
Ġprofe sor
os ob
je st
Ġros nÄħ
ery tory
owi a
Ġpo to
ĠwystÄĻpu je
aÅĤ Äħ
ĠNarod owej
Ġseku nd
le niu
Ġzam Ã³w
ĠzaczÄĻ ÅĤo
Ġnajwy raÅºniej
ĠniezaleÅ¼ nie
ĠkawaÅĤ ek
Ġtelef onu
wÄħ tp
Ġog ieÅĦ
ĠZ S
Ġcho dni
Ġkwo tÄĻ
bÄĻ dzie
ĠznaleÅº li
regu l
Ġwidzi sz
Ġmi n
9 9
nie Å¼
Ġwska zy
ĠprzyjÄĻ cia
Ġpew nej
Ġzmie niÅĤ
I N
Ġle g
ĠmateriaÅĤ Ã³w
Stwier dzam
Ġbior Äħc
Ġna w
ĠskÅĤa dni
Ġsto ÅĤu
st aÅĤy
Ġwej ÅĽcia
ĠMich aÅĤ
Ġzbro dni
ĠrozwiÄħza ÅĦ
ĠÅºrÃ³d ÅĤa
ĠSz we
Ġmomen tu
t t
Ġre lacji
ĠmÃ³z gu
Ġdu szy
Ġprzedmio tem
ĠM il
ĠFinans Ã³w
ka jÄħ
O to
Ġ ano
wiÄħ zy
ĠniemoÅ¼ liwe
Ġsp ie
Ã ¶
Ġpo kazu
g as
I le
li wa
ĠP L
I m
ĠÅ¼ art
Ġsta ran
st ana
Ġra dzie
Ġpowi at
Ġpole cam
ĠSej mie
Z robi
Ġdo trze
spo dar
Ġprze k
Ġzn aÅĤ
Å¼y ser
ĠA li
ĠpoÅĤu dnie
Kiedy ÅĽ
Ġmniej szoÅĽci
Ġnie sam
Ġprzypad kÃ³w
Ġpoz n
la ra
ĠM art
p tu
P O
Ġje chaÄĩ
Ġs an
Ġdziec kiem
Ġwy ru
ÅĤ ym
w szem
Ġfunkcjon owania
Ġdyrek tora
ĠwyjaÅĽ niÅĤ
ĠskÃ³ rÄĻ
Ġeksper ym
z or
F a
Ġzau f
ĠÅ¼ad na
Ġrozm owa
sz kÄĻ
Ġprzy sÅĤu
Ġwe Åº
C E
dzo nej
Ġce na
Ġnormal nie
ÅĤo ÅĽÄĩ
Ġpo ciÄħ
liza cja
ÅĤo m
lu s
½ï¿½ï¿½ï¿½ï¿ ½ï¿½ï¿½ï¿½ï¿
mie ÅĦ
v o
Ġzaraz em
ĠK ur
Ġwy kry
Ġlep szy
Ġf in
kie t
ist or
Ġmuzy ki
ĠJa po
Ġutrzym aÄĩ
Cie ka
s ol
Ġg rÄĻ
ĠgÅĤÄĻ bi
Ġz bliÅ¼
Ġst al
Ð °
Ġko p
Ġak tor
Ġprze ksztaÅĤ
Ġbibli ote
Mo ja
T rudno
ĠwÅĤas ny
Ġprawdzi we
dzie liÅĽmy
ĠumoÅ¼li wia
Ġplu s
ĠpomyÅĽl aÅĤa
Ġtwo rzy
Ġzor ient
j nych
Ġ15 0
ĠsiÄĻ ga
Wie sz
ĠP art
ĠÅĽ nia
Ġprzypad ek
G O
ĠPar lam
sta l
nie go
z em
Ġdzien nie
Ġa spek
Ġ3 8
Ġzamie rz
Ġpl any
Ġjedy ny
cza jÄħ
Ġotwar te
Ġf u
ĠjÄĻzy ku
W ÅĽrÃ³d
w skiej
po li
Ġprze sÅĤ
ĠGe or
ĠK ali
T ro
Ġwspo min
MÄĻÅ¼czy zna
ĠÂ §
Ġpew nÄħ
Ġroz bi
Ġdy scypli
ĠsÅĤu Å¼Äħ
ĠH it
Ġucze lni
Ġb r
ĠÅ¼ad nym
ĠwyjaÅĽ niÄĩ
Ġposie dzenie
ĠmyÅĽl aÅĤ
Ġ )
g any
w Ã³w
ĠWo jcie
Ġdziedzi nie
Ġusta wÄħ
Ġsre br
ĠG ÅĤÃ³w
ie ry
Ġeta pie
Ġdo kony
Ġ3 4
Ġzapew niÄĩ
l ka
Mi nister
c ono
g nÄĻ
Ġdo le
Ġprze wa
Ġmeto dy
Ġcz wart
cj onu
Ġcz oÅĤo
Ġpo dziÄĻ
Ġp ri
Ġra ch
n or
ĠT i
W A
Å¼ ne
ĠPÃ³ÅĤ noc
Ġregi onal
Ġstar ych
uje sz
ĠpoÅĤu dniu
ĠwnÄĻ t
Ġkon cent
Ġwy li
Ġho telu
Ġfak tu
zu ÅĤ
na Äĩ
Ġpacje ntÃ³w
D u
ĠpodÅĤo dze
ĠB en
Ġobi ad
ĠPoli cji
ĠchciaÅĤ by
Ġod mie
Ġwz moc
ku l
Ġsp ada
Ġauto stra
Ġpis aÅĤ
Ġusta wÄĻ
Ġlo kali
Ġfunkcjon ariu
Ġdosko naÅĤ
ĠNarod owego
tra fi
d owaÅĤa
Ġh aÅĤa
Ġwyda rzeÅĦ
Ġin Å¼ynie
Ġwie j
ĠKat owi
ĠksiÄħ Å¼ek
Ġka pita
Ġli t
Ġklien tÃ³w
sza nie
Ġrozpo czÄħÅĤ
ĠszczÄĻ ÅĽcia
Ġzauwa Å¼yÄĩ
P owo
Ġczas y
ko nu
ĠKo dek
Ġleka rzy
Ġu zaleÅ¼
Ġchwi l
Ġwi dzÄħc
st ron
ĠwyjÄħ tkowo
ĠdziewiÄĻ Äĩ
19 8
Ġkatego rii
k er
Z naj
Ġpropozy cji
d wo
Ġzna Äĩ
ĠspoÅĤe czne
Ġdrzwi ami
ĠÅĽwiad czenia
W ol
st ek
siad ÅĤa
Ġzagro Å¼enia
I D
Ġm erytory
Ġw ÅĤÃ³
Szanow ny
ĠÅĽ ciÄħg
Ġpod nie
ĠpeÅĤ nÄħ
Ġnie zna
ĠM al
Ġelekt ro
Ġwy ciÄħga
an ÄĻ
Ġtym czasem
Ġ199 9
ĠRe publi
Ġnos em
Ġwspar cie
j emu
Ġchwi la
Ġryzy ko
Ġde bi
ra cam
Ġpo su
. ),
ĠpamiÄĻ taÄĩ
Ġkar ty
Ġnaz wÄĻ
Ġcel Ã³w
Ġwe so
ĠBiaÅĤ oru
Ġdob rych
niej szÄħ
Ġna pi
po ko
ĠurzÄħ dzenia
M A
ĠostroÅ¼ nie
Ġobec nej
Ġdokumen ty
Ġfor mu
ĠprÃ³ by
Ġgra nic
ĠSprawie dliwoÅĽci
ĠO ch
Ġza jÄħÅĤ
ci ami
ĠMar ek
Ġn aÅĤo
Ġzez na
ĠogÃ³l nie
Ġko nia
ie nia
m owy
ĠÅĤa ÅĦcu
ÅĤ ami
Ġznak omi
cz ku
d an
Ġzie l
Ġf ur
ĠobowiÄħz ku
w nie
ĠN IE
Ġpow Ã³d
Ġu lubi
w ent
ni ÅĤem
Od powie
ĠzaleÅ¼ noÅĽci
ĠT en
Ġnau kow
st rza
Ġdo l
Ġrozm owie
wi c
sf ak
Ġzagrani cznych
Ġprzypom nieÄĩ
ĠPol skÄĻ
Ġstwier dziÄĩ
Ġpod jÄħÅĤ
Ġodpowie dziaÅĤa
ĠK to
ol ony
Ġch cÄħc
Ġtaki mi
Ġstra ty
3 6
ĠwyglÄħd aÅĤa
Ġw w
czÄħ ca
sz ak
Ġdem on
Ġpi lo
ĠmÃ³wi my
o p
Ġpisa Äĩ
Pol ska
Ġza si
Ġfinans owe
Ġgru pie
sty n
Ġobser wa
Ġpod wÃ³j
t row
c onych
Ġt ri
Ġsp or
ĠÅºrÃ³ deÅĤ
sz onych
Ġprze szÅĤo
ki ng
en tuje
Ġe po
3 4
Ġjak oÅĽÄĩ
ar ni
Ġz ary
Ġpan em
Ġgmi nie
Ġpan owie
Tak a
ĠI m
ĠJ uÅ¼
F ak
K O
d or
Ġregu lami
Ġwstrzym aÅĤ
mi r
ĠprzedsiÄĻ wziÄĻ
li j
Wie le
S praw
Ġwy ÅĤo
Ġwykorzysta Äĩ
Ġal bu
li ne
Ġwyobraz iÄĩ
Ġza bu
Ġmiast e
Ġnaj wiÄĻcej
Ġwyso koÅĽÄĩ
ow nika
pi on
niÄĻ ciu
sze ÅĦ
wi ona
Ġrzecz nik
Ġpo ka
Ġzapom ni
Ġi denty
kaz aÅĤo
Ġobsza rze
oÅĽ rÃ³d
bud owy
ĠksiÄħÅ¼ kÄĻ
ĠMinist rze
Ġs chro
Ġkrzy knÄħÅĤ
aÅĤ Ã³w
T he
Ġwprowa dzenie
Ġu siÅĤ
rzy d
Ġbra Äĩ
Ġmat ematy
Ġprzyja ciel
Ġkaz aÅĤ
Ġczar no
ty z
ĠLe gi
Ġroz ej
le niem
go spodar
Ġodpowie dnie
Po czu
Ġnadz wyczaj
Ġko leÅ¼
om e
Ġzwo len
Ġstan ow
ĠtÅĤuma czy
Ġf la
ĠpÅĤa ciÄĩ
Ġdelika tnie
ĠmÃ³wi ÅĤem
Ġstra ciÅĤ
Ġza rob
ĠI s
legÅĤo ÅĽÄĩ
Ġzy sk
sza jÄħ
Ġsz czu
szcze ÅĦ
ĠI V
ĠgÅĤo sie
ponu jÄĻ
ĠUkrai ny
3 9
sz ono
f ra
Ġisto tne
Ġbu ty
Ġp ÅĤu
Ġstra sznie
Ġdzie Äĩmi
Ġnie leg
A by
dzi ny
Ġwy k
Ġelem enty
ĠMy ÅĽl
Ġpo u
N IE
ĠÅĽ lu
daw cÃ³w
Ġalkoho lu
Ġser ia
wo ju
Ġd wor
Ġkomenta rz
ĠS ze
Ġopera cji
ĠN I
O bie
d owi
ĠnastÄĻp nego
Ġw brew
ĠB ro
prawie dli
ja jÄħc
ta cje
Ġtransp ort
Ġo z
Ġpo strze
Ġsp ek
ĠgÅĤ owa
ĠpiÄĻ tna
wi li
Ġem i
Ġu ÅĽci
ĠwiÄĻksz ej
ber t
Ġb rud
ĠmiaÅĤ by
Ġw las
ĠÅģ a
Ġser de
ĠB ud
Ġj aj
ko mu
Ġbezpie czeÅĦstwo
ĠPra cy
Ġskle pu
Ġog nia
Przy stÄĻpujemy
Ġgwia zd
ĠZwiÄħz ku
Ġle dwie
ĠgÅĤÃ³w nym
er yta
Ġkobie tÄħ
Ġniez byt
by tu
ĠgÅĤo sy
i ÅĤa
ĠmÅĤodzie Å¼y
Ġek ran
ĠrÃ³Å¼ nica
Jeste ÅĽ
Ġrozpat ry
Ġpo szu
Ġsp aÄĩ
Ġzak res
Ġprzy czyn
Ġ3 7
ĠgÃ³w no
Ġniepo trzeb
Ġdo sÅĤ
Ġprze mie
Ġwy ÅĽci
Ġin west
Ġczwar tek
cza nie
le ktu
Ġstat ek
B ra
Ġele gan
cy z
logi a
Ġka rabi
Ġczy taÄĩ
Ġprzewi dy
ĠU ni
ĠÅĤa zie
dzo nego
Z osta
O ni
Ġuzyska Äĩ
Ġprzedstawi Äĩ
Ġwydat ki
Ġsku tek
Ġmat er
zd ro
Ġbudy nek
Ġkie li
Ġs ejm
il le
ĠcÃ³r ka
Ġostatnie go
Ġu sÅĤugi
ĠT ade
Ġsie d
Dodat kowo
Ġwal ce
w ers
Ġprzycho dzi
Ġ199 7
Ġobec noÅĽÄĩ
Ġpo caÅĤ
u jÄĻ
Ġkieru n
Na prawdÄĻ
ĠG dzie
ĠmyÅĽli sz
ci ÅĤy
Ġu tw
Ġresz tÄĻ
od Åº
ĠÅ¼ycie m
Ġn ÄĻ
Ġpropon uje
Ġset ki
Ġd Å¼
Ġto Å¼
Ġspo strze
ow ny
Ġmaszy n
____ ____
Ġwykorzy stu
al y
Å¼y ÅĤo
sp Ã³l
Ġle gen
Ġrozstrzy g
ĠB ri
Ġuczu cia
ni aÅĤo
ÅĤowie k
ĠpielÄĻ gni
Ġpat ri
ie nie
Ġe dy
ĠpÅĤ ci
Ġle ci
Ġjedno zna
ĠwpÅĤy wem
rzy ja
p aty
Ġpowstrzym aÄĩ
de cyd
ĠuwaÅ¼ nie
ĠP S
A ni
ĠÅ¼on ÄĻ
Ġprze ra
Ġz ÅĤy
ĠJ ego
Ġprzy go
Ġsam obÃ³j
Ġpry waty
ĠXI X
... )
3 7
Ġsukce s
Ġpart ner
ĠpoÅĤ owy
Ġze szÅĤ
Ġwszel kich
ĠnaleÅ¼ aÅĤo
Ġpojawi ÅĤa
ĠpamiÄĻ Äĩ
Ġrobi sz
mi any
ĠAnd rze
n nie
ko ÅĤo
Ġo sz
Ġpowo ÅĤ
Ġ en
ĠG ar
Ġnazwi ska
Ġwska Åº
Ġprze bie
ĠuÅĽwiad omi
Ġb zdu
Ġpapie r
Ġsz er
Ġpopraw kÄĻ
Ġw staÅĤ
Ġw g
Ġszac unku
ce bo
Ġpo rzu
ĠÅĽwie Å¼
Ġnajwy Å¼ej
Ġpu l
pa nia
Z at
k nÄħÄĩ
ra li
Ġroz eÅĽ
n ur
Ġprzypad kiem
Ġpolity cznej
sza nia
Ġpowie dzi
Ġrad io
Ġtransp ortu
Ġcie szy
Ġpod jÄħÄĩ
Ġu niwersyte
sz ÅĤam
Ġwyb ory
sz liÅĽmy
czy cy
Ġpod nieÅĽÄĩ
te st
st aÅĤo
Ġszczeg Ã³
Ġop Ã³Åº
omos eksu
b ki
Ġpo biera
Ġuczu cie
Ġzgo dy
Ġoczywi ste
ĠrÄĻ kami
Ġkierow cy
i ny
Ġpopraw ek
Ġprzy tu
Ġorygi nal
Ġnadzie i
Ġpro to
Ġistnie jÄħ
ĠIn ter
Ġszy i
ĠM ad
Ġza cze
Ġwyma g
ata rzy
Ġo mi
ĠÃ³w czes
wi zji
ĠL it
ct wem
ĠpÃ³ÅĤ nocy
Ġza dow
Ġle wo
Ġre sor
Ġg ier
3 1
en dy
ĠcÃ³r ki
Ġa wan
UwaÅ¼ am
ku jÄħc
Ġwie rzyÄĩ
Ġwyso ki
Ġod rze
Jeste ÅĽmy
bi gnie
ĠrÄĻ ku
4 8
Ġza rzÄħd
Ġpubli cznego
un d
Ġpra gnie
ĠgÅĤu po
Ġcze k
Ġsk rom
w ce
) :
Ġh um
Mo je
Ġwto rek
Ġwy raÅ¼a
Ġtu ry
Ġstoli cy
Ġw rzas
ni z
ĠU S
ĠKa ro
G B
Ġdo finans
ĠG Ã³
nic twie
Ġwie dzÄĻ
nia nie
Ġfe sti
Zami ast
Ġud ostÄĻp
Ġod su
aÅĤa ÅĽ
Ġ4 8
Ġla su
Ġfi gu
Ġkwest ie
Ġpla cu
Ġprowa dziÅĤ
Ġz em
3 8
Ġpie s
Ġzam ord
Ġprakty ce
Ġby l
Ġkur s
cz nika
G ene
Ġkonie czne
Ġby c
Ġpozy cjÄĻ
Ġpolity ka
Za raz
Ġwi si
Ġwy pu
Ġu f
ĠWiÄĻ c
ĠPo lity
b l
Ġpo po
WÅĤa ÅĽci
Ġoj czy
Ġprze bieg
Ġefek tyw
Ġtrzym aÄĩ
Ġo tacza
aÅĤa bym
Po czÄħ
un kiem
ĠÅĤ zy
Ġb lu
Å¼ ki
f el
Ġwt rÄħ
Ġnaz wy
mi nu
w czych
Ġk g
ĠprzyjÄĻ ciem
Ġu jÄĻ
wie niem
C Ã³Å¼
Ġsi at
Ġwoj nÄĻ
ĠoÅĽwiad czyÅĤ
o my
Ġodp or
Ġinfor m
g re
d on
Ġdyskus jÄĻ
Ġw Ã³d
R os
Ġpi j
ĠÅĽla dy
ĠUniwersyte tu
F ran
ĠpoÅĽ pie
Ġpowa Å¼a
vi d
w amy
ĠczÅĤon kiem
ĠmaÅĤ Äħ
czÄħc ym
Ġprz ych
Ġser ii
Ġpowsta nia
czÄħ Äĩ
ĠprÃ³bu je
C e
js ko
Ġkorzysta Äĩ
Ġmas y
Ġkontek ÅĽcie
Ġtem atu
ĠmogÅĤo by
ĠnastÄĻpu jÄħce
ĠZS RR
Ġcu k
Ġzdoby Äĩ
Ġwy s
Ġkierow ca
Ġterytor ium
ĠobowiÄħz kÃ³w
Ġreali zacjÄĻ
ĠE u
ga nie
ĠKrzyszto f
Ġni gdzie
Ġkro kÃ³w
ni czy
CzÄĻ sto
skie mu
Ġpracow nicy
ĠJ aku
m owa
Ġpod aÅĤ
Sz ko
Ġpo jem
ĠdoÅĽwiad czenie
Ġpojawi ÅĤy
cu je
an da
Ġak ad
ĠB ur
an ci
Z as
t wem
ÅĤo by
Ġtu rysty
Ġpol ska
ci ÅĽ
st nie
Ġsposob u
sza jÄħc
ĠBar dzo
ĠMar ia
Ġa po
Po mi
ĠCz ÄĻ
ĠwyjÄħ tkiem
ĠpuÅĤ kow
p kÄĻ
ĠksiÄĻ cia
Ġski nÄħÅĤ
Ġsku tki
Ġu kra
Ġg ÅĤad
ĠT rze
n ce
Ġpow rÃ³t
Ġba zy
Ġ3 2
C I
W al
ĠA b
je k
Ġkad encji
Ġban ku
Ġsz al
ie m
Ġko lum
ĠRob ert
ĠS P
Ġob cho
Ġa para
p Äħ
am tÄħd
Ġhand lu
nio nego
lo ty
Ġ Ð
Ġo kiem
Ġtu ne
B ie
wÄħtp liwie
sta Äĩ
ĠB ru
ĠpeÅĤ nym
Ġszko da
Ġuwie rzyÄĩ
Ġpod d
Ġpos el
G ÅĤÃ³w
Ġofi ary
t owany
Ġod bior
Ġ199 0
Ġna pÄĻ
Ġ; ).
Ġgospodar czej
fa nia
E D
Ġpal cami
mu m
ĠÅ¼oÅĤnie rze
ĠHi sz
ĠTe raz
Ġzn ane
Ġczu j
p ÅĤ
Ġodpowiedzial noÅĽÄĩ
Ġnego cja
Åº le
ĠpÅĤ ak
L a
Ġwskaz aÅĤ
nio nej
to na
le ry
ĠLu bli
ĠAm eryka
rzy ÅĤem
Ġoznajmi ÅĤ
at i
ĠMich a
ona ch
ni czego
ĠspoÅĤe cze
Ġprzy szÅĤa
Ġwybra Äĩ
Ġp Ã³ki
Ġspo rzÄħ
Ġma lu
Ġk ru
Ġpo j
Ġzatrzym aÄĩ
Ġa sy
ĠPrze d
ko t
ym y
Ġpodob ny
Ġmniej sze
Ġ Ã³
ĠToma sz
Ġsz Ã³
Ġnajlep szych
Ġem eryta
Ġsk ÅĤon
O s
Ġru chem
6 6
Ġartyku ÅĤ
Ġwe szÅĤa
4 4
dzi ÅĤam
Ġrodzi nÄĻ
Ġznaj dowaÅĤ
Ġsy l
je nia
Po le
ĠStani sÅĤaw
Ġam bi
ĠÅĽrod ÄĻ
Ġnajszyb ciej
M ÅĤo
Ġopowie ÅĽci
Ġsp ÅĤy
ro nt
Ġo kazuje
ĠÅģ uka
Ġprogra mÃ³w
Ġteor ii
ow nicy
Ġgospo da
ĠÅĽwiadom oÅĽci
Ġcho ler
sz aÅĤam
Ġu niÃ³sÅĤ
Ġtry bie
Ġinfor muje
cza jÄħc
Ġinforma cja
Ġu siadÅĤ
e e
Ġzdr owie
ĠsÅĤ ychaÄĩ
li Å¼
Ġregi onie
Ġwy ku
Ġdy spon
Ġpolity czne
ĠChry stu
Ġokaz aÅĤ
Ġprzewi dzi
S a
Ġfrag ment
Ġroz ko
K siÄħ
Ġprzewi duje
sko czyÅĤ
tk ami
Ġpi ÅĽmie
Ġwy raÅ¼
Ġko ja
Ġsi r
Ġuch waÅĤy
Ġmieszka ni
Ġdziw nego
ni s
ĠwpÅĤy wu
ĠJa ck
Za stana
Ġdy spozy
Ġpodkre ÅĽliÄĩ
Z ost
Ġpod trzym
Ġe ki
Ġgodzi nie
Ġzam a
rz ch
Ġumie szcz
Ġszpi tal
Ġzdol noÅĽci
ĠmyÅĽl aÅĤem
Ġ193 9
Ġab sur
Ġmian owicie
Ġfor m
tu jÄĻ
Ġnarod owej
Ġpew noÅĽÄĩ
Ġpo szÅĤa
Ġchor ych
Ġzach Ã³d
Ġspotka niu
Ġk rwa
ĠÅĽmie chem
Ġza rabi
Ġzda rzenia
gry wa
ĠmaÅĤ ym
Ġmog ÅĤam
Ġ3 9
gru p
Ġpoczu ÅĤa
Ġsk rÃ³
Ġu regul
Ġde s
Wi ad
Ġuzna Äĩ
Ġwprowa dza
Ġpo glÄħ
Å¼e ni
Ġna rodu
Ġelem entÃ³w
Ġprze rwaÅĤ
ĠzapÅĤa ciÄĩ
Ġsze ÅĽciu
now u
Ġcze le
Ġmateri aÅĤu
ĠmaÅĤ ej
in gu
Ġsp oÅĽrÃ³d
G o
7 8
Ġa pe
Ġro biÄĻ
Ġna gÅĤ
Ġpodstaw owych
Ġna czy
ĠJeste ÅĽ
ĠsÅĤo ne
Ġpo jÄĻ
Ġszans e
Ġ199 8
ĠÅĽ cie
ĠÅĽmie ci
F i
t owania
Ġpod stawy
ĠbÄĻd Äħc
Ġnaz wa
ĠÅ¼ onÄħ
Ġr owe
n nÄħ
cie Äĩ
Ġgra Äĩ
Ġprzer wy
Ġprzygot owania
Ġch roni
Ġprzekon any
Ġzgo dziÅĤ
Ġpart ne
Ġpomo Å¼e
ch aÅĤa
ĠwziÄĻ ÅĤa
Ġra mieniu
Ġpoinform owaÅĤ
Ġograni czenia
ĠÅĤa du
Ġni z
Ġpo sa
ĠwiÄĻk sza
Ġce r
Ġpropozy cjÄĻ
ty ku
Ġwy le
Ġgo ÅĽÄĩ
Ġfak ty
Ġwprowa dziÄĩ
d owania
Ġprzed tem
ĠtoÅ¼ sam
Ġzatru dnienia
ĠbÅĤy skawi
Ġdod aÅĤa
Ġu sz
Ġad woka
Ġkam panii
Ġzao pat
r ymi
ĠCze ch
Ġb un
Ġwyro k
Ġ4 00
Ġple cy
Ġkro ki
P e
c aÅĤa
Ġak t
ĠgÃ³ rze
d owych
ĠÅ¼oÅĤnie rz
u rze
Ġp lat
zna nia
ĠczÄĻÅĽci owo
ĠKul tury
Ġwystarcza jÄħco
Ġrozumie sz
Ġbra kowaÅĤo
ĠspoÅĤe czeÅĦstwo
Ġmo derni
ni kom
Å¼y ÅĤam
ĠmÅĤo dzi
ĠpaÅĦst wu
Ġk ÅĤÃ³
ĠFran cu
wÅĤa ÅĽci
Ġwo dzie
Ġspo czy
Ġprofe sj
ĠpowiedziaÅĤ am
Ġpar ku
Ġnajlep szy
de s
sty cznym
Ġli stÄĻ
Ġze p
Ġna pisaÄĩ
Ġn Ã³Å¼
Ġucho dÅº
ĠwrÃ³ci ÅĤa
ĠwÅĤas noÅĽci
ĠT am
Ġwszyst kimi
Przy po
noÅĽ nie
Ġli czne
Ġum Ã³w
cia nie
ĠleÅ¼ aÅĤ
ĠzdÄħ Å¼yÅĤ
Ġobo je
Ġcho dziÄĩ
Ġobej muje
m ana
Ġsamocho dy
sty cznie
Ġda jÄħ
K rÃ³
Ġzas ÅĤo
Z ach
ĠsprzÄĻ tu
niÄĻ tych
ĠchÅĤop ca
na ÅĽcie
ad ÄĻ
d liwoÅĽÄĩ
Ġdok tora
ry wa
ĠwyglÄħd aÅĤo
T rzy
czy kÃ³w
ĠC or
Ġwy ÅĽwiet
Ġzrobi li
Ġzami ar
Niekt Ã³rzy
Ġv on
Ġtwa rzÄħ
ĠczÅĤon kowie
ĠS al
Ġsto py
Å¼ ka
Ġpomy ÅĽle
prz Ã³d
Ġb aj
o mie
Ã³d Åº
ĠmaÅĤ ego
Ġjedy ne
Ġpowi ad
sty czna
ÅĤo nek
Ġanali zy
im e
pa ÅĽÄĩ
Ġtowarzy szy
Ġciem no
ĠÅºrÃ³d ÅĤo
zwy cza
k cje
Ġchci aÅĤam
k owana
Ġza jÄĻcia
Ġkorzy ÅĽci
Ġprzedstawi ciele
Ġw rÃ³
Ġmo rza
Ġsta wia
Ġarchi tek
Ġk al
Ġmili ar
Ġstan Äħ
rzym y
Ġte ore
Â «
Ġwol ny
ce na
ĠS Äħd
Z u
ĠB or
Po myÅĽl
Ġna stro
cz onÄħ
Ġzap amiÄĻ
war d
Ġb ad
Ġwyb ud
Ġpowsta nie
Ġst owarzy
gn or
ĠzwierzÄĻ ta
ko men
R ob
Ġpo daje
ier ÄĻ
ĠsÅĤy szaÅĤem
Jak by
Ġh omoseksu
Ġkom end
dz ki
Ġkos mi
ral nym
ĠA t
si l
Ġtwoje go
ĠÅĽcian ÄĻ
Ġwpad ÅĤ
ĠI r
at ÄĻ
Å¼ aÅĤ
cz am
Ġd aÅĤa
sze niem
Ġno gami
Ġproje kty
ĠBy dgo
d owe
Ġfoto grafi
P R
gra cji
sz czÄħ
ĠM iÄĻdzy
ĠpiÄĻk na
ĠZ US
Ġobo zu
praw dopodob
sk aku
dzÄħ cego
Ġmil czeniu
Ġka wa
Ġki bi
g Ã³r
ĠTV N
an kÄĻ
ĠuÅĽmiech nÄĻÅĤa
ĠciÄħ Å¼y
ĠPu bli
Szy b
Ġtra ge
Ġpocho dzenia
Ġreli gii
ĠTy lko
Ġmar ki
Ġwy kÅĤad
Pro jekt
ĠtÄĻ sk
Ð ¾
Ġprokura tor
Ġko pal
ber g
Ġro cznie
ĠbiaÅĤ e
ĠzaÅĤo Å¼enia
Ġur lo
5 5
rz mi
Ġmiasta ch
Ġzap as
ĠmÃ³wi li
Ġstro nach
Ġprzy kro
Ġdu py
Ġcier pi
ce ni
ĠchociaÅ¼ by
ĠÅĽ lub
ĠpowaÅ¼ ne
Kobie ta
Ġby wa
Ġal terna
Ġstwo rzyÄĩ
p owiada
Ġpo kÅĤad
Ġ100 0
m em
Ġunik nÄħÄĩ
Ġwi zer
Ġwprowa dzenia
S kÄħd
War to
dze ni
ĠRoz woju
Ġwy je
b aÅĤ
yt aÅĤem
Ġnie p
Ġznik nÄħÅĤ
Ġpowie ÅĽci
W czeÅĽniej
d owego
Ġpotra fiÄĻ
. "
ĠS ÅĤo
st kÄĻ
Ġstro na
Ġscho dach
Ġna bra
ĠmyÅĽle nia
Ġod niesieniu
niej szego
Ġm owy
By ÅĤem
Ġmu zuÅĤ
nika ch
Ġla bo
ĠA nt
ĠokreÅĽ lone
ĠPozna niu
Ġspoj rzeniem
Jed na
Ġodby wa
Ġsiost ra
Ġzdo ÅĤaÅĤ
cz kach
K ar
ĠmÃ³ c
ĠRa dzie
ĠpowaÅ¼a niem
Ġzagro Å¼enie
Ġjedy nÄħ
Ġch emi
zy n
Ġprze ciwie
Ġli be
Ġinteresu je
O jciec
Ġwy szÅĤo
Ġza akcep
Wystar czy
Ġod nosi
Ġle ÅĽ
Mi aÅĤem
za nia
Ġod daÄĩ
te Å¼
Ġtrzydzie ÅĽci
Ġokaz jÄĻ
Ġd re
k et
sz czyÄĩ
ĠO chro
ĠposÅĤ owie
Ġby liÅĽmy
A d
ĠUrzÄĻ du
Ġsaty sfak
Ġgodzi nach
pie niu
ĠpodÅĤo gÄĻ
Ġ194 5
l la
peri um
Ġbie gu
Ġdu cha
Ġkonie cznoÅĽÄĩ
Ġob rad
Ġczu Äĩ
Ġpo e
ĠB al
Ġpie cho
ĠÅĤa god
Ġdoprowa dziÄĩ
ĠosiÄħg nÄħÄĩ
Ġkonie cznoÅĽci
Ġ4 6
ĠÅ¼yw noÅĽci
Ġelekt roni
Ġu dziaÅĤem
Ġnajlep szym
t amy
ĠPo ÅĤudni
Ġkra je
ĠP ow
ĠZ y
ĠwyÅ¼ sze
ĠO krÄĻ
Ġchu j
ĠD ob
ĠK lu
Ġli n
Ġo zd
d owy
ĠO st
Ġd niem
Ġgra nicÄħ
Ġzli kwi
ĠmÃ³z g
St Äħd
Ġsp ali
Ġza wiad
b em
ĠokreÅĽl onych
cze ki
t owych
je j
ĠpoÅĤ owÄĻ
ĠMa sz
ĠsÅĤu sz
den cji
ĠSt re
ĠÅ¼eby ÅĽmy
Ġkra wÄĻ
Ġdar mo
ĠZ bignie
and er
Ġano nim
Ġbro niÄħ
le cia
Å¼ nej
p ry
Ġod rÄĻb
Dru gi
Å¼ ono
C aÅĤy
Ġprze sa
z ami
dzie Å¼
Ġje dzenie
Ġkro kiem
in t
Ġab or
ow skim
on g
Ġf ron
Ġfil mie
ÅĽ rod
ĠrÄĻ ko
Tak Å¼e
Ġpunk ty
Ġinte lektu
ĠciÄĻÅ¼ arÃ³w
Ġdo rad
ĠBryta nii
glÄħd aÅĤa
ĠZ ach
w skim
ĠdosÅĤ ownie
Ġgru pÄĻ
Ġgra nicÄĻ
o koÅĤa
lo ka
Ġoj cem
s ja
Ġzauwa Å¼yÅĤa
Ġtelewi zyj
h ar
wi u
t owe
ĠÅļ wiat
Ġpo nu
Ġwiecz oru
Ġpow staÅĤa
Musi my
W krÃ³tce
Ġzech ce
ĠpeÅĤ en
f aÅĤ
ĠwiÄĻksz ych
ĠpÅĤa ci
an tÃ³w
Ġnieu stan
ĠF o
Ġpa da
f in
Ġobsz ar
Ġroz legÅĤ
v an
ĠR ich
Ġstrze l
ob raz
Ġstanowi sku
Ġkomp let
ut h
a a
ĠCh ci
ĠroÅĽli n
Ġosob om
Ġod er
Ġpodat kÃ³w
Ġza je
Ġkwo ta
Ġa wans
Ġmiejsc owoÅĽÄĩ
Z d
t ko
Ġje dzenia
Ġdo stÄĻpu
Ġkul tural
J as
Za pew
Ġwynagro dzenia
ĠpozostaÅĤ e
Ġ &
dz aÅĤa
Ġroz ry
Ġstrze la
Ġjeste ÅĽcie
Pier wsze
Ġpraw dÄħ
liw Äħ
ĠÅĽ cianie
on da
Jednak Å¼e
Ġg aÅĤÄĻ
D ÅĤu
je str
Ġinteli gent
Ġpal cem
Ġre cep
dale ko
ĠIz by
ĠMi koÅĤa
Ġna de
L o
Ġnaj now
ĠG rzego
ĠMu zeum
qu e
an ny
wa lu
Ġs ej
Ġb os
Ġsu fi
ĠÅĽmier ciÄħ
Ġodp ar
ĠU r
ĠpÃ³j dzie
ĠzakoÅĦ czeniu
men tu
Ġdowo dÃ³w
so ra
Ġsek s
zu r
Ġum owÄĻ
ĠpiÄĻk ne
waj car
Ġjaki mi
Ġza spo
Ġb ater
wa ÅĦ
ar ch
Ġkonferen cji
Ġobser wu
Ġsypi alni
Ġprzygot owy
Ġprze raÅ¼
ĠPa u
Ġbez wzglÄĻ
ĠT owarzy
Ġspek tak
Ġfo te
siÄħ ÅĽÄĩ
Ġwyda waÅĤ
ĠPa wÅĤa
mi ana
Ġsiost ry
Å¼e by
Ġzas ob
sz czyÅĤ
Ġu kÅĤadu
Ġprzestrze ÅĦ
O D
Ġurucho mi
unk owo
Ġe wi
ĠMa cie
Ġdo ciera
Ġws chÃ³d
Ġprojekt em
Ġga zu
Ġczy ni
Ġpoli cjÄĻ
Ġdostrze gÅĤ
ar ek
Ġ owa
Ġau tory
ty czna
Ġwy ra
s ÅĤem
t z
Ġsz am
d no
MoÅ¼e sz
ĠSte f
Ġw ali
en u
ĠÅĽredni o
le kt
Ġczar ny
= =
ce niem
p ek
Ġkor po
Ġg ale
li zm
Ġok rzy
Ġmusi aÅĤem
Ġzadow olony
ĠdÅĤo niÄħ
Ġre Å¼yser
Ġog Ã³ÅĤ
Ġna le
ĠM as
ce ÅĦ
de o
Ġprzyja ciela
l ary
O S
ĠS zy
Ġzabra ÅĤ
Ġza wa
ĠÅ¼e laz
Ġist nienia
ĠmÃ³gÅĤ bym
Ġcieka w
Ġdo kÄħd
ĠP owi
u wa
Ġdziewczy nÄĻ
w na
Ġstud en
Ġdziw nie
Ġstos owania
st ami
Ġkro ku
go rz
Ġtwo jÄħ
Ġkilka dziesiÄħt
4 6
Ġstwier dziÅĤa
Ġfinans owania
Ġkole gÃ³w
Ġbru tal
Ġpo raÅ¼
fe rze
Ġcie le
Ġwi dz
J A
Ġstudi Ã³w
ĠmÄĻÅ¼czyz nÄĻ
go sÅĤa
Ġpyt am
Ġrad oÅĽci
Ġmieszka niu
Ġko ali
su s
Op rÃ³cz
Ġwp atry
ĠM Ã³wi
ÅĽli z
Ġbudyn kÃ³w
Ġhipo te
Å¼ bie
ĠÅĽrod ek
Ġh y
ĠprzestÄĻp stwa
ĠgÅĤÃ³w nego
Ġd anej
Ġprodu kty
Ġwy nikÃ³w
Ġroz waÅ¼
Ġo mawi
ĠF er
Ġpod da
t owy
cz aÅĤy
Ġdzie w
Ġna daje
Ġdocho dÃ³w
Ġu ra
Ġpodob nych
Ġsze dÅĤ
ĠJe rzy
Ġin dziej
Ġwyb rze
Ġdoj ÅĽÄĩ
" ?
liz owaÄĩ
Ġkosz tow
Ġpropa gan
Ġszan sa
Ġop ak
L D
ni Å¼
Ġwra Å¼
nÄħ c
Ġwyso kiej
Ġkontro lÄĻ
Ġobie kt
Ġo glÄħdaÄĩ
ĠdziaÅĤa jÄħ
Ġterytori alnego
ĠsÅĤa bo
3 2
Ġreje stra
Ġspoj rzeÄĩ
Ġzam ku
mi aÅĤem
lan dii
Ġsymbo li
Ġkonsek wencji
Ġzdo ÅĤa
Ġwyda j
po rzÄħd
ĠdziesiÄĻ ciu
S tar
ĠE r
ĠsÄĻdzi Ã³w
Ġtow ar
Ġpolity kÃ³w
Ġu zd
u jemy
Ġkol ana
Ġude rzyÅĤ
Ġmedi Ã³w
Ġsta le
Ġwi cem
ĠwyjaÅĽnie nia
Ġucie c
Ġwie rzÄĻ
ĠbezpoÅĽ re
da cja
Ġwykony wania
Ġszko ÅĤach
ĠTrybun aÅĤu
Ġag re
re i
Ġfil mÃ³w
ĠwÄĻ gla
Ġpo kÅĤadzie
Ġwywo ÅĤ
ĠkÅĤopo ty
ĠW as
Ġlegi sla
Ġwa ha
x a
Ġprodu ktu
Ġw prawdzie
mie cki
ĠsÅĤu chaÄĩ
ĠgÅĤÃ³w nej
Ġry b
Ġskle pie
se ud
Ġto tal
Ġinfor mujÄĻ
4 7
Ko misja
cz ko
Ġor ien
Ġst amtÄħd
Ġpropozy cje
O M
sze p
Ġpoz wal
mi strz
ĠBi bli
Ġn ur
t to
nicz ym
Ġpo dziaÅĤ
Ġrzu ciÅĤa
Ġku m
Ġorgan Ã³w
Ġob ron
Ġwy kaz
ĠuwzglÄĻ dni
Ġwyob raÅ¼
czy sz
Ġprzypad ki
Ġprzy zwycza
ni ono
K ur
ĠWoje wÃ³dz
ĠRze sz
Ġre formy
ĠWÅĤa dy
Ġpa ÅĦ
Ġpunk cie
z Äħ
Ġst Ã³ÅĤ
Ġ7 5
Ġdokona Äĩ
ĠmÅĤod ego
ĠPe ter
Ġzab lo
Ġw or
ĠÅ¼y wi
Ġzmieni ÅĤo
bi na
Ġprze pÅĤy
oÅĽ nie
ĠkoÅĽci Ã³ÅĤ
Ġkolej nÄħ
Ġprzy zwo
owu jÄħc
Ġwol ÄĻ
Ġprzypom niaÅĤ
ĠE mi
Ġmechani zm
st ans
Ġperspekty wy
s el
Ġp akie
Ġprzygot owaÄĩ
Ġprecy zyj
Ġz bie
Ġpodob no
Ġry wali
Ġpow tarz
Ġser cu
G ru
Å¼ on
Ġry su
Ġod szkod
nicz nym
ĠÅ¼y jÄħ
Ġpr Äħd
Ġmas a
ĠpiÅĤ ka
Ġpo ga
ĠprzesÅĤu cha
Ġskute cznie
Ġpo prawi
Ġgi gan
sz cie
re a
ĠWil li
Ġzami an
Ġdom em
ĠWoj sk
Ġpodej ÅĽcie
ĠpaÅĦstw owych
Ġre feren
ĠStan Ã³w
Ġu k
ÅĤu jÄħc
Ġh onor
sz ta
ĠÅĽre dniej
g nÄħÄĩ
Ġn er
Ġwz or
Ġsposob em
Ġkl ient
Ġpowro cie
Ġob aj
Ġsz tyw
sty cznÄħ
Ġko ni
s ona
Ġjak bym
Ġbu dzi
k owaÅĤa
ent em
Ġrem on
Ġnie dÅĤugo
Ġgl ob
Ġminist rze
Ġpo czy
Ġotrzym a
al noÅĽci
Ġtra gi
ĠuÅ¼y wa
Ġzrozumie nia
atu nek
st ii
Ġprze tr
Mie szka
ĠpowtÃ³ rzyÅĤ
ty cznym
te s
Ġpla sti
Ġgra fi
ĠE m
Ġpo ran
ĠbÅĤÄĻ ki
ĠsÅĤu Å¼yÄĩ
Ġu ka
Ġtrafi a
Ġu le
O Åļ
Ġ4 7
ek sy
sk ami
Ġdy nami
ĠZ o
I T
Ġopu ÅĽciÅĤ
Ġm ÄĻÅ¼
Ġkrzy k
ĠÅĤa tw
ĠA ch
ĠOchro ny
Ġwzro ku
ĠBi ura
Ġ ÅĤe
Ġciep ÅĤo
ĠchÅĤo piec
AT O
Ġdu chu
Ġzaku p
Ġemo cjonal
g r
Ġpowinie nem
Ġnapis aÅĤem
ĠprzyjÄĻ ÅĤa
Ġprze raÅ¼a
Ġprawdzi wy
Ġje z
ĠD anie
ĠCh ri
Ġ198 9
ĠrÃ³Å¼ ni
' '
g al
Ġprzed szko
Ġo kien
Ġry ce
Ġodp owiad
Ġzak rÄĻ
Ġzga dza
ĠuwaÅ¼ aÅĤ
Ġwy god
Ġwy bie
Ġmateri aÅĤy
Å¼ onym
Ġz rzu
Ġusta ch
re na
Ġdzien nik
Ġbro niÄĩ
RZ E
Ġuwa g
Ġkryzy s
ĠT ro
sta ch
ĠÅ¼y ÅĤ
ĠwysÅĤa Äĩ
Ġkon to
Ġu ni
Ġra na
Ġod rÃ³Å¼
ÅĽla ch
cze Äĩ
Ġb en
Ġso jusz
Ġnie sko
Ġprze praszam
Ġpolity kÄĻ
Ġinwesty cje
Ġkrzy Å¼
Ġprze mocy
Ġp rÃ³Å¼
Z wy
Ġpolicjan ci
Ġdwudzie stu
s bur
Ġprze kazaÄĩ
Ġkosz tuje
Ġprzy siÄĻ
Ġpotrzeb na
ĠO j
ca jÄħ
u k
ĠzaczÄħ ÅĤem
ze ku
sp er
Ġroz czar
Ġdo puszcz
Ġpowi atu
Ġzgo dÄĻ
ĠD ol
Ġu lega
du m
ĠzdjÄĻ Äĩ
ĠprzedsiÄĻbior stwa
ĠobowiÄħz ki
Ġemo cji
ĠciÄĻÅ¼ kie
ĠnastÄĻpu je
Ġop ro
ĠciÄĻÅ¼ ar
Ġob wo
ĠZa pytanie
Ġprote stu
at ion
Ġkontak tu
ĠTV P
ÅĤ ego
Ġp ens
ĠwspÃ³ÅĤ czu
ca jÄħc
Ġust ro
ĠKraj owej
Ġal ar
zy wa
Ġresz ty
Ġopozy cji
nos ci
Ġprze pro
Ġno tat
wi ÅĤo
ÅĤ ych
ĠV AT
Ġotwar cie
f la
Ġc a
Ġzak on
Ġtwo rzÄħ
h an
Ġpoja zdÃ³w
Czas em
pli wie
Ġza gi
ĠPre zy
Ġutrzym anie
ĠpoglÄħ dy
Ġkwa d
Ġkt ory
Ġwil got
Za czÄĻ
ĠN owym
ÅĽ wiÄĻ
dz onym
Ġregu lacji
s m
Ġe wolu
Ġh od
ĠK ami
waÅ¼ nie
ĠD ar
Ġos ÅĤo
Ġprzyczy ny
Ġstaran nie
ĠprÃ³bu jÄħc
CzÄĻ ÅĽÄĩ
Ġple cach
ĠCzÄĻ sto
Ġminu ty
Ġzare ag
Ġle czenia
ĠmÅĤodzie Å¼
ĠPrze cieÅ¼
Ġspe cyfi
6 5
Ġus prawiedli
ĠP Z
Ġna raz
P ytanie
ĠR ej
Ġstud entÃ³w
Ġz gu
dni m
ĠcaÅĤ oÅĽÄĩ
ĠnajwiÄĻksz ych
Ġdodat kowych
ĠT oru
ĠskoÅĦ czyÅĤ
nios ÅĤy
Ġpol sko
j aÅĤ
ĠmajÄħ tku
l na
Ġzdrowo tnej
Ð ¸
Ġna przÃ³d
ĠJ E
Ġnau czyÄĩ
Ġmie rze
4 9
ĠAu gu
Ġ5 5
Ġprogra mie
ob o
Ġdodat ek
Ġstara ÅĤ
ĠPa w
Ġk le
Ġza sy
Ġkom pro
as cy
Ġzu Å¼y
Ġprzy ÅĤÄħ
Ġrol nictwa
Ġsam emu
Ġsil nik
Ġ199 6
la rz
p aÅĤa
Ġwal ka
si li
ĠkrÃ³ le
liz mu
ĠZ A
Ġmo dy
Ġwyj dzie
ĠsÅĤow em
ĠspoÅĤe cznego
ĠP ut
Ġg ÅĤa
Ġwal kÄĻ
ĠMar cin
tu ÅĤ
Ġprzy puszcz
rz aÅĤo
Mo im
Ġmusi aÅĤy
ĠJÃ³ze f
ĠLondy nie
ra Äĩ
Ġwi o
Ġzosta wiÄĩ
Ġobec nych
Ġka wy
z owie
ie ÅĤ
rza Äĩ
Ġtur niej
go n
Ġpracu jÄħ
Ġkto re
Ġg ad
ĠprzedsiÄĻbior stw
Ġwym o
Ġzamie szka
am es
Prze praszam
Ġmie cz
Ġukry Äĩ
Ġeuropej skich
S e
dni ch
Ġf an
Ġpopraw ka
Å¼ onej
Ġle sie
Å¼ ar
Ġwy glÄħdaÄĩ
Â °
ĠW is
Ġkas ÄĻ
g res
D ro
Ġzau waÅ¼
Ġna rzu
wo daw
Ġmoc niej
Ġdziewczy n
Ġregu ÅĤy
ĠSÄħ du
Dru ga
Ġpodmio tÃ³w
Ġdo pÅĤa
ÅĤa ÅĽ
ta nia
Ġmary nar
Ġpog rÄħ
pro st
Ġchwi le
Ġinterne cie
po le
lar ii
s nÄħÅĤ
rze ni
Ġty lu
Ġe x
il m
Ġ6 5
Ġdu pie
Ġfir mie
js c
ĠwaÅ¼ ny
ĠSam o
b ri
Ġsk an
letnie go
ĠpoÅ¼e gna
M ia
I Äĺ
Ġmie ÅĽci
sa rza
Ġo Å¼y
Ġs ia
ko mo
Ġamb asad
Ġst wa
RÃ³w nieÅ¼
Po t
Ġstar szy
chodzi my
ĠgÅĤu pie
ĠwiÄĻk szego
Ġznalaz ÅĤem
Ġdo maga
Ġdo okoÅĤa
ĠrzÄħd Ã³w
Ġwro ga
Ġu tru
ĠK ry
os ÅĤa
Ġprzyjem noÅĽÄĩ
Ġkul tur
ser w
f ÄĻ
ĠzarzÄħ du
Ġmedy cy
D ob
Ġno gach
cz niej
Ġzami aru
Ġwie dzÄħc
Ġniespo dzie
Ġm ane
ĠNiem cÃ³w
Ġz mo
Ġweek end
t no
cz noÅĽciÄħ
Ġ199 1
Ġpa ch
Ġuwie l
cis nÄħÄĩ
Ġdzie ÅĤa
Ġparlam entar
O k
Ġmusi aÅĤo
prawdopodob niej
Ġgru nt
Ġtry bu
Ġmat kÄĻ
s ar
Ġfun dam
Ġprote st
Czas ami
Ġtowarzy stwie
Ġnie obec
Ġuch wy
Ġtechno logii
ĠpoÅĤo Å¼yÅĤ
Poz osta
a cji
ĠAndrze ja
os kona
ĠwiÄĻksz ym
re tarz
Ġprocedu ry
Ġzamk niÄĻte
Ġf ry
ĠD ro
W ym
chy liÅĤ
ĠAka demii
u jÄħcych
W ciÄħÅ¼
ĠE gi
P rÃ³b
Ġzawar te
/ .
Ġpolicjan tÃ³w
Ġog rÃ³d
Ġs ma
Ġ199 4
Ġroze gra
ĠC ol
Ġstaro Å¼y
Ġstrate gi
Ġzga dzam
por tu
Ġsy gna
Ġpo kazaÅĤ
Ġpubli czne
Ġ Ã
Ġjas na
Ġsamocho dem
Ġpopar cie
Ġobie ktyw
Ġwy kre
Ġmili ony
liw ego
Mo gÄĻ
Ġzde nerw
s ad
Dzi aÅĤa
go ry
B e
Ġkolej nym
Ġreak cji
Ġwyko nu
ÅĦczy cy
Ġtre ÅĽÄĩ
Ġtygod nia
ĠmiÄĻ sa
Ġpro sta
wali Äĩ
Ġuli cach
Ġre la
Ġkla sz
Ġgene raÅĤ
Ġsytua cje
ĠnajwiÄĻk sze
k aÅĤy
Ġwyko rzyst
Ġniesam owi
ĠgÅĤÃ³w ny
kow ska
Ġp lo
Ġprze kracza
ran d
Ġpri ory
Ġka pelu
Ġrestaura cji
bor czej
os a
Ġtym czas
ĠmiesiÄħ ca
ĠzÅĤo ta
Ġs kie
Ġsp on
Ġo kazaÄĩ
li li
7 7
Ġgabine tu
Ġt rzas
ta Å¼
Ġzez wo
ĠoszczÄĻ dnoÅĽci
Ġb aÅĤ
Ġodci nku
Ã³w ka
Ġnapa st
1 00
v el
Ġo limpij
Tro chÄĻ
c ku
k sy
Ġcie ÅĦ
Åļ wiat
pi sz
ĠpoÅĤ owa
Ġopi nie
Ġmaszy ny
ni ny
n ci
Ġnadz oru
ok racji
ĠogÃ³l no
Ġunie moÅ¼li
Ġu pew
Ġwspom nienia
Ġzdecyd owaÅĤ
ĠJor ku
Ġdy stry
Ġko misja
Ġspoj rzenia
ka ja
ĠP amiÄĻ
k cjÄĻ
dopodob nie
Ġgot owa
ne ÅĽ
Ġpo prowa
ĠN r
ĠdruÅ¼y ny
!! !
b as
w ory
Ġwest chnÄħÅĤ
Ġno gÄĻ
Ġuli cÄĻ
Ġna kÅĤad
ĠP or
wali ÅĤ
ter min
Ġzosta wi
Ġgrz bie
Zat rzym
Ġm ego
Ġar cy
Ġprze staÅĤ
Ġzainteres owanie
Ġna praw
Ġkilku nastu
ow na
Ġje ÅĽÄĩ
dzie m
ĠAr mii
Åº li
Ġdziel nicy
Ġkandydat Ã³w
s ort
ĠF in
rzÄħs nÄħÅĤ
ĠÅĽle d
Ġmani pu
dzie Å¼y
Ġrozpat rzenia
Ġzrobi ÅĤo
Ġzaba wy
Ġjedy na
Ġewentu alnie
sa Äĩ
Ġrej onie
ĠK atarzy
niÄĻ tÄħ
Ġludz kie
Ġpre ten
Ġbudow lan
Ġf ach
pi l
w ÅĤad
Wie lu
Ġspo tyka
ĠAn ge
ud i
ĠPR L
Ġpodat ki
ĠB la
Ġmo rze
Ġuch wa
Ġwy w
Ġod dziaÅĤu
Ġinfra struktury
ha bili
raca jÄħc
ĠuÅ¼y waÄĩ
Ġser io
Ġterro ry
z dem
ĠPK P
ew nÄĻtrz
Ġdosta je
pa nie
ĠGdaÅĦ sku
Ġzaczyna jÄħ
Ġpo rÄĻ
Z ostaÅĤ
ym et
Ã³w ek
ĠgÅĤÃ³w nych
Ġdotar ÅĤ
Ġje dzie
ĠJe szcze
S zu
ĠrÃ³wno czeÅĽnie
r ko
ĠusÅĤy szeÄĩ
ĠP la
ĠÅĤa t
ĠSz ym
al noÅĽÄĩ
Ġpo tom
Ro dzi
Wie dziaÅĤ
ĠE n
Ġek stra
Ġokre ÅĽliÄĩ
ol nie
z aÅĤ
il la
Ġza pisy
Ġzoba czyÅĤa
logi czne
Ġkonstytu cji
Ġprze stra
Ġkolej nego
Ġeg zeku
Ġak ty
cz ak
d io
ĠgÅĤu p
Ġd anego
stÄĻpu je
ĠwiÄĻ Åºni
Ġodw rÃ³ciÅĤa
ĠÅĤo dzi
ĠC om
ĠwaÅ¼ na
ĠPrze praszam
Ġwy lÄħd
ĠmiesiÄħ cach
Ġcz ÅĤonek
Ġwnios ko
ĠzÅĤo Å¼yÅĤ
Ġpu ÅĤa
ĠS ko
Ġpor ta
Ġotwo rzyÄĩ
ÅĽci li
ni ch
Ġra cjonal
Ġz nika
Ġw rÄĻ
cj om
âĢ Ĵ
Ġ1 20
7 2
ĠkÄħ tem
ĠzwiÄħz any
Ġpacje nt
no szÄĻ
Ġpodko misji
Ġnormal ne
Ġprzewodni czÄħcego
m owaÄĩ
ĠX D
Ġko ÅĤa
Ġdal sze
ĠOl szty
Ġspodzie waÄĩ
Ġsta bi
Ġzni szcz
Ġw ery
ĠzwiÄħz kÃ³w
Ġkomunika cji
ĠUkrai nie
Ġja po
rud nia
Ġce chy
wa liÅĽmy
Ġre Å¼
Na u
Ġsp rÃ³bu
v in
Ġnie li
Ġwyp ÅĤy
Ġsprzeda Å¼
Ġk ÅĤad
ĠuÅĽmie cha
ga jÄħ
Ġbi uro
Ġisto cie
Ġ199 5
Ġprzed ÅĤo
w ami
Ġzwyczaj nie
Ġosob ie
ĠStan ach
Ġzapropon owaÅĤ
Ġdia gno
Ġnieprzy ja
Ġn owi
Ġra port
ĠwewnÄĻtrz nych
K I
ze s
Ġsi ÅĤa
prawi dÅĤ
Ġoficjal nie
Ġtow arÃ³w
Ġra tow
rem ier
pi n
Ġpodkre ÅĽl
ĠurzÄħ dzeÅĦ
w anego
Ġprze kony
Ġzainteres owania
Ġi ry
Ġwra caÄĩ
Ġtek stu
nie sz
Rz Äħd
pad ÅĤ
N Y
Ġinicjaty wy
Ġzam knÄħÅĤ
si on
ĠniezbÄĻ dne
Ġprzy je
Ġwarun kiem
ty p
Ġsygn aÅĤ
Ġfir mÄĻ
wo j
Ġli ce
Ġza szczy
Ġtwar d
ĠHisz panii
Ġcz Äħ
st oÅĽÄĩ
Ġpotrzeb ny
i ach
Ġwyda Äĩ
Ġpozwo liÅĤ
Ġu cha
Ġsu ch
Ġu ci
Ġpotwier dza
ĠsÄħd Ã³w
Ġna ra
Ġpew noÅĽci
ĠkrÃ³ tki
ĠÅĤÄħ czy
o ro
Ġpropozy cja
Ġprzy kry
Ġwy naj
ce niu
wi ca
w ca
Ġz aÅĤam
Ġk ate
Ġakad emi
Ġokoli cach
Ġle dwo
Ġtwo ich
Ġniemiec kich
Ġuczest nikÃ³w
Ġprzedstawi ÅĤ
ĠciÄħ gÅĤ
ĠprÄĻ dzej
Ġpo bytu
Ġpoprze dniego
K rzy
ĠprzedsiÄĻbior cÃ³w
Ġdotrze Äĩ
Ġsamo lot
ĠpoÅ¼ ar
go dzi
Ġporozumie nia
ĠnastÄĻp ne
bi t
Ġfil my
Ġd ba
Ġpracow nik
ĠC la
Ġhi szpa
Ġna wie
Ġch le
ka nia
Ġwyp owiada
b Ã³
Ġodp rowa
s my
Ġkolej noÅĽci
ĠMi strz
Ġmo zna
re nt
h er
Ga ze
Ġisto ty
Ġwi no
ĠwiÄħ Å¼e
ĠGeor ge
Ġproce sie
Ġs os
Ġsi Ã³d
Ġre kor
Ġz ar
w cÃ³w
Ġpod sum
Ġmedi ach
M ich
Ġm ak
ary j
z z
b lo
ĠÅĽwiad czy
ĠpoczÄħ tkowo
ĠÅĽla d
Ġro ÅĽnie
S tu
Ġzaku py
Ġtermi nie
Ġgrun cie
Ġprof il
entu zja
Ġprzez e
ĠA f
Ġp seud
Ġrze czÄħ
Ġpisze sz
Ġobie ktÃ³w
v ie
Ġre por
Ġogrom ny
rz ono
Ġci o
Ġpoko j
Ġpowszech nie
Ġpis mo
Ġzawod owych
Ġbra ÅĤ
n owaÄĩ
Ġnie daleko
ĠGospodar ki
Ġzgi nÄħÅĤ
ÅĤ ku
Ġkom for
Pole cam
Ġre d
Ġup owaÅ¼
Ġgra nice
ĠspÃ³ÅĤ ek
sk aÅĤ
ĠKon tro
Ġza siÅĤ
le tu
Z nowu
Ġsie dziaÅĤa
ru r
si n
na li
da go
Ġpi wo
Ġzada niem
Ġbi aÅĤy
Ġrozpa cz
Ġzabi ÅĤ
Ġwsp ani
Ġdowo dy
Ġmiejs cem
Ġopu szcz
Ã³ rek
Ġrze kÅĤa
piÄĻ k
Ġba wi
s pe
M Ã³gÅĤ
Ġp ak
ĠciÄħ gnÄħÅĤ
nie cznie
Ġgimna zj
Ġpo rze
Dziewczy na
Ġza zdro
ĠchÄĻ Äĩ
Ġzako ÅĦczy
ĠWszy stko
ĠL as
Ġwi dzieli
nicz nÄħ
spi ra
Ġpo jÄĻcie
9 5
Ġzw rÃ³
ĠsprÃ³b owaÄĩ
Ġprzy cisk
Ġu czyÄĩ
n owie
li by
Ġzna czÄħ
ĠopÅĤa ty
ĠH an
ĠÅĽrodowi sko
Ġroz wa
Ġsk re
Ġzach owy
Ġwyp rost
ĠspeÅĤ nia
ĠpeÅĤ na
Ġmo i
Ġtam tego
Ġopar ciu
Ġgwia zdy
Ġwar gi
ĠnastÄĻp nym
Ġsprawoz dania
Ġp ytaÅĤ
Ġpu deÅĤ
Å¼ onÄħ
M Ã³w
Ġutrzym ania
Ġmo to
Ġwar st
Ġprzyczy nÄħ
Pierw sza
Ġs owie
Ġspa ce
A Å¼
alo g
pa rat
Ġponad to
Ġod bÄĻdzie
Ġh ory
Ġzap rez
Ġzap owiada
ĠszczegÃ³ ÅĤy
Ġprowin cji
ty kÃ³w
Ġbo li
Ġde ka
Ġu daje
gdy ÅĽ
Ġdram aty
S o
Ġspecjal nych
Ġdale ka
Ġi grzy
6 8
ĠpoÅĤÄħ czenie
Ġoz nak
Ġna pra
Ġzap ali
Ġlu k
Ġsty l
Å ľ
Ġpoprzedni ch
Ġinfor maty
ÅĽ niu
ĠK iel
ĠPra wa
Ġsku r
wia nia
Ġsie dzieÄĩ
Ġz bu
CZ Y
Ġre form
Cz ÅĤowiek
Ġbran Å¼y
Ġobec ny
Ġau tora
Ġimi gra
Ġdal szych
ĠH am
ĠsÄĻdzi a
Ġprzepis ami
ĠAd ministra
Ġ vi
Ġprze cie
ĠCh in
Å¼e Äĩ
Ġspotka ÅĦ
ĠHar ry
Ġwyro ku
Ġzare jestr
Ġdia bÅĤa
dar noÅĽci
Ġpis ma
ĠN ad
Ġprzeciw nie
nist Ã³w
Ġnie mu
Ġszlach et
ĠN ATO
ĠkoÅĦ c
ĠLud wi
Ġla s
ĠR ada
Ġsp ry
ĠksiÄħ dz
ĠdostÄĻp ne
dzi liÅĽmy
Roz dziaÅĤ
Ġpa sz
Powie dziaÅĤ
ami Äħ
ĠkaÅ¼d emu
H a
Ġszczy t
Ġto ale
liw ej
Ġpodat ek
u ch
ĠJan usz
n s
ĠFran ci
Ġtrans ak
Ġdziec iÄĻ
u p
Ġtwo rzenia
Ġoce nie
s je
go m
Ġtrze ciej
Ġinteres Ã³w
Ġsce ny
Ġmuzy ka
Ġuzyska nia
ur i
Ġprzy nosi
Ġusta wi
ĠsÅĤu ch
ĠbudÅ¼et owej
Ġto re
Ġne uro
ko nuje
Ġfil mi
waÅ¼ ne
Ġro man
Ġu szy
Ġspecjal ne
Ġartyku ÅĤu
Ġsil ny
Ġnie wÄħtpliwie
Ġp sy
Ġargu menty
Ġpro gu
ĠO bro
Ġtak sÃ³w
ĠE x
wie ni
ĠstaÅĤ e
ĠÅ¼oÅĤ Äħd
Ġci ÅĽnie
Ġdwa j
Ġreprezenta cji
Ġim prez
Sam a
Ġbra ci
ĠJa cek
Ġna ro
Ġnaz waÄĩ
Ġprze p
b rz
Ġprowa dzenie
Ġsamo rzÄħ
Ġsez on
ro i
Ġsprzeciw u
stawie nie
ĠMa c
Ġznajdzie sz
Ġzapom nieÄĩ
Ġroz bud
Ġz ej
Ġre komen
Ġu rzÄħd
Ġpomie szczenia
Ġszko l
Jed nym
pi ÅĤa
H e
Ġkoryta rz
Ġprze pisu
Ġpos pie
ato ra
ĠksiÄħÅ¼ ce
ĠnajbliÅ¼ szych
C aÅĤa
Ġkonsekwen cje
ĠZ ÅĤo
ry s
ĠZ i
ĠKra kowa
ĠpaÅĤa cu
Å¼ nych
Ġkom pozy
str ia
ĠdÅº wi
ĠPio tra
ĠMarszaÅĤ ek
er em
ĠwidziaÅĤ am
Ġprze gry
Po praw
Ġdrew na
leg ÅĤy
ĠÅĽwiÄĻ ta
ĠzÅĤo Å¼yÄĩ
je nie
po lu
niÄĻ to
glÄħ du
Ġemo cje
Ġwizy ty
Ġk s
Ġem is
ĠmÅĤo da
at r
ow skich
bat ÄĻ
Szko da
Ġdo koÅĦ
W obec
ĠC am
Ġko or
le ran
Ġn ud
nicz na
ĠS tro
Ġstra Å¼y
Ġci szy
Ġbiz ne
Ġmat kÄħ
Ġwa lu
i re
Ġrem ont
Ġzmie niÅĤa
Ã³ ra
Ġefek ty
Ġo pa
Ġbior Äħ
Ġwrze ÅĽniu
Ġdal szym
ĠÅ¼ al
Ġlikwi dacji
Ġskorzysta Äĩ
ĠmarszaÅĤ ek
Ġka wÄĻ
ĠcÃ³r kÄĻ
Å¼a Äĩ
ĠMo ra
Ġwyda nia
Ġna i
Å¼ Äħd
ĠporzÄħd ek
ĠBiaÅĤoru si
Ġczas o
mier nie
k owanych
Ġzapo biega
Ġo glÄħd
Ġwi r
Ġprzeciwie ÅĦstwie
t le
ĠU K
Ġprzemy sÅĤu
Ġpraw ne
ĠwpÅĤy wa
Ġpo staw
Ġprag nÄĻ
Ġt ren
Ġci ch
ĠS mo
ĠpeÅĤ nej
. ".
O two
Ġna wiÄħza
ĠÅĽrodowi sk
kÅĤad nie
ĠN owo
Ġb et
ĠporÃ³w ny
Ġtra ci
Ġna du
Niekt Ã³re
powie dzi
Ġspa cer
ĠIn spek
ĠE du
Ġkam er
ĠNi gdy
Ġpowro tu
te le
Ġ owi
ĠÅĽmie sz
Ġopu szcza
Ġregi onu
Ð µ
owi sko
g mu
Ġnaj star
Ġostat nia
Ġwie dza
ĠzÅĤo ÅĽli
ĠA gencji
S P
Ġnie prawidÅĤ
ĠWie sz
t he
Ġw nu
ĠT er
Z atem
Ġoba wy
Ġupraw nieÅĦ
Ġo kazy
Ġsamolo tu
ro ku
d owej
gu jÄħ
** *
Ġspo ty
Chci aÅĤem
Ġprze ÅĽla
Ġczar nych
Ġzrobi ÅĤem
cz kami
nicz o
Ġmy ÅĽlach
ĠokreÅĽle nie
l or
ĠuwzglÄĻ dnia
Ġet c
ĠD O
Ġdwu krotnie
for d
Ġ199 2
Ġwyko pie
Ġpat rzyÅĤa
Ġpopo ÅĤu
ĠksiÄħÅ¼ ka
ĠTe le
Ġsk ÅĤo
re e
Ġza pisu
ĠWojcie ch
to s
c an
Ġszy jÄĻ
Ġczyta nia
ĠzakÅĤad Ã³w
Ġutrzym a
Ġnowe lizacji
Ġsprze ci
res ji
Ġcie n
ĠprÃ³b owaÅĤa
Ġoka Å¼e
7 6
Ġide alnie
Å¼ sze
Ġbi twy
Ġ entuzja
Ġdowie dziaÅĤ
Ġod cho
Ġmini mum
Ġ199 3
Ġkar ÄĻ
d owym
Przypo min
ĠPary Å¼u
Ġpor tu
Ġstos unkowo
ĠkrÃ³t kie
ĠsÅĤu Å¼y
h n
Ġwra Å¼enia
Ġpew ny
Ġsto pieÅĦ
ĠnaleÅ¼ aÅĤa
ĠK os
Ġtere nu
O kazaÅĤo
8 8
ĠM ate
o po
Ġin styn
Ġener gi
Ġk rz
Ġu to
Ġwcze ÅĽnie
le je
h el
Ġwy strze
ĠzwiÄħz ki
p lem
Ġstopni owo
Ġje Å¼d
ty cznÄħ
Ġza gospodar
Ġwy sta
ĠurzÄĻdni kÃ³w
Ġniez ad
Ġpoten cj
dz ali
Powie dz
Ġzm art
Ġmili on
Ġgru dniu
K ier
Ġpro sty
Ġzasa dach
Ġalko hol
t kach
Ġkwest iÄĻ
Ġwy prac
Ġsyl wet
Ġprzeby wa
ĠksztaÅĤ cie
Ġod noÅĽnie
ĠO N
Ġpo ki
ĠÂ «
Ġblo ku
ĠpÅĤa szcz
Å¼ Äħc
Ġce nie
ĠAmery ki
Ġpoja wiajÄħ
k y
Ġpo daÄĩ
ĠG ol
Ġh or
Ġplan Ã³w
Ġostat niÄħ
tu rÄħ
Ġlokal nych
Ġ197 5
Å ¹
ra s
ĠwÅĤaÅĽci woÅĽci
ĠobowiÄħ zy
ĠÅĽnie gu
T wo
M nie
Ġprogra my
ĠN F
Ġocho ty
Ġw szczÄĻ
to li
ty fika
Ġwojsk owych
Ġsil ne
Ġpar tyj
Ġogrom nÄħ
Ġkieru nek
Ġpod Äħ
Ġ18 0
ran sp
Ġnieprzy jem
Ġnie miecki
Ġkie p
Ġkolej na
Ġnau kowych
Ġkierow cÃ³w
Ġwykona nie
d owa
B I
w anej
ĠpiÄĻÄĩ dziesiÄħt
ĠIn di
Ġfunk cje
Ġpas uje
Z nÃ³w
Ġnie kiedy
ow ce
Ġw ku
Ġstwo rzenia
Ġg nia
Ġuko ch
Ġki lko
C aÅĤ
Ġjed ena
Ġw kÅĤad
Ġspotk aÅĤ
Ġpo ÅĤy
! "
Ġprz od
ĠPol skÄħ
niu sz
Ġ194 4
Ġd anym
k aÅĤem
ĠCzÄĻsto ch
Ġregular nie
Ġzam Ã³wi
ĠwiedziaÅĤ am
o rze
Ġzim no
Ġbi ologi
niej szej
Ġpol skÄħ
Ġza byt
Ġprzezna czone
Ġwy st
on d
Chci aÅĤ
Ġucie czki
ĠnajwiÄĻksz ym
n ni
Ġde szczu
ĠT rum
Ġotwo rzyÅĤa
Ġroz ÅĤo
ami a
DZIA Åģ
Ġdow Ã³dz
m ÅĤod
Ġ ego
ĠubiegÅĤ ym
su nÄĻÅĤa
ĠwysiÅĤ ku
ci nie
Ġdaw nych
Ġm el
Ġzarzu ty
Ġpo sze
Ġdzie ÅĤo
Ġpotrafi ÅĤa
Ġskar bu
A nd
rod ku
t owane
Ġt h
ĠrÃ³Å¼ no
Ġzastana wiaÅĤ
Ġprzy jechaÅĤ
Ġu mo
Ġwa rzy
p nÄħÅĤ
Ġgra ÅĤ
Ġasy st
Ġpro por
Ġze staw
? "
ni ane
Ġum arÅĤ
Ġprac Äħ
stan Äħ
Ġodpowiedni ch
Ġcier p
6 4
Ġgene ralnie
Ġd er
ĠpoÅĤÄħ czenia
Ġsz pie
o gle
Ġstra j
t owej
ĠwystÄĻpu jÄħ
S prawa
ĠRej on
Dzie ci
Cz ek
Ġska lÄĻ
g owego
mie rza
Ġnie raz
Ġch leb
Ġdyspozy cji
Ġoce nia
Ġmy li
ĠWrocÅĤa wiu
ĠuÅ¼y Äĩ
po t
Ġfaj nie
Ġsytua cjach
Cz emu
Ġje sli
Ġkon trow
de racji
Ġgnie w
Ġwyda waÄĩ
ĠwnÄĻt rza
ĠkrÃ³t kim
ĠV I
Ãĵ W
Ġstru ktury
Ġzapro jekt
Ġpodstaw owe
z no
Ġmane w
ĠbiaÅĤ ych
dnie nie
laz ÅĤ
Ġsez onu
la jÄħc
ĠKomi tetu
Ġopi nia
Ġkamie ÅĦ
ĠpiÄĻk nie
Ġjas ki
Ġka sz
c le
Ġpo bra
ob by
za pytanie
ĠprzyszÅĤ ym
D ost
ĠweÅº mie
y n
ĠpowyÅ¼ szym
gie j
Ġprzemy ÅĽle
ĠDem okra
Ġpopat rzyÅĤ
ĠÅĽci ÅĽle
R ad
Ġznalaz ÅĤy
Ġd ali
Ġwykona Äĩ
Ġusta liÄĩ
Ġob oz
Ġkore spon
Ġwol ne
Ġwybra ÅĤ
Ġstos unek
Ġdziennika rz
Ġpolity ce
l ow
a cie
Ġfunkcjonariu szy
pat rz
ĠWÅĤa ÅĽnie
Ġczerw cu
Ġsp Ã³j
Ġobraz u
Ġak cja
pi one
Ostat nio
ĠkÄħ pie
czy ka
ĠM aj
Ġna p
ĠKoÅĽci Ã³ÅĤ
Ġjakie kolwiek
ĠpÅĤy ty
d ge
Ġbez pÅĤa
Ġnos a
Ġpod miot
ĠSt owarzy
Ġbi od
Ġkwali fika
Prze de
Ġintere sy
D uÅ¼
ĠjÄĻzy kiem
Ġprywat nych
ĠNa prawdÄĻ
ĠmogÅĤy by
Ġra ny
Ġkap ÅĤ
Ġniebezpie czeÅĦstwo
ĠopÅĤa t
Ġochro nÄĻ
Ġrodzi nÄħ
Ġofice rÃ³w
Ġzna sz
ĠprzyjÄĻ ty
Ġrad oÅĽÄĩ
Jak a
Ġum owa
Ġbrze g
Ġdo tacji
ĠÅĽredni owie
as e
Ġwyso kim
B rak
ÅĽ pie
Ġt kwi
Ġ ~
Ġdrze wo
Ġupraw nienia
Ġna mio
Ġstycz niu
Ġlep szego
Ġp lam
Ġby ÅĽmy
Ġwej ÅĽcie
ĠÅĽ lÄħ
Ġs um
PamiÄĻ tam
ĠkoÅĽ ciel
6 9
Ġstar szych
Ġstar ej
ciÄħg nÄĻÅĤa
Ġodw ro
Ġpro fi
Ġre lacje
ĠwÅĤaÅĽci ciela
Ġpier do
Ġpopro siÅĤ
Ġma ju
owu jÄħ
Ġzau fania
Ġtrady cji
ĠniepeÅĤnospraw nych
gÅĤÄĻ bi
Ġdzien nego
Ġsp rzÄħ
4 2
rowa nia
Ġwie cie
IE R
ĠzaÅĤ Äħ
Ġcu dzo
aÅĤa by
ĠC Ã³Å¼
ĠnaleÅ¼ aÅĤoby
Ġkt os
Ġwyda rzyÅĤo
Ġbi aÅĤo
t owa
Ġu rat
Ġprzeszka dza
Ġe l
Ġka bi
ran s
ow nych
Ġli te
Ġnie na
ni cza
ĠMia sta
4 3
tat Ã³w
Ġzap rowa
Ġprzeciw nika
mo Å¼e
Ġop owiadaÅĤ
Ġmu r
aÅĤa ch
8 5
ÅĦ scy
Ġj Äħd
Ġochro nie
Ġdru ku
Ġminu tach
Ġkrze sÅĤa
sku tek
Ġna zi
Ġkla wi
Ġwzru szyÅĤ
Ã Ń
ĠS ÅĤa
Ġameryka ÅĦski
la j
ĠzwyciÄĻ stwo
ÅĤ ow
Ġrozma i
Ġpod pisa
ĠskoÅĦ czyÄĩ
Ġubra nia
let nia
bie c
Ġstwo rzenie
Ġpro mieni
Ġprzedstawie nie
Wo j
Naj lep
Ġg al
ĠzwiÄĻk szenie
Ġw ad
By li
Ġnapis ane
ĠwÅĽcie kÅĤo
P N
Ġciem ne
J an
Ġe w
Ġobro nie
ĠuwaÅ¼a jÄħ
Ġroz wiÄħz
Ġob jÄħÅĤ
Ġo czym
Ġopi su
Ġsko nt
g g
ta cie
Ġsto jÄħ
d noÅĽÄĩ
Ġle kÃ³w
Ġtam tych
dzi n
ĠN owego
ĠpÅĤy nÄħ
ĠMar ka
ĠgÅĤos owanie
Ġnie rÃ³w
ĠdowÃ³d ca
rze li
Ġpotra kt
ĠusÅĤy szaÅĤa
ciÄħg nÄħÄĩ
Ġpolicj ant
Ġpod ÅĤÄħ
Ġwie cej
Ġzat wier
fi cjal
ĠMinister stwie
Ġzda waÅĤ
Ġnagro dy
4 1
u se
ĠStani sÅĤawa
Na dal
Ġprzy bra
ĠzakoÅĦ czyÅĤ
P rowa
Ġude rza
v al
Ġstre fy
Ġstatu s
Ġpod nosi
or k
p ana
ĠKontro li
ĠS pe
Ġn Ã³g
li t
stru ktu
Ġwych owa
Ġpo dziaÅĤu
Ġzegar ek
Ġrzeczywist oÅĽÄĩ
ĠP om
Ġpo pi
Ġz ÅĤu
Ġprzej ÅĽcia
Ġdzie li
Ġzaj mie
Ġobraz y
rowa nie
ĠPrze my
Ġbo les
Ġpo bo
Ġcharakter u
Ġgat unku
Ġspraw dza
Ã ¤
m owaÅĤ
en ny
6 7
ĠInstytu tu
Ġko szy
Ġi mienia
ĠnajwiÄĻk szy
s jÄĻ
Ġob cych
Ġb ak
Ġzro biÄĻ
Ġodda li
Ġna wi
Ġmi ja
Ġpod cho
j ami
Ġ9 9
ÅĦczy kÃ³w
Ġuzysk aÅĤ
Ġpers one
Szyb ko
Ġstos uje
Ġpracow nika
Ġludz kiej
Ġnie gdyÅĽ
Ġstra ci
nie my
Po stanowi
Cieka we
Ġroz my
Ġmo tyw
Ġpr owo
sk ry
ĠEl Å¼bie
P A
in te
Ġleka rze
Ġwers ja
Przy kÅĤad
ato rzy
Ġwy szep
Ġm ental
v y
ĠleÅ¼ aÅĤa
Ġnie cier
ĠsÅĤy szy
N e
ĠD onal
Spoj rzaÅĤ
ĠmiesiÄħc u
mi ony
Ġod m
Ġf at
Ġrozpo czyna
Ġja b
Ġzbi Ã³r
Ġziemi a
Ġlubi Äħ
Ġza bud
Ġza daÄĩ
sze wski
ch ar
Ġban dy
Ġlat y
Ġgot owy
Ġla pto
ĠÅĤad nie
Po ja
rz onych
Ġfo telu
Ġat om
Ġk wi
Ġodej ÅĽÄĩ
Ġod szedÅĤ
Zda niem
Ġna pisa
Ġkontra kt
Ġwie Å¼y
Ġg li
Ġdy kt
Ġmi sji
ral na
z ne
k ÅĤÄħ
ku jemy
Ġwy rÃ³w
Ġkole ga
Ġpubli cznie
rw aÅĤa
Ġprze kazu
Ġzaba w
ge ra
Ġumy sÅĤu
ĠpasaÅ¼e rÃ³w
O zna
istor ia
Ġpowie dzenia
sk y
p any
Ġmu zeum
Ġzawo du
oÅĤ nie
Ġbezpie cznie
ĠA ni
or g
ĠuwaÅ¼a sz
Ġrol nikÃ³w
ĠjeÅº dziÄĩ
u re
Ch cesz
Ġwice pre
Â ²
t niej
Ġklien ta
Ġzda rzyÅĤo
Ġsie Äĩ
J E
z owaÄĩ
Ġst ÅĤu
Ġmo st
Ġmet ra
ĠsÅĤow ami
Ġstos owaÄĩ
ta le
Ġpostawi Äĩ
rator ium
Ġprze rzu
je go
Ġma gne
ĠS ÅĤowa
Ġpu ste
Ġpodzie m
Ġzde cy
re y
ĠnastÄĻp ny
Ġmar cu
Ġpe do
Ġprowa dzonych
Ġpo ku
wie j
Po m
Ġprzy da
Ġtrw aÅĤa
Ġs ani
ĠksiÄĻ Å¼
den ta
Ġpod wo
Ġna rÃ³d
Ġszko lenia
Ġmogli by
ĠP ew
ĠL ot
Ġpo k
Ġsp is
O gÃ³lnie
ĠN ow
bie j
ru sem
ĠwspÃ³l ne
stÄĻ pie
Ġzosta wiÅĤ
Ġodez waÅĤa
Ġz anu
Ġczerwo ne
Ġu dzieli
si u
ĠskÅĤa dzie
ĠwystÄħpi ÅĤ
Ġs em
Ġkonkuren cji
Ġpodob nego
Ġsena tora
c ane
Ġprywat ne
o ma
ĠprÄĻd koÅĽÄĩ
ĠgÅĤÃ³w nÄħ
ĠmÄĻÅ¼czyz nÄħ
Ġtajem nicy
Ġmistrzost w
ĠdowÃ³d cy
Ġspo dnie
s hi
Ġprzej ÅĽcie
Ġserde cznie
ĠzaÅĤo gi
Ġchor Ã³b
g aÅĤy
Ġz rÃ³w
Ġro cz
Ġgo ÅĽcia
ÅĽli sz
ĠsÅĤuÅ¼ bÄĻ
mi l
ta cjÄħ
Ġtrzyma jÄħc
i c
ĠPolity ki
Ġodz na
dz amy
Ġchwy ciÅĤ
ĠÅĽ pi
Obo k
Ġzapo zna
ĠbÅĤÄĻ dy
ĠÅĽwiÄĻ to
ĠBez pie
ĠP et
gen cja
Ġszko ÅĤa
ĠprÃ³ bÄĻ
rze niami
Ġprze ry
Ġsk Ã³r
wie l
wÃ³ l
Pro du
dzÄħ cej
Ġpo cze
prze strze
Ġod Å¼y
Ġdzieci om
ĠnajwiÄĻksz Äħ
Ġbud owa
Ġapli ka
b ka
ĠzajÄĻ Äĩ
Ġautob u
w on
Ġuczy niÄĩ
Ġt an
Ġpo krzy
dÅº wie
Ġre du
Ġzastanowi Äĩ
ni orÃ³w
Ġni sko
kan Ã³w
ta ni
ĠPos eÅĤ
Ġb atali
Mat ka
ÅĤ ej
Ġbie Å¼Äħ
Ġnast olat
Ġwy czy
B ud
ĠdÅĤu gÄħ
Cz ar
an ty
da niu
Ġwy jÄħÅĤ
Ġgo rz
Ġgar ni
Ġzajm owaÅĤ
Ġnie Åºle
Ġwymi any
b ru
ĠwÅĤaÅĽci wy
Ġko dek
Ġ18 9
Ġimpre zy
Ġchce cie
ĠzeszÅĤ ym
T rzym
ĠTh om
ĠS za
Ġkla s
Ġprzeprowa dziÄĩ
Ġpow iÄĻk
l any
Ġkonkre tne
ĠnajwaÅ¼ niejszych
sti an
Ġf ront
Ġdyskus ja
Ġzb rod
Ġznale zie
dzÄħc Äħ
d aÅĤo
Ġgra na
O T
ĠAdam a
W spo
Ġp rÄħ
w ymi
W Ã³wczas
G e
Ġzamie szki
Ġis lam
Ġod legÅĤoÅĽÄĩ
f al
Ġzaprez ent
Ġtry b
ĠJaro sÅĤaw
w cy
dzÄħc ym
Ġ20 21
Ġze ro
I stnie
ĠmaÅĤÅ¼e ÅĦstwa
Ġma jÄħce
Ġd ur
Ġwypowie dÅº
ĠmoÅ¼e cie
Ġz mysÅĤ
dziesiÄħ tych
Ġagre syw
dz onÄħ
Ġl or
Ġstos unkÃ³w
Z DZIAÅģ
ĠRob er
Ġzapo mina
Ġzwro t
Wiad omo
kow skiej
Ġpod porzÄħd
Ġwp Ã³ÅĤ
Ġsp rzyja
Po dni
Ġmo ty
ĠwÅĤa dza
W ska
Ġli ÅĽci
Ġorgani zm
Â ¿
Ġpozosta li
Ġli czyÅĤa
Ġmode lu
Ġzak ÅĤÃ³
ĠnaleÅ¼ aÅĤ
Ġtri um
ĠprzykÅĤad em
ĠO t
Ġsku tkÃ³w
Poli cj
Ġpro siÄĩ
Ġzanie d
sku te
Ġwst rzÄħ
Ġwiat ru
gi n
Ġobej rzeÄĩ
Ġbi o
ĠposÅĤ owi
Ġw sa
ĠMiÄĻdzy narod
7 9
Ġkupi ÅĤ
Ġpod niosÅĤa
Ġprzech owy
g ÅĤem
Ġjed wa
Ġli der
en y
ĠH al
Ġnor my
ob ro
Ġprofesj onal
ÅĦ sko
Ġsied miu
Ġzaa wans
Ġznaj dowaÅĤa
Ġsy nem
Ġkar ierÄĻ
Ġdostrze c
ĠpoÅĽ rÃ³d
Ġpal cÃ³w
Ġuczu Äĩ
Ġdro bi
st rem
ĠzaÅĤo Å¼y
wa jÄħce
ĠpiÄĻk ny
Ar t
Ġzna jÄħ
rÃ³d mie
Ġoczeki wania
Ġz wiÄĻksz
Ġprzy tom
kt Ã³re
jech aÅĤem
Ġstar ym
ci k
Ġkr wiÄħ
ĠB ÄĻdzie
Ġdem okracji
SÄħ dzÄĻ
O wszem
Ġniemiec kiej
Ġkomp leks
fi kowaÄĩ
Ġprze nik
Ġubezpie czenia
ĠoÅĽ wiat
Ġsze ÅĽci
Ġjednak Å¼e
Wi daÄĩ
Ġzamie rzaÅĤ
daw aÅĤa
Ġwybu chu
Ġpraw nej
ĠÅĽ miaÅĤ
ĠK ate
Ġ4 9
Ġpacje nta
mu r
ĠD ru
ĠKaczy ÅĦski
Ġinstytu cje
ĠkoÅĦ cÃ³w
Ġzep su
Ġnaj niÅ¼
ĠJe Å¼eli
Ġda j
cze n
Ġprzed sta
ist ory
ĠLegi sla
Ġszep nÄħÅĤ
ĠosiÄħg niÄĻcia
man n
Ġru n
Ġczeka jÄħc
Ġzn anych
Da lej
Ġdoj dzie
Ġre a
Ġoj cu
Ġpoja zd
Ġt rzÄĻ
Ġwyso ka
at Äħ
ie ÅĦstwo
Ġwaka cje
Ġci as
Ġorganiza cje
Ġsier Å¼
Ma jÄħ
Ġgenera ÅĤa
Ġz nu
ĠpomyÅĽle Äĩ
Ġsena torÃ³w
Ġdo ra
Ġak u
Ġdach u
R zu
and ii
Ġstanow czo
Ġaktyw noÅĽci
ĠchciaÅĤa bym
Ġz g
Ġroz pro
Ġniewiel kie
Ġodpo czy
ĠR O
Ġsu ge
Ġni szczy
l nÄħ
c tion
Ġwa sze
ĠprÃ³ ba
Ġp li
E K
Ġprze szÅĤa
Ġrozumie Äĩ
Ġwz mac
Ġod gry
Pos eÅĤ
za cjÄħ
Ġfundu szy
Ġwy dÅĤu
wo li
Ġludz kich
Ġpisto let
kie ty
szy ng
ĠplacÃ³w ki
ĠS T
Ġza stÄħpi
Ġs kal
Ġpolity cy
ĠM ÅĤo
Ġryzy ka
Ġpowierzch niÄĻ
ĠÅļ wiata
ĠZ u
ĠbÅĤÄĻ dÃ³w
ĠK as
ĠL w
! ...
Ġkole gi
Ġrze tel
Nie mniej
ĠmiesiÄĻ cznie
sz er
Ġcie pÅĤa
b ane
Ġprzyzna je
Ġminister stwo
Ġsza f
Ġniebezpie czne
ĠA na
Le piej
Ġopo dat
ĠwystÄħ pienia
Ġfor mÄĻ
Ġkto kolwiek
Ġznaj dÄħ
Ġmiej skiej
Ġmi al
Ġprzej ÅĽci
Ġkolej nej
Ġuli ce
Ġrobi ÅĤa
Ġpi szÄħ
Ġdoro sÅĤych
u rÄĻ
ow ami
. âĢĵ
R Ã³Å¼
ĠG er
ĠMaÅĤ gorz
ĠrzÄĻ du
z jÄħ
Ġwyso kich
g owie
ÅĦ cem
Ġmiast em
Ġro gu
Ġtam ten
ĠÅĤe b
Ġod ÅĤo
dz ane
ĠkrawÄĻ dzi
tua cja
Ġotrzym y
ĠS ara
Ġ4 2
ĠpÃ³Åº n
Ġza de
Ġcud em
Ġpotrzeb owaÅĤ
Ġpa lec
ĠsÅĤu sznie
Wyso ki
wa rz
Ġko ÅĤy
Ġgot owe
ĠwyÅ¼ szych
m ak
l le
Ġmoto cy
Ġci aÅĤem
Ġzy sku
Ġru szyÅĤa
ĠokrÄĻ gu
nos c
Ġw pada
Ġsprze daÄĩ
Ġpali wa
Ġde pres
z ÅĤa
Ġczar nÄħ
Ġpoja zdu
Ġza czer
Ġw er
KaÅ¼ da
Ġalterna tyw
Pre zydent
pier da
kÅĤa daÄĩ
Ġz by
ĠmarszaÅĤ ka
Ġkom ent
Ġka li
Ġzna czeniu
Ġna peÅĤ
Ġkon ta
Ġprzym us
Ġograni cza
Ġpozby Äĩ
Ġza ro
Ġdod any
taÅĤ am
jÄĻ ÅĤa
Ġs cenie
Ġodnale ÅºÄĩ
ËĿ .
Ġupad ku
Ð ½
ĠJÃ³ze fa
Ġchci aÅĤo
Ġpar king
l owa
Ġak cje
ĠÅºrÃ³d ÅĤem
Ġsza cu
pa dzie
Ġpi wa
sze li
na cji
8 9
Ġkom na
Ġzabra nie
Ġstos unki
ĠTade usz
i z
Ġty ÅĤ
Ġor gany
Ġ6 00
ĠbÄĻdzie cie
ĠbyÅĤ ego
ÅĽmie r
Ġpart ia
t kÄħ
o ta
Ġtermi nu
Ġw pisu
ĠnarzÄĻ dzi
Ġli nie
ĠÅĽwiad ec
Ġkar iery
Ġszcze pion
Ġodrze kÅĤ
Ġameryka ÅĦskich
bi ÅĤa
Ġtra sy
Ġod dziel
ĠzaÅĤo Å¼yÄĩ
ĠFa cebo
ĠmiÄĻ so
ĠuwaÅ¼ aÄĩ
Ġoch ron
Ġzamk nÄħÄĩ
Ġko ron
Ġna ci
R obi
Ġpora dziÄĩ
Ġziemi Äħ
6 3
Ġegz em
ĠH el
ĠW ewnÄĻtrz
d liwe
szy li
Ġpozba wi
Ġkompeten cji
Ġje ch
Ġskier owaÅĤ
Ġniemiec kiego
dz kiej
ĠbudÅ¼e cie
Ġka wi
Dzie ÅĦ
Ġpro siÅĤ
at orÃ³w
l amy
am ent
Roz po
ĠgÅĤ Äħb
ĠK ana
Ġtrakt owaÄĩ
ĠnastÄĻp nych
Ġminister stwa
ĠpeÅĤno moc
ĠchÅĤop aka
Ġwygra ÅĤ
Ġpapie ru
Z ÅĤo
Ġnau kÄĻ
? )
usz ki
ja Äĩ
Ġra mienia
Ġ, ,
Ġrobi li
o le
Ġwykon ane
M iÄĻdzy
P lan
ĠdziaÅĤ aÅĤ
Ġko per
sz tu
ĠÅĽledz twa
Ġwie czo
ĠKrÃ³ le
ĠSena t
Ġodrobi nÄĻ
b al
Ġ25 0
Ġtam tym
Ġzach or
ĠS kÄħd
Ġdrob ne
H ar
ni onym
Ġna pÅĤy
Ġpozytyw nie
Ġnienawi ÅĽci
g owy
Ġnaj prawdopodobniej
ĠK owal
Ġpla nie
ĠS ek
Ġli cen
Ġwynosi ÅĤa
Ġt k
legÅĤ e
Ġprze niesi
ĠA leÅ¼
wa ni
Ġprawdzi wa
Ġszczy cie
Ġ rÃ³
ĠBydgo szczy
ĠÅģ u
Ġzda waÅĤo
W il
go da
Ost atecznie
Ġstwier dza
Ġkr ymi
Ġ ^
U sÅĤy
Ġpara fii
Ġwoj nÄħ
ĠwiÄħ z
ĠV e
Te Å¼
Ġt rÄħ
Ġwy nikiem
Ġzjawi ska
S oli
Ġ lÄħ
Ġli cznych
sto ku
Ġklasz tor
W it
Ġn et
Ġlo dow
Ġt ÅĤo
Ġmar gi
Ġdost aÅĤem
ĠT ym
lat or
ĠzarzÄħ dzania
Ġje mu
Åģ A
Ġteren Ã³w
ĠmiÄĻ ÅĽni
ĠCh a
Ġle wa
Ġkar nego
Ġzjawi sko
Ġre sort
Ġloka lu
Ġkt or
Ġzadzwo niÅĤ
Ġniezwy kÅĤ
Ġk lo
ĠS zu
Ġt zn
Ġki lo
ĠNI K
ĠI ra
Ġniespo dzi
Ġek ranie
ĠJez us
ĠG or
Ġnatural ne
ĠMyÅĽl ÄĻ
Ġz jad
Ġrezy gna
Ġuch waÅĤ
Gdy bym
Ġf ol
ÅĤ ak
ĠpaÅĦst wie
Ġwi dzÄħ
Ġinter wen
ra caÅĤ
Ġboh ate
ĠskoÅĦ czyÅĤa
ĠzasiÄĻ gu
Ġlip cu
ĠAleksand ra
ĠmiÅĤo s
Ġni Å¼ej
Ġtrzecie go
Ġpis aÅĤem
Ġprzygot owanie
Przy najmniej
Ġgat unkÃ³w
Ġzabezpie czenia
ĠpokrÄĻ ciÅĤ
Ġsta wi
Ġzmienia Äĩ
aty czne
Ġb rzyd
Ġbud owie
O czy
Ġelement em
Ġzaku pu
Ġopi sy
st kÄħ
Ġkon dy
t s
Ġczeka jÄħ
Ġnaz wie
Ġmani fe
C A
ĠuÅ¼y te
Ġwy r
Ġprze kazaÅĤ
Ġspo soby
Ġop owiad
Ġst ÄĻ
o ÅĤem
ĠT ri
czÄħ cej
Ġramiona ch
Ġkla sie
logi cznych
Ġsamocho dzie
7 1
ĠÅĽwiad kÃ³w
Ġm owi
Ġrady kal
Ġw szak
rz aÅĤam
Ġnie ud
ĠwytÅĤuma czyÄĩ
Ġuwa ga
pol skiego
s si
ĠPozna ÅĦ
ĠM amy
Ġapli kacji
p ami
Ġpo sÅĤugi
Äħ cy
Ġcha os
ĠG al
t wÃ³r
szy ÅĤo
5 4
to ni
Ġdy stans
so li
ĠzakoÅĦ czenie
Ġn ow
Ġam u
ci c
ĠAu stra
Ġofer ty
ĠKodek su
Z aÅĤo
c as
Ġcze ÅĽÄĩ
ĠpoÅĤo Å¼ona
Ġprze pu
Ġpozosta Äĩ
ow nictwa
Ġzapew nienia
Ġzapom niaÅĤ
Ġelekt row
Ġu lo
le i
ru n
w anym
ĠpiÅĤ kar
Ġodzy ska
ĠÅĽwiat em
ĠJez usa
Ġow szem
ĠsiÄĻ gnÄħÅĤ
Ġde tek
Ġd w
7 4
ĠAle x
Ġat e
g lu
t owanie
Ġprzy cze
nie ÅĽli
Ġoczym a
l aÅĤa
Przed stawi
ĠM S
Ġzoba czyÅĤem
Ġzap ar
Ġstara jÄħc
ĠbyÅĤy by
ĠLondy nu
Ġme lo
Ġspad ek
Ġpode szÅĤa
wia nie
rem o
Ġsp Ã³Åº
ow skie
Ġprywaty zacji
sz k
Ġod nieÅĽÄĩ
cz oÅĽÄĩ
Ġp t
Ġn on
b ÅĤy
gie ÅĤ
ĠÅĽledz two
Ġwp ÅĤa
za nie
Ġprzedmio tÃ³w
ĠWie lko
trz as
Ġgrani cach
R E
wi na
ĠproÅĽ bÄħ
Naj bardziej
Ġce sar
i Ã³w
st en
Prze chodzimy
Ġby cia
Ġwy staw
Ġpar kin
ĠgÅĤÃ³w ne
Ġnie wÅĤaÅĽci
myÅĽl nie
G ro
Ġtwier dzÄħ
Ġczu jÄħc
Ġemery tury
Wi dzÄĻ
Ġd wÃ³j
tu jÄħc
re kty
ĠoddziaÅĤ Ã³w
ĠduÅ¼e go
k ak
Ġczu ÅĤem
Ġtelef oni
Poli cja
ĠS LD
ĠwyciÄħg nÄħÄĩ
ĠsÅĤuÅ¼ bie
Ġdost aÅĤa
Ġt atu
P K
ĠskÃ³ rze
Ġwyja zd
Ġrewolu cji
ĠmajÄħ tek
Ġde lega
Ġad mi
ĠzobowiÄħ z
Ġzawo ÅĤaÅĤa
Ġwo jsko
Ġfunk cjonu
dz aÅĤo
gra mu
Ġpowie trz
i k
Ġsz la
Ġby la
ĠÅĤat we
g el
ĠÅ¼Äħ da
Ġautomaty cznie
Ġw kro
t nik
Ġod sÅĤo
ĠgaÅĤÄĻ zi
te chni
Ġpoma ra
b Ã³j
Ġzu peÅĤ
Ġfa la
Ġzastana wi
ĠM Ã³j
ĠgÅĤÄĻbo ki
Ġdy sp
ĠpoÅĽredni ctwem
cis nÄĻÅĤa
Ġza su
Ġsekun dy
g owej
ĠwyglÄħda jÄħ
sz o
Ġpot wor
Ġczy sto
ĠS S
Ġwysp y
ga dy
Ġho tel
Ġkryzy su
Ġfundu szu
d owali
Ġwykorzysta nia
su d
Ġpostanowi ÅĤa
5 9
Ġzbro j
Ġprze m
Ġsztu k
Ġnaw zajem
Ġniepo kÃ³j
ĠKon stan
Ġgo tow
M S
Ġma jÄħcych
Ġefek cie
Ġwy zwo
PoczÄħ tkowo
Ġu tk
Ġm Äħ
Ġtram waj
ty n
ĠT wÃ³j
Ñ Ģ
ĠKomis jÄĻ
ĠFran k
ĠÅģuka sz
Ġzacho dzie
Ġpla c
Ġpa liw
Ġopowie ÅĽÄĩ
Ġprze biega
ĠrozwiÄħza Äĩ
Ġwidzi my
cz kolwiek
owi cza
Ġface ta
pro du
ĠokreÅĽle nia
u e
na nia
Ġistnie Äĩ
ĠuÅĽmie chu
Ġd woje
Ġprze wie
Ġwa gi
Ġprzekona nie
Ġnor m
cj o
l owie
ĠW it
ĠRos jan
Ġtro che
ĠDe partam
Ġkosz tem
Ġg atunek
Ġuli c
Ġz ÅĤÄħ
kt ry
Ġme ga
in ga
Ġan alo
z nÄĻ
Ġwysy ÅĤa
ĠPol skich
Ġegzem pla
Ġnie ÅĽ
mina cji
Praw dopodobnie
Ġa z
Przy j
Ġprze Å¼yÄĩ
Ġa li
Ġma leÅĦ
Ī Ĵ
Åģ Äħ
ĠRz Äħd
na nie
ĠBry tyj
Ġzam ek
ĠchÅĤop cy
stawi Äĩ
ĠzÅĤa paÄĩ
Ġkom er
Ġd nie
Ġa Å¼eby
Ġci aÅĤ
ĠkoÅĽ ciele
ĠPowie dz
ĠMu szÄĻ
W E
Ġpoko lenia
Ġzastos owanie
ĠKa rol
ĠLo u
ĠObro ny
Ġra m
Ġprzy sÅĤ
st ia
Ġwypad kÃ³w
Ġzn ana
7 3
sza c
ro czy
Ġza bro
Ġszu kaÅĤ
Ġwy pada
ĠposzczegÃ³l ne
Ġre nt
rz cie
tu m
Ġcze kaÅĤa
s ens
V ID
Ġartyku ÅĤy
Ġg rom
Ġfak tem
leci aÅĤ
Ġgaze ty
Ġkredy tÃ³w
Ġdaw niej
S te
Ġprzyj ÅĽÄĩ
Ġc menta
Ġprofe sora
Ġod bud
ĠJ ane
Ġre habili
5 8
Ġkonfli kt
D i
Ġkoch am
ar stwa
Ġnag rodÄĻ
ĠÅĽnie g
] ,
Ġten den
Ġdop as
Wy glÄħda
Ġwa go
l li
Ġpow rÃ³ciÅĤ
Musi aÅĤ
Ġpow staÅĤy
Ġoku pa
ĠB aÅĤ
ch er
Ġzie lone
Ġmi nÄĻ
Ġbrzu ch
Ġsek tora
Ġo ca
Ġobsz er
i li
ek s
Ġt rz
Ġu wiÄĻ
owaÅĤ eÅĽ
Ġli czÄħc
Ġzasa da
ri c
Ġtrzeci m
Ġpapiero sa
ĠB ÄĻ
Ġto ku
Ġb il
wie c
Ġopu ÅĽciÄĩ
ĠCzer wo
Ġme cze
ĠJ anu
Ġposiada nia
Ġdro gach
ĠwspÃ³ÅĤpra cÄĻ
Ġde partam
Ġznaj dowaÅĤy
ĠÅĤ Ã³dz
ĠÅĽrodowi sku
Ġrozma wia
Ġlo dÃ³w
Ġpotwier dziÅĤ
Å¼e r
ĠwaÅ¼ nych
Ġzastana wiaÄĩ
wan ge
Ġprzy stoj
Ġwszel kÄħ
sty ka
Ġprzy dat
ĠproÅĽ bÄĻ
Rze cz
Ġznajom oÅĽci
as u
i al
ĠmaÅĤ Å¼on
ĠuÅ¼y ciu
Ġkapi tana
Ġu stÄĻp
A b
Pod ej
Ġdziec ku
ĠuÅ¼y tku
Ġfinans owej
Ġograni czenie
Ġkoronawi rusa
wa c
Ġist nienie
Ġh an
Ġnaz wÄħ
Ġprzeczy taÄĩ
Ġzacho dniej
w anÄħ
Ġj ada
Ġzgo dziÄĩ
nik owi
Ġpiw nicy
pa la
ĠpowiÄħ z
Ġzgo dne
Ġpa zno
Ġdocho dy
Ġprze bud
ĠT re
Ġtrafi Äĩ
ĠE k
ĠZy gmu
Ġpole ci
liza cjÄĻ
Ġgor sze
Ġgor Äħco
Ġpo bu
Ġd ÄĻ
C y
t any
ĠokrÄĻ t
Ġsk ru
asa dy
Ġzasko czony
Ġjakich kolwiek
Ġsz or
tu s
Ġa stro
Ġkan ce
Ġwy do
Ġozna czaÅĤo
ze l
dni cy
Ġpowiedz my
Ġu dziel
ĠpomyÅĽl aÅĤem
Ġzam o
Ġswobo dnie
ler ii
Ġsz at
Ġsystem Ã³w
Ġprawdopodob ne
ĠdÅĤugi ch
Nie m
Ġnad ej
Ġlat ar
ĠP ÅĤo
Ġra chu
ĠpaÅºdzier niku
ĠÅļ wie
sz kol
Ġprzyjem noÅĽci
ĠParlam entar
dni o
ĠmajÄħ tk
Ġdystry bu
Ġko lacjÄĻ
Ġofi ara
ne y
pi Äħc
Ġ <
ĠV er
Ġg ieÅĤ
Ġsta jÄħ
jÄħ ÅĤem
Ġwol na
Ġkrze ÅĽle
Ġwyda waÅĤa
h r
Ġprzekona niu
Ġniespo koj
Ġpan cer
ĠPart ii
Ã ª
trze bu
ĠtÅĤuma czyÅĤ
Ġw skutek
Ġod kÄħd
niÄĻ Äĩ
ĠEuropej skiego
U stawa
ologi a
ĠKo mu
ĠuÅ¼ytk ownikÃ³w
ĠDo mi
Ġsz li
Ġde nerw
ĠchÅĤop cÃ³w
Ġz ano
pi ony
' s
ĠUniwersyte cie
WiÄĻ cej
Ġdo szedÅĤ
ĠnarzÄĻ dzia
5 6
ĠÅĽla du
rÃ³Å¼ nic
ĠJa cka
ĠpaÅĦstw owej
Ġwy eli
Ġch ory
Pomi mo
J ez
Ġpry sz
S ku
ow nego
ĠrÃ³Å¼ nicy
ĠstanÄĻ ÅĤa
Ġtru du
Ġwy kro
Ġusta l
Ġi po
ĠopÅĤa ca
W O
pie Å¼
il ly
Ġtwa rze
Ġple c
wa sz
Ġkol ory
un g
i la
Ġsytua cjÄħ
Ġpotrze bÄĻ
? âĢĿ
fer ÄĻ
Ġpad ÅĤ
alo gu
Ġkonkre tnych
Ġsp ortu
Ġpowinie neÅĽ
ĠoÅĽ wiaty
ĠzaleÅ¼ aÅĤo
Ġwa h
Ġodwa gi
ĠWÅĤo ch
ĠSz tu
BÄĻ dÄĻ
Ġdokumen tu
Ġle czenie
ĠK ru
Ġna cjona
Å ĥ
ĠC Z
Å¼ ur
---- ----
Ġtemat em
Ġch y
ĠMar ii
Ġni os
K ra
Ġre ag
Ġsp ory
Ġle ki
Pra wie
robi Äĩ
Ġob da
ĠÅĽwiÄħty ni
Ġide i
Ġwy gÅĤo
Ġwi tami
czy ÅĤam
Ġ4 4
Ġs alo
ĠktÃ³ry ÅĽ
ĠNor we
ĠspÃ³ÅĤ ka
Ġs ÄĻdzie
Ġswo jemu
ĠsÅĤy szeÄĩ
Ġdziewczy nka
Ġobie kty
ĠczÅĤon kow
! âĢĿ
Ġo ÅĽmie
Ġkonkre tnie
Mo Å¼
ĠWilli am
te d
Ġwido czne
at ur
Ġgospodar czych
nicz ki
Ġwej ÅĽciu
ĠNF Z
y j
Ġna pad
Ġludz kiego
Ġba zie
Ġobej mu
Cz ego
Ġo ÅĤ
Ġwska zaÄĩ
C iÄħ
Ġpo czÄĻ
ĠwÅĤaÅĽci we
ĠÅĽmie ch
Ġra j
Ġwol nego
ĠurzÄħ dzenie
sta ÅĦ
Ġwystar czyÅĤo
dÅº my
C IE
ch nÄħÄĩ
Ġzauwa Å¼yÅĤem
ĠprzyjÄĻ ta
ĠÅĤa ska
ĠzwÅĤo ki
ĠPi ÅĤ
Ġpo sy
ĠP A
Ġwar te
Ġnam iÄĻ
Ġlisto padzie
f em
pi tan
Ch wi
szcz aÅĤ
Ġgospodar stwa
Ġb aÅĤa
Ġkilko ma
Ġkwiet niu
Ġpolity k
Ġkonstru kcji
Ġkatastro fy
li cz
z ak
ta sz
Ġudowodni Äĩ
Szcze gÃ³lnie
Ġczy tamy
p cji
Ġe la
Ġme dal
Ġz ra
Ġwnio skiem
Ġkart ÄĻ
ĠzwrÃ³ci ÅĤa
niÄĻ tym
s sa
Ġcy t
Ġkuch en
Ġpo kar
Ġba z
Ġje chaÅĤ
si ÅĤem
Ġj o
pol ski
Ġoce niÄĩ
ĠwÄħt pienia
Ġuzbro j
Ġnaj mÅĤod
Ġuroczy stoÅĽci
Ġpo pÄĻ
ĠBezpie czeÅĦstwa
E k
Ġprze glÄħd
Ġu pro
Ġna kaz
Ġhu mani
Ġbisku p
Ġdysk re
Ġodci nek
Ġzap an
Ġsal onu
Ġszyb kie
M I
ĠKaczy ÅĦskiego
Ġkonie cznie
ĠMa x
Ġkontak ty
ga jÄħc
si s
Ġum Ã³wi
ari usza
Ġi zo
Na z
Ġdzie r
Ġregu l
Ġpogrze b
Ġprawdzi wÄħ
ĠdÅĤugi m
dz kiego
8 3
Ġu moc
ĠSpoÅĤe cznej
Ġpan na
kom p
Ġtowarzy sz
pe u
ĠP ri
Ã³w kÄĻ
Ġk rem
ĠwÅĤaÅĽci wego
Ġprze sÅĤa
cyj nymi
Ġosob owoÅĽci
Ġpara met
Ġk lam
Ġkto ra
kie wicza
Ġcie niu
ba ra
ty na
ĠzajÄĻ ÅĤa
w skich
tar ÅĤ
Ġsubstan cji
Ġwy pi
wa le
Ġokaz aÅĤa
bie gÅĤa
K S
Ġskrzy dÅĤa
Ġbra my
ĠskÃ³ rz
Ġposzuki wania
Ġczar nej
Ġmiesz kaÅĤ
S wo
ĠS im
Ġpoz naÅĤ
Ġpo ro
ĠwiÄĻzie niu
ĠzaÅĤat wiÄĩ
·½ï·½ï ·½ï·½ï
ĠC oÅĽ
ĠÅļ wi
Ġprokura tora
Ġku zy
Ġmar sz
MoÅ¼e my
rzy ÅĤam
ĠuÅ¼y cia
Ġsz l
ĠT O
ĠD ÅĤu
owa la
ĠJe rzego
Ġu kaz
Ġgu zi
Ġspodzie waÅĤ
ĠK ol
Ġpro st
Ġnau ka
Ġobro tu
ĠrozpoczÄĻ ÅĤa
an kÄħ
ĠoÅĽ miu
Wy dawaÅĤo
ĠStra Å¼y
Ġna cisk
Ġkredy tu
d ob
Ġws pina
Ġsierp niu
ge ne
Ġa rab
dzie c
ĠN owy
Rze czywiÅĽcie
Oba j
Ġta b
Ġpo no
Ġbu l
Ġk ÅĤa
Ġdob row
ĠK la
Ġplane ty
Ġk wiaty
Ġobec nym
Ġzawodni kÃ³w
Ġb el
Ġde baty
js ku
Ġsp ÄĻdzi
bo ga
Ġrozma wiaÅĤ
ĠA p
Ġdal szej
Ġprakty ki
czy ni
Ġw nosi
Ġ ary
Ġwska zujÄħ
Ġucie ka
Ġprze waÅ¼nie
ĠG il
ĠD om
tu i
rzu ciÅĤ
Ġobie t
Ġdo by
Ġkoncer t
Ġkompu tera
ĠobowiÄħ zuje
Ġposiada jÄħ
iera r
Ġprokura tura
6 2
ĠrÃ³Å¼ nice
ĠszczegÃ³ÅĤ Ã³w
ĠnastÄħpi ÅĤo
ĠM A
Ġmo ral
Ġwyp rodu
Ġmet ro
ĠKrÃ³ lew
Ġdro gie
ci ÅĤam
Ġzje ÅĽÄĩ
Ġs chem
Ġod cin
u st
Ġsp yta
Ġprzyw rÃ³
sz ku
Ġzdol noÅĽÄĩ
Ġlu tym
oÅĤ Ã³w
Ġlitera tury
B ada
Ġprze ÅĤ
Ġkor pu
Ġresor tu
Ġwy twarza
a c
ĠwyobraÅº ni
Ġpoprze dniej
Ġjez dni
k g
Åº nia
Ġtere ny
Ġnerw owo
Ġpozosta nie
Ġpraw nego
Ġdecy du
Ġpos Äħ
ĠÅĤa godnie
Ġstanowi ÅĤy
Ġniemiec kie
Ġprzy tak
N or
c aÅĤy
Ġpowsta je
6 1
Ġz bÄĻ
ĠÅļwiÄĻ tego
ĠKlu bu
ka toli
Ġzwy kÅĤy
Ġprzyj muje
ĠmaÅĤÅ¼e ÅĦstwo
ĠL an
Ġau ten
Ġpole cenie
ĠmiÄĻdzynarod owych
Ġroz ba
ni czÄħ
Ġstwier dzenie
ĠrÃ³Å¼ nego
Ġprzekona nia
je ni
ĠPa ÅĦstwo
Ġtem acie
Ġener giÄĻ
Ġry by
Ġwyso kÄħ
Ġpas ku
Ġchle ba
gi m
Ġcudzo ziem
bi ut
WÅĤaÅĽci wie
Za uwa
ĠskÃ³ ra
ĠD obra
Ġdo puszcza
Ġcy fr
O ch
Ġk ÅĤÄĻ
dzÄħ ca
Ġodby ÅĤa
Ġsamodziel nie
Ġpow ta
Ġpowo dem
Ġplan uje
Ġpro gno
Ġbutel kÄĻ
Å¼e n
Ġhomoseksu ali
Ġz aÅĤa
ĠA gnie
Ġnatural nie
Ġda waÅĤ
ĠzwiÄĻk sza
Ġpomy sÅĤy
Ġprzy stos
Ġprzy glÄħdaÅĤ
Ġu par
ĠP as
nÄħ wszy
Ġwy wie
S pe
Ġchro niÄĩ
Ġli niÄĻ
ĠzakÅĤa du
Ġeksper tÃ³w
Ġczuje sz
gÅĤ ych
Ġz wa
Ġpod jÄĻcia
Ġjednost ka
ĠzarzÄħ dza
ĠRol nictwa
Ġwo ÅĤa
Ġza dÅĤu
ĠCO VID
ĠpoglÄħd Ã³w
Ġroz d
D wie
Ġpro ponu
Ġklu bie
Ġro kiem
l noÅĽÄĩ
Ġdzisiej szego
ma wiaÅĤ
Ġob rÄĻ
Ġwyda nie
Ġka pli
Ġnieustan nie
ste p
ĠK im
Ġorganiza cja
Ġwiecz or
Ġmu l
Z n
ĠÅĽ ciÄħga
ĠSo li
Ġucz ciw
Ġn ew
prze d
Ġda jÄħc
ĠÅļrod owiska
ĠGda ÅĦska
Pra c
W czoraj
Ġjaki kolwiek
ĠsÅĤa be
Ġin nowa
ĠrozwiÄħza niem
pu je
Ġlubi ÅĤ
Ġwska zujÄħc
Ġ4 3
nios ÅĤo
k lej
ĠMe dy
ĠpiÄĻ trze
ĠwÅĤas noÅĽÄĩ
ĠRo zumiem
Ġosob ami
Ġprze mian
Ġli nia
dÅº cie
Ġru chy
Ġlek ce
Ġmo ne
Ġb lon
ĠdotyczÄħ cej
Ġwyob ra
Ġb re
g et
Ġop tym
cha nie
ĠrÃ³Å¼no rod
ra el
ber na
ĠczÅĤowie ku
Ġoby d
ĠChrystu sa
Ġ |
Ġar mia
w czego
Ġtre ning
te ro
ĠrÃ³wnowa gi
Ġwyj ÅĽcie
Ġmili ona
Ġpod chodzi
Ġhory zon
stawi ÅĤ
D obra
Ġkonkur s
u jÄħcy
Ġka Å¼e
Ġru sza
Ġdym u
en sy
Ġsz nur
Ġgo ry
g owych
Ġw uj
Ġzni szczyÄĩ
Ġpoinform owaÄĩ
li wi
Ġczterdzie ÅĽci
or n
ĠD on
W ÅĤo
Ġsystem em
War sza
Ġrobi my
d owo
Ġa gencji
Ġpopar cia
Ġza cznÄħ
t wÄĻ
ĠwzglÄĻ dÃ³w
ma ra
Ġmary na
pi aÅĤ
Ġpo szÅĤo
Ġod et
Z amie
ĠÅ¼y cz
½ï¿½ï¿½ï¿½ï¿½ï¿½ï¿½ï¿½ï¿ ½ï¿½ï¿½ï¿½ï¿½ï¿½ï¿½ï¿½ï¿
Ġsz o
Ġna bo
Ġg war
Ġuwa dze
Ġpozwala jÄħ
dzie ra
ĠbiaÅĤ ym
Ġprze ciÄħ
biera Äĩ
ĠdoÅĽwiad czeÅĦ
ĠkomÃ³r ki
gro m
Sta ra
ĠokolicznoÅĽci ach
ĠGrzego rz
Ġwy jechaÅĤ
Ġfor um
Ġartyku ÅĤÃ³w
Ġsz we
Ġpas y
Ġdecy duje
ĠPaÅĦstw owej
t owaÅĤa
ĠWa szyng
Ġposzuki waniu
Ġwiary god
P ara
ĠA zji
zn aÅĤa
w czo
Ġzwy cza
Ġ194 1
ĠK ance
Ġt ata
Ġszko ÅĤÄĻ
Ġos ad
an dy
ĠksiÄĻ dza
ĠsÅĤa by
Ġkoryta rzu
Ġstanowi Äĩ
Ġsu mienia
Ġkole dzy
Ġz rÃ³Å¼nic
Ġotrzym aÅĤa
Ġkoncep cji
Ġg ara
Ġparlam entu
Ġwz Ã³r
8 6
Ġpostawi ÅĤ
ĠsÅĤowa ch
Ġa do
Ġob sa
Ġki w
Ġzn amy
Ġzajmu jÄħ
ĠD ra
sz aÅĤy
Ġtu re
Ġtre ner
Ġpostu lat
u jÄħce
ari um
Ġprzeciw dziaÅĤa
Ġni a
Ġli mi
Ġzajm owaÄĩ
ĠspoÅĤecze ÅĦstwie
Ġrezer wy
cz kÃ³w
Ġdo Å¼y
Ġge stem
Ġf ru
Ġgot owi
Ġdziennika rzy
Ġdziw ny
ĠzwiÄħz ana
Ġzatrzym aÅĤa
ĠkawaÅĤ ki
Ġwol nym
Ġre struktury
ĠLe ch
Zw ÅĤaszcza
Ġzak lÄĻ
ĠwpÅĤy wy
sie dli
Ġpolity cznego
ĠM ur
Ġroz pÄĻ
ĠPa ul
Ġbiur ku
pat ry
ĠtÅĤuma czyÄĩ
Ġdo mach
b en
ĠzÅĤa paÅĤ
Wy ob
no nim
ĠZbignie w
Ġrobo ta
ni zm
ĠMa ciej
Ġp ane
atych miast
ow ol
Ġsz cz
Ġnie roz
cu s
Å¼ aÅĤa
Ġz wia
letni ch
Å¼ ach
Ġwyt wÃ³r
Ġpoczu cia
Z ga
Wi do
krÄĻ ciÅĤ
Ġpiecho ty
Ġo ÅĽle
k amy
Ġfa szy
Ġ Äħ
ĠM eksy
Ġ4 1
wa jÄħcy
Ġdzi wa
Ġul gÄħ
Ġpozost aÅĤo
Czy Å¼by
ko nomi
ĠpomÃ³ gÅĤ
Ġscho dÃ³w
Â ±
Ġpie szych
Ġszep nÄĻÅĤa
praw ÄĻ
P ar
Ġze stawie
Ġdzie wiÄħ
Ġkomenta rze
szym y
Ġnajgor sze
Ġwojsk owej
ĠwysÅĤ aÅĤ
Ġrad os
Ġba wiÄĩ
ĠÅĽnia danie
Ġud aÅĤ
Ġludz koÅĽci
ĠzobowiÄħza ÅĦ
Ġrek ru
Ġdziewczy nki
mie j
Ġod gÅĤo
Ġsym pat
T h
Ġprzyby ÅĤ
Ġu grup
Ġoskar Å¼enia
Ġw ami
Ġ; )
P iÄĻ
ĠKatowi cach
bi sku
G A
dz aÅĤy
dni k
v ille
t Ã³r
Ġwywiad u
0 9
and ra
ĠJaku b
ch no
ĠuchodÅº cÃ³w
Ġjezi ora
Ġspo tyk
ĠWiel kiego
Ġodby ÅĤ
Ġprzedmio ty
Ġcz oÅĤa
Ġofiar Äħ
Ġprzeciw nym
Ġak cjÄĻ
Ġo pada
Ġdoj rzaÅĤ
0 1
Ġprawdzi wym
Ġtre nin
Ġszef em
Ġdwo rze
Ġpi on
Ġna t
Ġopie kÄĻ
Ġlo su
ĠÅĽmie chu
Ġwal czy
Ġd rÄĻ
Ġdziad ek
Ġ8 5
Ġsym paty
Ġdziewczy nÄħ
ĠÅĽcian ach
Ġcu kier
Ġszacu nek
ĠB os
Ġz o
Ġ8 00
Ġwy gÅĤa
h ttp
Ġznalezi ono
ga li
Ġpoje chaÄĩ
Ġop tymi
b eth
Ġu raz
Ġob fi
Ġc on
Ġzastana wia
Ġwd ro
ĠSy rii
Ġgodzi na
Mia sto
Ġza du
Ġlep sza
Ġpo czekaÄĩ
cz ami
Ġnie ÅĽwiad
ĠogÅĤo siÅĤ
ĠzakoÅĦ czyÄĩ
ĠwyjaÅĽnie nie
Ġsprze daw
mi ona
Ġ !
grafi i
l s
Ġpe dago
Ġlu du
Z aj
Ġkonfli ktu
Ġce li
Ġdy wi
Ġop oru
Ġroz kazy
ĠRu mu
ĠCh odÅº
ĠksztaÅĤ cenia
ĠR am
Åļ wiad
Ġinterpe lacjÄĻ
ĠJu li
Ġklim aty
Ġmar ket
W spÃ³ÅĤ
Ġgard ÅĤo
Ġu nosi
Ġroz wiÄħzy
K ry
Ġzabie rze
F or
Ġda la
T ÄĻ
Ġnarod owych
Ġinterne tu
ĠwÅĤo sach
i le
ĠDziÄĻ ki
ie s
Wie l
Ġre publi
ery j
Popraw ka
Ġpier ÅĽcie
ĠSzwe cji
Pro kura
forma cji
Praw da
Ġniewiel ki
t ce
Ġkos me
ĠusÅĤy szaÅĤem
Ġabsur dal
U Å¼y
Ġstudi ach
ĠK siÄħ
ÅĦczy k
Ġemery turÄĻ
Ġna my
ĠF ry
Ġh rab
Ġwscho dniej
Ġzap al
ĠJ ames
Ġcy klu
Ġprzyja ciele
Ġpa st
ĠMosk wie
Ġkon fi
t owi
ci l
TA J
Ġg ej
Ġp sÃ³w
Ġmedy cznych
Ġgospodar czego
Ġspad ÅĤ
0 5
Ġki na
Ġodpowie dniej
Ġznak i
ĠczÅĤowie kowi
ĠSz wajcar
ĠF eli
Ġzapew niÅĤ
Ġz rze
Ġu siadÅĤa
Ġzawo dÃ³w
Ġwie rzÄħ
Ġtrze cia
Ġzanie czy
Ġcent ymet
Ġtrwa jÄħ
Ġdoro sÅĤ
ĠÅĤÃ³Å¼ ko
Ġrobo tÄĻ
ka Å¼
ÅĽli ÅĤa
Ġsztu r
Ġwsty d
ĠNa wet
ĠpociÄħ gu
Ġm no
ĠBan ku
c to
Ġwy ÅĤa
Ġinfra struktu
mie sz
Ġbud owaÄĩ
prze z
Ġme dali
Ġodebra Äĩ
Ġnau kowe
i sto
Ġp en
ĠK obie
Ġchoro ba
Sy tuacja
pom or
Ġeta p
Ġcywi lizacji
Ġzi ar
Ġalbu m
Kolej ne
cis kÃ³w
Ġza sÅĤa
Ġap te
Ġproducen tÃ³w
ĠdziesiÄħ tki
Ġtwo rzyÄĩ
Ġfunkcjon uje
om et
y er
Ġtek sty
Ġzwro tu
ĠmyÅĽl aÅĤa
Ġzamierz am
Ġwyeli min
c m
i ma
Ġludzi ach
Ġtrw aÅĤo
wa y
Ġab sol
Ġprzyro dy
ĠdÅĤu ga
Ġtwo rzÄħc
MÃ³w iÄĻ
ĠC as
ĠDo mu
ĠzÅĤo to
S Äħd
Ot wiera
Ġpoz or
Ġodp ÅĤy
E L
ar da
Ġczte ro
Ġreprez entu
Ġpseud o
Ġpodstaw owej
Ġpropa g
Ġdzi wi
A A
Ġtrafi ÅĤa
ĠE wa
Ġwy pra
Ġpowin nam
co nego
ĠrzÄħd owej
Ġu daÄĩ
Gene ralnie
Ġna wy
Ġw ul
Ġrealiz owane
Ġfundu sz
l g
Ġza skaku
C iÄĻ
Ġucie kaÄĩ
od ÅĤa
Ġnad mier
Na sze
le tÃ³w
Ġpod wÃ³r
c ro
to nie
Ġchi rur
R ok
ĠP al
Ġnadu Å¼y
aÅĤ by
Ġprzy niÃ³sÅĤ
ĠogÃ³l nej
Ġmo bi
Ġkrze sÅĤo
iel d
Ġau dy
ste in
fi ni
Ġprzygot owany
ĠPS L
ĠubiegÅĤ ego
czy ÅĦski
Ġs ol
sz amy
ÅĤ Ã³d
an n
mi ar
M O
Ġkosz mar
Ġnieko niecznie
Ġ( âĢŀ
Ġsprawoz danie
Ġkolan ach
Ġlo j
ĠsamorzÄħd Ã³w
len da
sz ard
Ġpodkre ÅĽliÅĤ
Ġwyob raÅ¼a
Ġreje stru
czÄħ cÄħ
ĠEdu kacji
Ġzawart oÅĽÄĩ
os c
Ġzauf anie
Ġk oru
Ġo si
Ġpochy liÅĤ
Ġf ali
ĠpÅĤa cÄħ
ĠciÄĻÅ¼ ki
Ġprzy na
Ġspo ra
Ġzaspo ko
ow nym
Ġubra nie
ĠrzÄħ dy
Ġpo szli
ko la
Ġp amiÄħ
Ġlo tu
ĠwÅĤaÅĽci cieli
b lu
Ġsm aku
Ġmo tywa
Ġpod o
Ġrze czywi
Ġzoba czymy
Ġzasad ÄĻ
pad ÅĤa
Ġkos mos
Ġpo bi
Ġodpowiedzi alny
Ġa parat
ĠM ak
Ġmo rzu
rozu miaÅĤ
ĠsÅĤucha wkÄĻ
Ġro n
Ġepi dem
ta Å¼u
N owe
Ġce bu
Ġna wo
ĠGa br
kar pa
ĠBiaÅĤ ym
po koj
ĠC el
Ġsta wki
Ġra nnych
ĠW spÃ³l
Ġza ist
P oru
Ġc men
ĠzgÅĤa sza
ĠsÄĻdzie go
le na
Ġmater ii
Ġlice um
Ġpo ster
Ġnau k
ĠJapo nii
ĠD el
ĠsÄħ dzi
Ġkra jem
let niej
wat or
Ġreferen dum
Ġpu st
Ġbudyn ki
Ġhod ow
Ġfa bu
8 7
N owy
ĠC al
Ġum rzeÄĩ
ĠK R
Ġp ud
Ġsil nie
Naj wy
b nie
aty cznie
Ġ >
ĠbiaÅĤ Äħ
Ġzach owuje
Ġra da
ĠnieszczÄĻ ÅĽli
ĠdÅĤugo ÅĽÄĩ
j om
war unk
Ġminist rem
Ġop er
Ġc ar
sp a
ka rze
e nie
ĠÄĩwi czenia
Ġcie szyÄĩ
Przypomin am
sz onym
Ġusta wodaw
ĠBi uro
? ...
Ġskra ju
Ġry tu
d ru
ty zm
Ġprze mÃ³w
Ġpod rÄĻcz
Ġadres em
Ġura towaÄĩ
Ġjakie s
ra ny
Ġkrzy knÄĻÅĤa
si k
Ġmo z
Ð ²
as em
Ġotwar ty
Ġsz um
d lu
ta ÅĦ
W prowa
Ġsiedzi bÄħ
Ġseria lu
Ġszuka jÄħc
Ġodw rotnie
ca nie
Ġni skie
Ġpowo dzi
ĠB li
W Y
Ġsil nika
Ġja w
Ġpro m
ran t
Ġwest ch
wa ga
Ġw pu
ĠC za
ĠzaÅĤo Å¼yÅĤ
Ġbada nie
ĠCh cÄĻ
Ã³ ry
Ġpo ez
Ġskry ptu
Ġpotrzebu jÄħ
ĠW or
ran u
Ġban kÃ³w
ĠJak ie
Ġnadzie je
Ġnaz waÅĤ
ĠwyÅ¼ szy
Ġusu nÄħÄĩ
Ġrzu ciÄĩ
ĠpiÄĻtna ÅĽcie
Ġs h
ĠsÄħ dzie
Ġkilka set
Ġtem pie
Ġszczy tu
Ġinstyn kt
ch ÅĤa
Ġwspom niaÅĤ
Ġoto czenia
ĠF lo
Ġf ascy
Ġfak tÃ³w
O L
D rzwi
ĠmiaÅĤa by
Ġprze czu
ĠPlat formy
Ġfor te
E S
Pew nego
Ġwytrzym aÅĤ
Z er
Ġotrzym aÄĩ
Ġprzy jeÅ¼dÅ¼a
Ġda waÄĩ
M aÅĤo
Ġzain stal
Ġzwy kÅĤe
Ġwymaga jÄħ
mi Äħ
Ã³ dÅĤ
Ġgo ÅĽcie
cy k
Ġci chu
Ġwers jÄĻ
Ġprawdzi wego
ni aÅĤem
p ce
ĠKrÃ³ l
Pra wo
Ġczyn nikÃ³w
akcep towaÅĤ
Z ad
Ġhistor ie
Ġwybra ny
Po lity
ĠmÄĻ Å¼em
Ġnaj em
Ġu miaÅĤ
Ġeksplo ata
ch ÅĤo
tw or
Ġg um
ma nie
ĠW ÅĤad
os y
Ġuj rzaÅĤ
k owali
ĠP hi
Ġprac owaÅĤa
Å»ad en
kra j
ĠJ im
Ġh ierar
Ġkoszu lÄĻ
Ġin spi
ĠkapitaÅĤ u
liwoÅĽci Äħ
siÄĻ bior
Ã³r ym
ni or
Ġspraw ami
. -
Ġre wi
Ġban ki
kro Äĩ
Ġi dÄĻ
Ġusta lenia
dz ka
Ġklu bÃ³w
Ġpi szÄĻ
Ġce sarz
Ġmi nÄħ
ĠA s
Ġzabra kÅĤo
ĠgÅĤos owaÄĩ
Ġsku tku
ÅĽ wiat
ja ÅĽni
Ġcho lery
rzy sz
Ġtransp or
da c
Ġh eÅĤ
en o
Ġwyraz iÄĩ
fika cja
Ġrozwo j
ĠT AK
da jÄħc
Ġbo le
Ġbi urze
ĠT rÃ³j
Ġsz anow
Ġsze s
ĠzakoÅĦ czenia
Ġpodmio ty
aÅĤo s
yt am
ni sz
Ġstra ciÅĤa
Ġlu Åº
la cjÄħ
ĠKonstytu cyjnego
Ġgwaran cji
Ġpo jechaÅĤ
Ġwal czyÅĤ
ja nie
Ġra ka
co nej
ĠÅĤazie nki
Ġresz tÄħ
ĠplacÃ³w ek
Ġargu mentÃ³w
Ġwcho dzÄħ
ĠWe st
Ġew aku
Na sz
ĠlÄĻ k
ĠwaÅ¼ nÄħ
cj oni
Ġobie ktu
Ġg wi
ĠwiÄĻÅºni Ã³w
Ġmo imi
ze sa
lew ski
ĠnajbliÅ¼ szym
Ġop Ã³r
li cy
ma cji
Ġstwa rza
sz ane
Ġpo prawy
Ġmle ka
Ġtra sie
ĠzgÅĤo siÄĩ
Ġdo trzym
Ġf lo
Ġna je
ch wy
ĠkÅĤopo tÃ³w
Ġtechno logi
Ġpo stÄĻpu
Au tor
k ÅĤem
Ġpla Å¼y
g owi
Ġkoryta rza
ĠpeÅĤ niÅĤ
ĠsÄħsiad Ã³w
g ana
nia rz
Ġdy rekty
Ġgimnazj um
Ġprze pra
Ġszero kie
sze wi
ĠsÄħ dy
Ġobli czu
Ġzawod owej
Ġ9 5
Ġbab ci
! )
dy nek
le cie
Ġdow ci
Ġzak ry
g ÅĤu
Ġzamy ka
Ġpapie Å¼a
Ġra nd
Ġkobie cie
Ġmar i
ĠJa c
Ġskont ak
Ġsk ro
Ġ198 0
Ġk el
Ġpo dzieli
ĠszczÄĻÅĽli wy
Ġwoje nnych
Ġtra w
ok Ã³ÅĤ
Ġtowarzy stwa
8 2
ĠstanÄħ Äĩ
ĠgÅĤo du
s kÃ³w
ru jÄħ
Ġdokon aÅĤ
ĠPiÅĤ sud
Ġh omo
Ġpole cenia
Ġsz czÄħ
Ġwy szli
ĠE li
Ġkorzysta nia
De cy
Ġspowo duje
GB T
Ġge st
Ġzau waÅ¼a
Ġpo sz
Ġscen ariusz
no ta
Ġt v
Ġmas ÄĻ
Ġk w
Ġjakiej kolwiek
Ġbi let
Ġwyd aÅĤa
Ġprzy ci
S za
Ġko ta
ï ¿
Ġpapie Å¼
Ġstra ciÄĩ
Ġsekre tarz
ania le
Ġodpad Ã³w
ĠPew nie
M il
ĠK ro
Ġwie ÅĽci
ĠAmery ce
Ġlotni ska
Ġobo zie
Ġpowie dzieli
ĠFe sti
da cjÄĻ
Ġch em
Ġwe dle
ĠpÅĤy t
ĠY ork
Musi sz
ĠM od
Ġwy prawy
Ġmeto d
Ġstud ent
Ġle wic
Ġt ch
ni onÄħ
zi Äĩ
Ġudzie lenie
Ġstwo rzyÅĤ
Kolej ny
Ġru szyÄĩ
ĠZak ÅĤa
Ġosz oÅĤo
Ġucie kÅĤ
ĠzwyciÄĻ stwa
Ġsi le
Ġ194 3
Ġod na
ĠsÄħd em
ĠnapiÄĻ cia
Ġpo szkod
Ġtrze Åº
Ġrol nych
pi sie
ĠzwiÄĻk szenia
al bo
Ġkom or
ĠS ier
Ġw aliz
ĠmiÄĻdzynarod owej
Ġwy spie
Ġprze bra
Ġciem noÅĽÄĩ
bu s
Ġpowo dy
Ġpopu lacji
Ġb Ã³j
w kÄħ
ĠXV I
Ġprywat nÄħ
ĠM I
Ġpowie sz
Ġnauczy ciela
Ġna stawi
b ata
ĠG ali
Ġprzy to
ro dziej
Ġkomp lek
Ġlicz bie
Ġbez na
ĠDzie ÅĦ
Ġinter wencji
Ġkraj obraz
Ġtytu ÅĤem
Ġwar knÄħÅĤ
Ġcuk ru
ĠrÃ³Å¼ nymi
ĠrozeÅĽ miaÅĤ
Ġwro gÃ³w
Ġjednozna cznie
Pro ponujÄĻ
C a
Ġno cÄħ
ĠpowaÅ¼ ny
Ġdek lara
Ġt ka
Ġle ni
Ġpubli kacji
Ġu stanowi
Ġwyraz em
Ġpotrzebu jÄĻ
Ġa s
Ġzgi nÄĻÅĤo
Ġgwia z
em a
Ġmat ce
Ġkoor dyna
Ġserwi s
le sty
Ġtempera tury
Ġwy ry
ĠS PS
Ġroz p
Ġc al
ĠM O
D aj
Ġszko dy
tu j
dzi c
Ġpraco dawcy
Ġwych owania
Ġprez enta
Ġpr ymi
Ġto p
Ġporta lu
ËĿ ,
c amy
Ġdek lar
ĠB ob
Ġkontak tÃ³w
Ġg lu
Ġcz ci
Ġobec nego
ĠpiÄĻ ÅĽci
ĠskÅĤad ki
Ġta niej
Ġkom e
i ÅĤo
Ġisto tnie
Ġorgani zmu
8 4
Ġkorzy ÅĽÄĩ
p ane
Ġniepod legÅĤoÅĽci
Ġrozpo czÄħÄĩ
ĠO li
Ġob cy
ĠB re
ĠmÅĤo de
Ġsz ach
Ġkocha nie
Ġkol oru
ou tu
Ġmuzy kÄĻ
Ġwska zu
Ġpromo cji
Ġod daÅĤ
Ġczy ste
lo ga
dar noÅĽÄĩ
Pi S
Ġpow ol
ĠPÃ³ÅĤnoc nej
bi i
Ġku li
ĠD an
Ġprzypomin aÅĤ
5 2
ÅĤ amy
Ġsposob Ã³w
a rze
ĠkÅĤopo t
Ġsamolo tÃ³w
ĠM in
r owaÄĩ
ĠSe ba
Ġpo kaza
Ġop at
ta s
ĠÅĽwiat eÅĤ
ĠK an
lat ek
Ġinternet owej
Ġwy jeÅ¼dÅ¼a
Ġprzypomin am
Ġfesti walu
ĠOr gani
Ġwar sz
Ġucze l
Ġjest es
m on
i se
Ġnaj d
Ġpoinform owaÅĤa
Ġturniej u
Ġniepraw da
Ġbo jÄĻ
Ġwy sko
Ġk wat
ĠprÃ³ cz
Ġwymaga nia
zi ono
Ġocze kuje
Ġtraktu je
Ġtere nach
Ġpraw ny
PamiÄĻ taj
ri an
ĠsÄħ dzisz
ĠprÃ³b owali
Ġjak Å¼e
Ġpan uje
ro ÅĽci
t owana
ĠS ÅĤy
kak rotnie
ĠoÅĽwiad czenie
Ġgdyby ÅĽ
oskona le
P eÅĤ
Ġwy two
Ġw le
pu lar
ĠPozna nia
E l
nÄĻ liÅĽmy
Ġczar nym
Ġop cji
Ġja cy
ja zdu
Ġz gra
Ġfrag menty
Ġa lu
ar ia
: ).
Ġza dzi
ĠÂ »
z ki
ro zo
ĠAfry ki
ĠXV III
ĠWy dziaÅĤu
Ġu sy
Ġogrom na
Ġuczy niÅĤ
Ġdyp lo
Ġwi deo
Ġsztu ka
rod Äħ
Ġakty wi
ĠbyÅĤ eÅĽ
Ġmi strza
owie rza
Ġmie sza
ĠpÃ³ÅĤ tora
Ġro la
D zwo
Ã³w ce
Ġodp owiadaÅĤ
5 7
ĠP ru
Ġok ry
ĠokrÄĻ tÃ³w
ĠmiÄĻ ÅĽnie
Ġwynagro dzeÅĦ
Ġprzywi lej
Ġatmos fery
Ġob rzy
ĠÅ¼e bra
Ġla dy
Ġfa zie
Ġsku piÄĩ
ĠsÅĤy szaÅĤa
ĠnastÄĻpu jÄħcych
ĠD ie
ba cz
Ġprzedstawi ciela
Ġzapro test
Ġpozba wienia
h en
ĠMicha el
Ġk war
Ġrej on
ĠObywatel skiej
Ġwsp Ã³
ĠzÅĤ ym
Ġprzeprowa dzenia
ĠbÅĤo gosÅĤa
stra cji
Ġcie szÄĻ
Ġnau czania
ob Äħ
Ġzabyt kÃ³w
ĠwÅĤaÅĽcicie lem
Ġzawod owe
z asad
DZ IE
Ġ er
Ġnarod owego
Ġce remo
Ġo dzie
Ġni ski
Ġsz ÅĤa
Ġra nka
Ġo tu
Ġk lej
C Y
Ġobserw owaÅĤ
Ġwyda jÄħ
ĠZwiÄħz ek
ĠtoÅ¼sam oÅĽci
ÅĽle nie
ĠRad omi
aÅĤy by
Ġwielo ma
Ġi w
ĠZach Ã³d
Ġw zy
Ġfunkcjon owanie
Ġrapor tu
I sto
ĠO k
ĠksiÄĻÅ¼y c
bi ony
Ġbet on
Ġdo ÅĤu
Ġce sarza
ĠT E
Ġmiej skich
ĠrÄĻka wi
Ġnie jedno
Ġok ra
c onÄħ
Ĺ ı
ĠspÄĻ dziÅĤ
rzy stÃ³w
Za p
la jÄħ
ĠktÃ³rego ÅĽ
Ġstoli ku
Ġobsz arÃ³w
szy ÅĤy
ĠA ra
Ġry t
ĠrozporzÄħ dzenie
Ġk res
Ġnormal ny
ĠBo g
RZ Y
ĠP s
Ġbezpie czne
li nÄĻ
ĠurzÄĻdni cy
ĠDo ro
Ġsp al
Po zwo
Ġodpowiada Äĩ
Ġpowi ada
Ã³b r
Ġosie dla
u u
ost at
Raz em
ĠpiÄĻ cio
ï¿ ½
rowa li
Ġprzebie gu
Ġwi arÄĻ
K oÅĽci
lu jÄħ
Do ty
Ġszero kim
Ġmi nÄĻÅĤo
ĠzÅĤo dzie
Ġodpowiedni m
ĠHenry k
Ġ qu
Ġprze li
ĠnapiÄĻ cie
x y
Ġprzy stÄħpi
Ġpi Äĩ
ĠcÃ³r kÄħ
ĠFi li
Ġz jedno
Ġwest chnÄĻÅĤa
Ġprezydent em
Ġsie dzieli
v is
Å»y cie
Ġzaje bi
ĠT aj
wier cie
ĠB rze
ĠrÃ³w ni
Ġpo ciÄħga
Poz ostaÅĤ
Ġjaki s
Ġod no
ĠDa wi
Ġpoch ÅĤo
Ġopowie dzieÄĩ
ĠA B
ĠWi ktor
Ġwych y
ĠprÄĻdkoÅĽci Äħ
Chci aÅĤabym
ĠKazi mierz
Ġkonkur su
Ġmundu r
Ġskon cent
; .
Ġkraj owej
Ġry s
Ġstrasz ne
ko bie
Ġpolity cznÄħ
Ġspod ob
By ÅĤam
Ġpod sÅĤu
ĠStre et
ĠdotyczÄħ cy
ĠdÅĤugie j
Ġra ty
Ġproto ko
ĠÅĽla dÃ³w
ry n
Ġpiosen ki
Ġodby ÅĤo
y s
ĠÅĽwie Å¼e
Ġprze staÅĤa
Ġtrw aÅĤy
ĠczÄĻsto t
Ġroz pow
Ġg r
mi aÅĤy
ĠJ os
Ġpokazu jÄħ
Na pis
Ġsani tar
in ter
5 1
Ġwy sa
Ġprzy t
Ġkart kÄĻ
Ġnieko rzyst
ĠsÅĤu chaÅĤ
Ġwspom nienie
Ġzda ÅĦ
g nu
Ġwypo Å¼y
Ġod cie
Ġra p
O de
Ġtwier dziÅĤ
Ġc aÅĤo
Ġkad ry
Ġzaka zu
Bi or
os ci
Ġ195 4
ĠsamorzÄħ dy
Ġro m
Ġzap ytaÅĤem
ĠTowarzy stwa
ĠW ale
Ġzapowie dzi
Ġpra cach
Ġwy wia
Ġok nie
na sto
Ġstrate gii
Ġbiur ka
Ġtechni czne
Ġwy rzÄħ
Ġdu sz
Ġodpowie dniego
ĠWÅĤo szech
Ġmistrzost wach
ĠNa dz
ku jÄħcych
Ġra si
Kobie ty
Ġobsz aru
Ġog niem
Mam a
Ġnasz ymi
Ġwej ÅĽciem
Ġtechni ki
Ġpo dzieliÄĩ
Ġprze niÃ³sÅĤ
Ġnieo czeki
pol skim
Ġwe szli
199 8
Ġwy godnie
ĠSp Ã³ÅĤ
ca nia
Ġkar ku
ĠprzestÄĻp stw
ow emu
................ ................
Ġsce nÄĻ
s l
ju szu
d owanie
Ġwidz Ã³w
Z ie
ĠCh or
pÅĤy w
Ġpodpis aÅĤ
Ġs ar
tu jemy
Ġwymie niÄĩ
strze m
Jaki ÅĽ
D om
i de
Ġprzepis ach
Ġpod p
Ġresz tki
ĠS ha
Ġrozu miaÅĤ
Ġna biera
dni Äħ
nic twem
Ġstanowi sk
Ġsz kÅĤa
ĠchÄĻ ci
Ġmniej sza
Ġwlas nie
Ġfilozo fii
Ġodrzu cenie
Ġmro ku
ĠT im
In ne
Ġupo rzÄħd
c ymi
Ġposiada nie
F ir
Ġod ku
Ġod not
bie go
el le
Ġ194 0
Ġmas e
ĠPan owie
Ġpopra wiÄĩ
Ġco dzie
Ġzacho du
Ġim pul
j aÅĤy
ĠÅĤad ne
Ġpodob nym
Ġbru tto
ĠON Z
Ġwy dziaÅĤu
ĠwziÄĻ li
Ġbo gÃ³w
du jemy
ĠgÅĤ owami
Ġtrzym aÅĤa
Ġko niu
Ġszac unkiem
ĠW ska
ĠpaÅĦstw owe
wa jÄħcych
Ġka lenda
Ġdotar ÅĤa
ĠdÅĤuÅ¼ szy
Ġuzn aÅĤa
ĠB art
T warz
Zapew ne
ÅĤ gar
en ne
Ġbrz mieniu
ĠpoczÄħ tk
Ġpro ro
Ġkieru je
ty lko
z ek
Ġwal k
sto kra
Ġzarobi Äĩ
Ġabor cji
Ġwido cznie
Ġdzisiej szych
Ġnied ob
szaÅĤ ek
ĠPo mo
Ġopu ÅĽci
Ġza szcze
ĠwaÅ¼ niejsze
ĠpoÅ¼ Äħd
ĠzÅĤo dziej
d rze
5 3
Ġto teÅ¼
Ġotwo rzyÅĤy
Ġa w
Ġprzewa gÄĻ
ĠA g
Ġprzyzn aÅĤa
N atychmiast
Ġkup owaÄĩ
ĠbÅĤyskawi cznie
ĠWrocÅĤa w
ĠAleksand er
Ġkur cz
Ġstat kÃ³w
Ġsystem y
Ġzarzu t
Ġkwad rat
ĠnieprawidÅĤ owoÅĽci
Ġratu n
Zu peÅĤnie
Ġk ciu
Ġwscho dzie
czni ki
ĠzÄĻ bÃ³w
Ġodby Äĩ
sek retarz
Prze ciw
Ġw u
Ġspad ÅĤa
Ġpodob na
Ġdosta li
Å¼y wszy
Ġprzy szÅĤy
ĠczÅĤon ka
Å¼a jÄħ
Ġdo zna
BÄĻdzie my
Ġczaso pis
j am
Ġbrz mienie
b any
Ġprawi c
Ġrezer w
ĠPK B
St ary
Ġg le
ĠO p
ĠwÄĻ gl
Ġproducen ta
Nie wie
Ġszyb ki
Ġs ate
Ġwol Äħ
ĠpodÅĤo gi
Ġfizy cznych
Ġwyna laz
G u
Ġprzy sz
wiÄħ zuje
ĠwyglÄħd aÅĤy
ĠKom or
Ġpier ÅĽ
ĠN owej
Ġskaz any
Ġwio ski
Ġkonsul tacji
Ġgrup Äħ
Ġgospodar ce
Ġwy zy
Ġzapo trzeb
Ġobserwa cji
Ġzrobi sz
Ġprzy wie
ĠV al
Ġli ter
Ġprzyja cielem
Ġdefi cy
go dy
Ġbom b
Ġ5 9
ĠzmÄĻ czony
Ġuro dziÅĤ
n owo
bor cza
ĠJo anna
A ch
Ġzasob Ã³w
RO ZDZIAÅģ
wo od
Naj waÅ¼
Ġi ro
I naczej
Ġp ÅĤÃ³
li ca
Ġdzieci ÅĦstwa
P owiem
ul t
ĠwpÅĤyw Ã³w
Ġodpowiedni Äħ
Ġgospodar stw
ĠskÅĤad ek
Ġgor sza
ĠpamiÄĻ taÅĤ
c on
ĠpostÄĻp owaÅĦ
Mi rki
le st
Ġprzy pu
h tm
ĠEuropej ska
Ġpo lo
len der
Ġspecjali stÃ³w
ĠT or
ĠpÅĤa szczy
Ġod ro
Ġznik nÄĻÅĤa
Ġsp ÅĤo
Ġniewi dzi
ĠJa giel
8 1
ĠÅĽwieÅ¼ o
Ġzw racam
Ġh it
Ġartyku le
ĠPrze z
MÃ³wi ÅĤ
Ġpojawi ÅĤo
Ġde ter
bi aÅĤ
K U
Ġkilku dziesiÄĻciu
W I
man Ã³w
ĠPoÅĤudni owej
Ġsy nÃ³w
Ġorganiza cjÄĻ
Ġodzy skaÄĩ
Ġlabo ratorium
Ġeksp res
Ã³z ÅĤ
Ġzn aÅĤa
ĠD aj
Â ľ
ver si
A S
cu jÄĻ
ra cja
y e
t owego
Ġwi d
ĠWy Å¼
Ġwy jechaÄĩ
Ġpodej muje
ĠmÅĤod ym
Ġod pu
K at
czas ie
Ġjedno li
Ġja z
ÅĤowie ka
Ġor bi
Ġzarzu tÃ³w
cz ba
Ġprogra mi
ĠI N
Ġwie cznie
BÄĻ dÄħ
Ġwyko ÅĦ
Ġwyko nuje
S taÅĤ
Ġu biega
Ġf er
Ġry ba
Ġkopal ni
lo p
niÄĻ tej
Ġuczni owie
Ġpowo ÅĤy
Ġfar ma
ta jem
Ġmart wi
Ġzapad ÅĤa
Ġpo b
Ġzda rzeÅĦ
sz emu
ĠSzcze cinie
Ġb ene
ĠzgÅĤo siÅĤ
ĠMosk wy
Ġse sji
Ġt i
ĠW z
Ġameryka ÅĦskiej
Ġpat ro
Ġs onda
Ġwo do
kazu jÄħ
gÅĤo ÅĽci
ĠK ie
Ġnatural ny
Ġdo ce
g t
ĠK am
Z decyd
Ġsta bil
ĠC ra
Do kÅĤadnie
W raz
Ġto leran
Pod kre
Ġar che
ĠR od
Ġczerw ony
Ġfilozo fi
Ġli gi
Ġpo pÅĤy
Ġpozost aÅĤa
w nych
. âĢĿ
ĠW ene
Ġnaprzeciw ko
Ġparkin gu
Ġmogli byÅĽmy
Ġzanie poko
Ġwybor cÃ³w
u f
bo m
Ġnied owierza
on dy
Ġoku lary
Ġna gry
Ġiz by
Ġdu szÄĻ
ĠjeÅº dzi
Sy stem
Ġzastana wiam
Ġt kan
Ġust ami
ĠRosja nie
Ġzapew nienie
grani cznych
Ġsklep Ã³w
Ġbla sku
Ġwyko naÅĤ
Ġstra t
ĠL GBT
ĠRepubli ki
Ġprzy ku
Ġwszel ki
Ġz nieÅĽÄĩ
Ġdzisiej szym
Ġu niosÅĤa
Ġpo got
ĠDu da
Ġpodstaw ÄĻ
k nÄħÅĤem
F ilm
Ġpo ci
Ġpo gor
Ġdziew czÄĻ
Ġnie woli
Ġnad gar
ĠprzyszÅĤ ego
ĠS ar
cho Äĩ
Ġzrozu miaÅĤa
Ġwspo maga
Ġd lu
Ġna krÄĻ
ĠdÅºwiÄĻ ki
Ġ198 1
Ġpocho dzÄħ
Ġro du
oÅĽ wiad
ĠPo lo
sk aki
Ġewi dent
x i
Ġuni wers
Wie dziaÅĤa
Ġpozwoli ÅĤa
n ob
kow ymi
ĠJ ose
Ġzatrzym y
t is
Ġrosyj skiej
ĠÅĽre dnia
n kÄĻ
ĠzÅĤo ty
Ġzebra Äĩ
0 8
Ġtera pii
Ġzaw dziÄĻ
rÃ³ci ÅĤem
Ġgard ÅĤa
Ġna ÅĽla
Ġe stety
Ġkonty nen
ĠpÃ³ÅĤnoc nej
le ÅĽ
Fak t
w kach
Z nam
nÄħ ce
ĠskoÅĦczy ÅĤo
oÅĽ cie
Ġto czy
ĠKi j
Ġniezad owo
Ġbab cia
ĠokreÅĽl ony
Ġde ko
Ġsu kien
ĠpeÅĤ nego
ĠzÅĤo Å¼one
r d
Ġbez dom
ri ck
ĠSy l
Ġe ty
Ġsukce su
Ġwy gla
T wier
ĠÅĽwiad kiem
Ġta be
Ġwp atru
Ġd any
sze l
Ġoby czaj
Äħ t
Ġpie prz
Ġpatri oty
Ġpolity czny
Czu ÅĤ
Ġzad r
P is
an su
Ġmog liÅĽmy
Ġ5 1
Ġrzu t
Ni by
ĠwojewÃ³dz tw
Ġbi aÅĤa
ĠuÅ¼ytk owania
Ġok ÅĤad
Ġpro mie
Ġprodu cent
DÅĤu go
ĠsÅĤu Å¼yÅĤ
Ġf ale
Ġza cie
Ġznaj omy
Ġwyj ÅĽciu
Ġfizy cznej
pi ÅĤem
Ġzach owaÅĦ
H i
Ġno siÅĤ
Ġpubli ka
li ÅĤem
Ġprze kra
Ġm g
Ġzastos owania
Ġpoko naÄĩ
Å¼a jÄħc
0 3
Ġdie ce
czni ku
ĠzasiÄĻ g
Ġwy ci
Ġ5 2
Ġfinans owego
ĠbiaÅĤ ego
Ġsp Ã³
o ÅĤy
Ġpas ie
Ġczy taÅĤ
si ak
Ġkon wen
Ġby najmniej
ĠWyso kiej
Ġpodstaw Äħ
Ġ194 2
Podob no
ĠkrÃ³t kÄħ
ĠF ar
em o
cze st
Ġzy ski
ĠWi to
K or
ĠTu sk
ĠD Äħb
Ġre cen
Ġprymi tyw
ĠPol skie
Ġrobot nikÃ³w
v ia
Ġter mina
Ozna cza
Ġzag waran
Ġepo ki
o ka
ĠdÅĤo niach
Ġkamie ni
Ġ198 8
ĠRzym u
Ġkraj owych
ĠznaczÄħ co
Ġaby ÅĽmy
Ġkolo rze
or gani
0 7
Ġod se
Ġpro ponujÄĻ
Ġkwiat Ã³w
Ġok nem
Ġrozwija Äĩ
ĠO wszem
Ġprowa dziÅĤa
Ġfunk cjonal
Ġpoprzedni o
Ġpow staÅĤo
Ġlek ki
Ġl ÅĽni
Ġmi nÄħÅĤ
Ġ19 20
ĠkrÄĻ gu
Ġpod aÅĤa
ĠobrÄĻ bie
' .
ĠrÃ³w ne
Ġta len
Ġspokoj ny
d Äħc
Ġutrzym uje
Ġminist rowi
ad ek
ĠpowyÅ¼ sze
P Ã³ÅĤ
ĠurzÄĻ dÃ³w
Ġgabine cie
Ġkamie nia
ĠdziesiÄĻ cio
Ġrodzi cami
ĠpoÅĤudni owo
Ġko d
bie Å¼
Ġkas a
Ġprze nieÅĽÄĩ
Ġd amy
Ġstos owane
Ġpomie szczeniu
C on
Ġpod niesi
Ġno Å¼em
ĠRz Äħ
ara ch
Ġuzna nia
Ġwprowa dziÅĤ
Ġpro bo
Jas ne
wi ÅĤy
ĠH and
Ġdosko n
Ġinteli gencji
Ġdefini cji
z nÄħ
ĠP ortu
Ġak tÃ³w
Ġa bym
Ġpias ku
Ġzagad nienia
Ch ce
Ġsz oku
ci ar
ĠtÅĤu szcz
je ÅĽli
mi th
Ġdaw nej
Ġzawa h
Ġprzych y
li ÅĦski
Ġniem ow
Ġsta cjon
Ġw aÅĤ
Ġ %
nic ki
Ġemi gra
ĠpoÅĽ rodku
W nios
Ġo czywist
Ġzami l
Ġpomaga Äĩ
ni aka
Ġog rze
Ġrosyj skich
ĠS trze
Ġlat em
Ġkonser w
Ġniej as
powie dziaÅĤ
r owo
Ġpogo dziÄĩ
ĠpostÄĻp owaniu
C ar
Ġpod no
gi ch
an k
Ġlub el
Ġnad cho
Ġs ak
ĠprzeszÅĤo ÅĽÄĩ
Ġkupu je
r owej
Ġodw raca
Ġd rabi
Z amy
sta li
Ġrodzi nnych
kura t
ĠZ as
Wy glÄħd
Ġpisa nia
Ġode gra
Ġob raÅ¼a
Ġprzyna leÅ¼
Ġspotk aÅĤem
ĠgÅĤos owaniu
Ġwywo ÅĤy
Ġw ste
ĠKonstytu cji
Ġpot rwa
Minister stwo
ĠPary Å¼a
Ġhar mo
ĠK el
Ġwykony waÄĩ
Ġpotrafi sz
Ġbli ska
Ġjad Äħ
ĠzdÄħ Å¼yÅĤa
ek lar
Ġeg zy
ca li
Ġra nki
ĠAt lan
Ġkier owaÅĤ
Ġbi twie
Ġwz rasta
z my
Ġinte gra
W prawdzie
ru jÄħc
Ġodrzu ciÅĤ
Ġprze mÃ³wi
ĠbieÅ¼ Äħco
ĠIz bie
Ġlek cji
ĠMich aÅĤa
ĠmiaÅĤ bym
ĠwaÅ¼ nym
KrÃ³ l
Ġkan aÅĤ
Ġwymi ar
ce u
e y
le d
ĠpÅĤa tnoÅĽci
ĠÅĽcieÅ¼ ki
ĠzobowiÄħza nia
ĠbÅĤy sz
j rzaÅĤ
ĠIzra ela
ĠBo le
ĠE ner
Zoba cz
Å» E
Ġob ÅĤo
ga ra
Ġra kiet
ĠspoÅĤe cznym
Ġchmu ry
K siÄĻ
Ġfa cto
lo giÄĻ
Ġrad oÅĽciÄħ
ĠC H
it h
Ġwy gry
Ġwymie nionych
Ġobywat ele
r ka
Ġu szu
Ġzapowie dziaÅĤ
Ġdar m
Ġbohater Ã³w
ĠzwykÅĤ ych
ĠJ er
ral nÄħ
r im
wana ÅĽcie
ĠwewnÄĻtrz ne
ist rz
Ġpu szcza
Ġzako ch
Ġtrzydzie stu
Ġp su
Ġwymi aru
ĠAn ny
Ġmaksym alnie
Ġwo la
Ġwierz ch
praw dy
cz ane
P io
rzym ie
Ġd aty
Ġroz pad
ry k
Ġprze le
ĠK ara
ĠzÅĤo ÅĽÄĩ
ĠAu str
Ġ198 2
Ġwz boga
ĠskÅĤa du
Ġra s
Ġza szko
ĠAr chi
ĠH y
Ġwspomin aÅĤ
cho m
Ġza bieg
zi ÅĤ
w ak
Ġi za
ĠTwo ja
we sty
Cz ym
Ġczar nego
waran tan
Ġnet to
ĠN atu
res s
Ġu kazaÅĤ
Ġpar tyz
Ġszpita li
ĠRober ta
Ġbezna dziej
Ġchor Äħ
Ġczar na
ĠB iel
Ġop art
ĠmyÅĽle nie
Ġmo stu
Ġu szcze
Ġkompro mi
Ġh ur
ĠT K
e u
Ġsp ier
G ÅĤo
Ġpan demii
w um
ĠkrÃ³l owej
Ġnacze l
Dzie n
t owali
ĠwspÃ³l nej
Ġzdzi wiÅĤ
ĠAdministra cji
Ġtwo rzenie
Ġmil czenie
Ġowo c
Ġtygod niach
Ġpart nera
Ġniespodzie wanie
Ġpor no
Ġproblem aty
Ġbutel ki
wa cji
Ġp ru
Ġblo ka
niÄĻ tego
se li
n kÃ³w
Ġro dza
Ġfi liÅ¼
Ġwy wal
In forma
Ġzawart ych
ĠwyjaÅĽni ÅĤa
Ġpra gnÄħÅĤ
Ġkomu nal
Ġdy Å¼ur
ĠÅ¼ aÅĤos
ĠzÅĤo te
Ġdal szego
ĠpoÅĤudni owej
Ã³r ka
Ġwprowa dzono
ĠN ar
l ana
Ġodz wiercie
Ġtrage dii
Ġklim at
ÅĤ owo
Ġzim na
ĠM SZ
ĠniechÄĻ tnie
ce t
ĠJ ÄĻ
ĠP G
Ġpisa rz
Ġod naj
ĠLe on
Ġd no
Ġstanowi ÅĤa
A na
Ġopro gram
Ġpo czyna
ĠBer linie
ĠHit lera
DuÅ¼ o
Ġroz ciÄħg
Ġtury stÃ³w
Ġher baty
ĠDa vid
ot h
Ġzrobi Äħ
Ġbu tÃ³w
ĠwÅĤaÅĽci wym
Ġszere gu
p p
Ġspecjal nego
ĠtysiÄħ ca
sz onej
Ġob raca
Spoj rzaÅĤa
Ġo mÃ³wi
Na leÅ¼
ĠWewnÄĻtrz nych
z ÅĤo
Ġkur su
Ġnie dÅºwie
Ġd raÅ¼
ÅĽ niÄħ
Ġzdr owy
ĠM el
Ġameryka ÅĦskiego
ĠÅĤo k
Kolej na
C aÅĤe
ĠpÅĤu c
Ġul gi
Ġob Ã³z
un t
Ġd ymi
Ġum rze
Ġolbrzym ie
Ġzamach u
Ġstaty styki
rz tu
Ġrezul tacie
Ġznaj dowaÅĤo
ÅĤ kÄĻ
ĠFundu sz
Ġkandydat a
U M
Ġste re
Ġmili tar
Ġmoc ne
Ġwy rze
ĠnajwyÅ¼ szej
Ġta ra
Ġzw rac
Ġprzygot owane
Ġw staÅĤa
Ġgospo dy
t rud
Ġza pu
ĠwyjaÅĽnie ÅĦ
Ġz ry
mu jemy
Ġpoch wy
Pro gram
Ġpomara ÅĦcz
Ġwej dzie
Ġzna d
Ġcieka wy
Ġbez b
Ġ owego
ĠIz ba
T er
Ġfizy cznie
Ġsalo nie
Ġ196 8
Ġstanowi ÅĤo
Ġw bi
ĠP en
ok re
ĠZa wsze
Ġost ry
ĠKaro la
Ġog ÅĤa
ber ta
ĠC zu
Ġz rÄĻ
Niem cy
Ġno mina
Ġzamieszka nia
sz al
Ġproce sÃ³w
wali fik
Ġkom en
Ġnapis aÅĤa
ĠpÃ³ÅĤnoc no
ĠS port
Ġutru dni
ĠRoz dziaÅĤ
Ġotrzym ali
Ġmil czaÅĤ
Ġod ruch
Ġkar dyn
puszcza Äĩ
Ġdofinans owanie
Ġab stra
ba rzy
Ġba gaÅ¼
ak ty
Ġpoli czek
Ġprysz nic
ĠnastÄĻp nej
0 6
ter ii
an ne
Am eryka
Ġoce na
Ġstaty sty
tuje sz
ĠP aÅĤa
ĠT at
ĠszczegÃ³ÅĤ owo
n ty
Ġnies peÅĤ
Ġprzy ciÄħga
ĠspoÅĤe cznÄħ
cze niami
Ġpraw nym
Ġwa gÄĻ
ĠSkar b
Ġdysku towaÄĩ
Ġwynik aÅĤo
Ġdyplom aty
Ġuzd rowi
t ta
Ġby cie
k ano
Ġprzedstawie nia
Ġ' '
Ġpre sti
Ġ rza
lat ka
Ġspraw dzi
sk aÅĤa
ĠspÃ³ÅĤdziel ni
ĠusiÅĤ owaÅĤ
ĠwÄĻ gier
Ġwsta Äĩ
Ġwa sza
Ġprzesta Äĩ
Ġsub tel
Ġkam ery
Ġ5 4
Ġuspo kaja
Ġprzeciw ny
Ġdo rob
Ġ {
at orem
ÅĦst wu
cyj noÅĽci
t oÅĽci
ĠzakoÅĦ czona
à ¹
Ġprzek lÄĻ
pie niem
Ġopowie dziaÅĤ
Ġpozytyw ne
Ġd Ã³br
Ġs lu
ĠdotyczÄħ cÄħ
ologi czne
Ġkon f
Ġbla sk
c tor
gu e
Ġtem po
cie lu
ĠsÄħsie dz
ma sz
Ġkar mi
ĠÅ¼ Äħd
ĠMusi my
Ġzadzwo niÄĩ
Ġw Ã³j
wi do
ĠwewnÄĻtrz nej
Â ®
Ġczyta nie
let niÄħ
Â §
t ent
, ,
owi ce
ĠSprawie dliwoÅĽÄĩ
ĠniÅ¼ sze
ĠO ÅĽrod
ort h
Ġpi sem
kow skim
b owiem
Ġkoszu li
Ġta ÅĽ
W zi
Ġpunkt em
gie go
Ġprzy bli
Ġobie caÅĤ
ĠProkura tura
Ġoce niÅĤ
Ob ej
Ġte stÃ³w
A L
Ġumie m
ĠwzgÃ³ rza
Ġmar szu
Mi aÅĤam
ĠwtrÄħ ciÅĤ
ĠU rzÄħd
N p
at ki
Ġszero ki
Ġne ut
Ġob jaw
ch en
Ġpole ciÅĤ
Ġpart ie
ro ÅĽÄĩ
ĠS il
n owy
ĠS os
ĠStro n
Ġbo daj
Ġsce na
Ġwa sz
Ġude rzenia
Ġary stokra
0 4
ĠRe gu
si ÅĤo
Ro zumie
go sÅĤu
r ing
Ġzachodni ch
ĠL os
Ġbra cia
Ġza by
Ġrami on
ĠK t
Ġprzy trzym
Ġod niÃ³sÅĤ
Ġa czkolwiek
ni ÅĤam
Ġreak cja
wie niu
h h
Ġprzyja Åº
Ð »
ĠzwyciÄĻ z
ĠzakoÅĦ czyÅĤa
Ġarcy bisku
f re
Ġza chodzi
ĠÅĽwiÄĻ tego
ĠsiÃ³d m
Ġporu szaÄĩ
Ġkamie nie
ĠleÅ¼ aÅĤy
Ġroz dziel
Ostat ni
Ġmniej szy
Ġnie mi
ĠdÅĤuÅ¼ szÄħ
Ġtechni cznych
nia jÄħce
Szanow ni
Po pat
Ġa war
Ġpsycho logi
Ġo cie
Ġzost aÅĤem
Ġpo nosi
Ġprzy kÅĤady
Ma jÄħc
Ġrze komo
ĠprzedsiÄĻbior cy
Ġag ent
Ġost re
Ġ5 6
ĠRzym ie
Ġl ak
Sze f
ĠZa rzÄħdu
Ġge ografi
Ġsz wa
DDDD DDDD
Ġroz lu
Ġfoto gra
Ġra dzi
Ġmi ÅĤy
ĠKatarzy na
Ġmart wiÄĩ
ĠBar to
ĠJ ul
Ġnadzie jÄħ
ĠRze szy
ĠJas ne
ĠB razy
Ġgru ntÃ³w
Ġzap le
st kie
Ġprze sÄħ
ĠL y
ĠD un
Ġzaszczy t
Ġgospodar cze
ĠÅĽmie szne
Ġzawo dach
Ġ owych
Ġptak Ã³w
sz onego
Ġpriory te
Ġte atru
Ġ19 18
ro t
pro cent
Wi dziaÅĤem
0 2
Ġkonkre tnego
Ġtrud niej
Ġz maga
Ġopie kÄħ
Ġh al
Ġzak ÅĤopo
ĠS co
Ġko lacji
Pra gnÄĻ
k sa
Ġwol nych
Ġza stÄħpiÄĩ
ĠÅļ wiÄħ
Ġod ciÄĻ
Ġba ra
ĠGdy ni
Ġ6 4
Ġobywat e
Ġzatrzym ali
Ġochro na
Ġinsta lacji
ĠK al
Ġofer tÄĻ
Ġostrze ga
ĠK y
ĠChi nach
bie rze
Ġpomy sÅĤu
ĠpÅĤa c
uro pej
Ġtra f
g owe
ch ron
Ġsyn te
Ġ197 3
Ġprzedstawi one
Ġczu ÅĤam
Ġsko ment
Ġczerw onym
Ġinterpre tacji
ĠkrÄĻ ci
at ek
Ġobec ne
czni kiem
Ġau stria
ĠokrÄĻ tu
E fek
Ġpat rzÄĻ
ĠM aÅĤo
Ġamu ni
T em
Ġkoronawi rusem
Ġpod jÄĻcie
Ġproblem ami
jÄĻ zy
Ġniewie lu
u x
Ġid Äħc
Ġpoko n
ĠJ ad
Ġwo d
ĠS ol
Ġmi aÅĤoby
da p
Ġjedno raz
âĢĿ ?
Ñ ģ
Ġangiel skiego
ĠdÅºwiÄĻ ku
Ġznie chÄĻ
Ġspo glÄħdajÄħc
ĠÅĽrod kami
Ġuda waÄĩ
nios ÅĤem
Ġin wa
Ġniebie skie
Ġsku pia
Ġtram wa
htm l
S ki
Ġstar Äħ
Ġintere sie
Ġna rasta
Ġtr waÄĩ
j ga
Ġpo tu
ĠmyÅĽl aÅĤam
n noÅĽci
ak tyw
piÄħ ÅĤ
Ġt rum
ĠbiaÅĤ ej
Ġfo tel
ĠA K
Te le
ĠprÄħ du
ow nÄħ
ĠF red
Ġzao fer
se s
ĠzakÅĤa dy
ty tuÅĤ
ja cy
ĠTrybun aÅĤ
ĠzwykÅĤ ym
ĠP lan
ĠT es
Pa ÅĦstwo
ĠS k
N r
Ġwyraz iÅĤ
Ġod waÅ¼
Ġzwol nienia
Da w
Ġkon cie
ĠprÃ³b owaÄĩ
Ġma jÄħcy
cyj no
ĠEu ge
Ġle tni
Ġrek lamy
Ġnauczy ciele
Ġroz waÅ¼a
st re
Ġsport owych
Ġdz won
ĠpodziÄĻ kowaÄĩ
rzy j
M or
Ġzary s
j ona
Ġod two
Ġstanowi ÅĤ
ĠnastÄħpi Äĩ
ĠProkura tury
Ġprzyj rzeÄĩ
Ġkto rzy
Ġmniej szych
Ġi r
wit terze
ĠmÅĤod oÅĽci
Ġznalaz ÅĤo
I V
ĠwspaniaÅĤ e
Ġwynika jÄħce
Ġ owe
Ġ7 00
ĠpiÅĤ karz
ĠC an
Ġpozy cje
Å¼Äħ ce
Ġangiel ski
ĠnastÄħpi ÅĤ
T om
Ġu przy
Ġznajdzie my
g ow
Ġkon tu
Ġjako by
Ġcho dziÅĤ
Ġcz lowie
sz Äħcych
gÅĤo ÅĽnie
ĠokrÄħ gÅĤ
Ġrachu nek
ĠprzyjaciÃ³ÅĤ mi
Ġbra kiem
Â ¹
Ġzbud owaÄĩ
Ġruszy li
Ġo m
f fi
b et
Ġla da
ĠroÅĽli ny
U ro
Ġni kim
Ġwicem i
Ġoznajmi ÅĤa
ĠzasÅĤu guje
Ġotrzym uje
Ġrosyj skiego
Ġdopu ÅĽciÄĩ
F unk
Ġbra tem
ĠRom an
Ġza wÃ³d
Ġzamk nÄĻÅĤa
Ġroz dziaÅĤ
Ġlep szym
Ġsch wy
Ġko min
ĠgÅĤÄĻ b
Ġpowsta Äĩ
Ġd ez
Ġpot rzÄħsnÄħÅĤ
Ġzd rowi
Ġpod ar
Ë Ľ
ĠK rysty
Ġmie c
Wspo m
ki nie
le gro
Ġfinans owanie
Ġosobi ste
let nim
ĠÄĩ wier
Ġme ne
Ġobsz ary
Ġo Å¼e
Ġwyso kiego
Ġ ÄĻ
I de
Ġarty stÃ³w
ĠCh cesz
Ġroz rÃ³Å¼
c onym
ĠR us
sz onÄħ
Policj anci
Ġniej ako
Ġwielko ÅĽÄĩ
ĠT ru
ĠpoÅĤu dnia
ĠkoÅĦ cem
Ġprzy nieÅĽÄĩ
Ġjaski ni
je wski
ciÄħ Äĩ
sp rze
Ġjesie niÄħ
Ġustro ju
Ġzapis Ã³w
ĠpuÅĤ ku
Ġluk sus
ĠpÃ³j dÄĻ
Ġprzewi dzieÄĩ
Ġdysp onu
Ġoce nÄĻ
t owanych
Ġogro dzie
Ġku ra
Ġsz kie
Ġszu fla
zd ra
Ġpi z
ĠJeste ÅĽmy
ĠÅĤ ez
Ġcy r
ĠWÅĤady sÅĤaw
M art
Ġim perium
Ġsym bol
w oÅĽÄĩ
Ġwar szt
Ġz loka
ni any
Ġwie kÃ³w
Za czÄħÅĤ
ka rza
ÅĦ sku
Powo li
om oÅĽci
S k
Ġstre fie
Ġteor ia
Ġkonsek went
Ġma rzenia
Ġminu tÄĻ
Ġroz kÅĤad
ĠmiaÅĤ eÅĽ
ĠÅļwiÄĻ to
Ġko chaÄĩ
Ġniepew nie
zaleÅ¼ nie
Ġkil kakrotnie
Ġstos owanie
ĠpiÅĤ kÄĻ
Ġkrzyw dy
Ġwspani aÅĤy
Ġprac owali
Po pro
ĠprzyjÄĻ te
ĠJe d
A dam
Ġmieszka Äĩ
Ġscho dy
ĠP RO
Ġhas ÅĤo
god ny
Ġobserw owaÄĩ
Ġk warantan
Ġu ÅĤa
Ġniedaw na
Ġkar et
S I
Ġli stu
ĠprÃ³bu jÄħ
mi aÅĤo
Ġzaka Å¼eÅĦ
Â ¦
ot ki
Jedy ne
Ġodw rÃ³
ĠGdaÅĦ sk
as h
ĠI za
Ġtrze ma
Ġzrozu miaÅĤem
Ġpoki waÅĤ
Ġgo dnoÅĽci
kÅĤada jÄħc
ĠMikoÅĤa j
ĠkrÃ³ lem
Ġzdarza jÄħ
Ġbrzu chu
W IA
Ġdie ty
ĠspÄĻ dziÄĩ
c ol
ĠRy szard
ĠWY K
Ġh ej
ĠÅĽci anÄħ
ch an
Ġoznacza Äĩ
sz any
Ġszyb kim
Ġwi dni
ĠrÃ³Å¼ nic
ÅĤÄħ cz
ĠJoh na
ĠO pera
ĠÄĩwi czeÅĦ
Åģ at
ni zacji
ĠnajwyÅ¼ szym
komp ens
Po trzeb
Ġkom Ã³rek
am o
? ".
Ġod chodzi
Ġ lan
R i
ĠWyso ka
Ġzatrzym a
Ġnajmniej szego
sz kiem
ĠGdy by
ĠbudÅ¼et owych
Za pro
Ġpopraw ce
Ġpa nien
ĠV II
Ġcel owo
Ġtego ro
Ġra mieniem
Ġcz wo
Ġza cieka
Ġh ali
Ġgospodar ka
ĠDanie l
Ġod gÅĤos
O ne
Ġ198 4
Ġzle cenie
Ġkupi ÅĤem
r owe
un kach
ĠgÃ³ rach
ĠM ali
Ġsk aÅĤy
We Åº
Ġdom owej
ĠB ada
Czy Å¼
# #
ĠksiÄĻÅ¼y ca
bur g
Ġ6 9
p owo
ĠskÅĤadni kÃ³w
ÅĤ kow
Ġwyraz ami
Ġka j
Ġwygra Äĩ
nie ni
Ġplan ach
Ġdaw nego
Ġprzyja Åºni
Ġskrzy w
ĠO P
ĠF al
la cz
Ġprzy glÄħda
ĠbÅĤÄĻ du
ĠKrzyszto fa
ter Ã³w
Najwy raÅºniej
Ġh on
Ġgdyby ÅĽmy
Ġokaz ja
ĠC u
da lej
Ġowo ce
ĠukoÅĦ czyÅĤ
Ġ( ...)
K im
Ġdost atecznie
Ġzmu siÄĩ
om oÅĽÄĩ
Ġpolity czna
Ġprzypom niaÅĤa
Wy b
Ġdrobi az
ĠSu per
k to
Ġpre tek
ĠWiel ki
Ġhandl owych
Ch cemy
ĠNajwyÅ¼ szego
Ġi nie
ĠK amie
Ġk ory
Ġ5 3
Ġwi ara
ĠkrÄĻ gosÅĤu
Ġowo cÃ³w
Ġpracu jÄħcych
ĠprzedsiÄĻwziÄĻ cia
h m
Ġf loty
Ġszko leni
rzy k
Ġ rÃ³b
Ġczu jÄħ
Ġpodat kowych
ĠO na
Ġzie mie
Ġkolej ce
Ġunij nych
Ġno siÄĩ
Ġs kaza
Ġrodzi nne
ĠU ÅĽmie
w ÅĤo
Ġzamk niÄĻty
ĠzÅĤ ych
Ġklat ki
dow s
Ġzespo ÅĤÃ³w
Ġproduk cjÄĻ
ĠWy sp
Ġdokumen tacji
Ġuspoko iÄĩ
Ġa partam
ĠPar k
ĠspoÅĤe czny
ĠpÅĤak aÄĩ
L ek
Ġpapie ry
f Äħ
Ġprzeciw nikÃ³w
Ġcie nia
Ġfabry ki
Z ada
Ġpod er
T O
aÅĤu jÄĻ
ĠzastÄĻp ca
Ġak cen
Ġbo jÄħ
ĠÅ»y dzi
Ġkontro la
N ew
ĠN et
Ġtrud na
Ġpre feren
Ġg et
Ġpubli cznym
Ġs ferze
Ġnieruchom oÅĽÄĩ
Å¼y liÅĽmy
Ġpoe ty
i ami
Wit am
k owano
da jÄħ
ĠKo lej
se y
Ġsko ja
Ġprze jÄħÅĤ
Ġkwest ion
liz owane
Åģ a
i u
sz czyÅĤa
ĠsÅĤo ÅĦcu
Ġograni czeÅĦ
Ġmeta lu
Ġna tar
Ġisto tny
Ġogrom nym
cz kiem
Ġkwest iÄħ
Ġ198 5
MyÅĽl aÅĤem
Ġum owie
sie m
Ġz gar
ĠwziÄĻ ÅĤo
ow cem
ĠC lar
U daÅĤo
Ġolej u
sz ny
pi tal
y ne
Ġwy pa
ĠCi ty
Ġkomfor t
o f
Ġdotk nÄħÅĤ
Ġben zy
Ġjas kra
ĠKazi mierza
Od powiada
lat a
Ġbar w
Ġmog Äħc
Ġalar m
Ġdzi ala
ka sz
ĠgÅĤÄĻ biej
ĠwystÄĻp owaÅĤ
ĠzapÅĤa ci
Ġst rzÄĻ
niÄĻ ci
we l
Ġuz godnie
Ġnegocja cji
rz ami
ĠgÅĤo ÅĽniej
Ġszep tem
ĠB ruk
we ren
ĠHenry ka
ĠPubli cznych
Ġch ary
Ġli sta
ĠÅĽ piÄħ
czy liÅĽmy
Ġkoszu l
ĠwyÅ¼ sza
pi li
Bo Å¼e
________ ________
cz ymi
Ġeko logi
t nika
Ġpi lot
Ġrozej rzaÅĤ
st om
Ġpraw Äħ
Z m
Ġob ud
ĠPrezy denta
Ġprze je
Ġprzy szli
k tora
Ġzw any
ciÄħ ÅĤ
Ġna tura
ĠNa cze
Ġna cisnÄħÄĩ
tk nÄħÅĤ
Ġop arÅĤ
Ġnazy waÅĤ
na wet
Ġh ol
Ġsm art
ĠpiÄĻ tro
gi na
Ġrozmawi ali
Ġmo du
Ġte sty
Ġwynagro dzenie
Ġt ali
Ġoto czeniu
ĠÅĤa ci
Wie my
Ġzaczyn aÅĤ
rz onego
Ġ197 0
noÅĽ lÄħ
Ġs s
Ġedy cji
ĠMat ki
ĠEd ward
Ġpsychi atry
Ġzapro szenie
ĠpiÄĻk nÄħ
daw cÄĻ
Ġumi ar
ĠAustr ii
ĠLe w
ĠHit ler
Ġwcho dziÄĩ
Ġprawo moc
ĠÅĽmi gÅĤ
dnie niem
Jedy nie
Ġmedycy ny
Ġzagospodar owania
Ġin try
Ġangiel sku
ĠzÅĤo ÅĽci
Ġpyta niem
Ġuwol niÄĩ
Ġw pisy
ĠÅ¼ u
Ġspra wiÄĩ
Ġnie sie
S ÅĤo
Ġprag nienie
Ġd rÄħ
Z A
Ġg an
h l
p Ã³ki
ĠszczegÃ³ÅĤ owe
ni cznej
Ġnajlep szÄħ
Ġprowa dzÄħcych
ĠwspÃ³l noty
Ġprzyjem noÅĽciÄħ
Ġbibliote ki
su l
Ġprze szu
$ $
ĠÅĽci sÅĤ
ĠMart in
Ġsamolo ty
ĠÅĽ ru
Ġdr Å¼
A nna
Ġcier pienia
ĠNiem cami
Nie z
do ra
Ġza Å¼Äħd
ĠpaÅĦst wem
Ġucz ci
ĠJe rozo
ĠU l
Ġdr in
Ġu ÅĤam
Czu jÄĻ
Jed nÄħ
Ġfaj ne
Ġkry je
ĠMaÅĤgorz ata
Ġwzajem nie
Ġnie caÅĤ
ĠIm perium
Å¼e niami
ĠLubli nie
Ġwir tu
Ġfin aÅĤ
Ġkad ÅĤu
Ġsty pen
ga cji
Ġst res
r gi
ĠJ ona
" )
m or
Ġbisku pa
ĠÅ¼e la
om en
Ko niec
Z miana
ĠmyÅĽl Äħc
Ġpan owaÅĤ
ju trz
Ġdecyz jÄħ
Ġaku mu
Ġsz ÅĤo
ĠÅĽwiad omie
Ġsp rÄĻ
ĠpaÅĤa c
Zna laz
Ġle wÄħ
Ġtune lu
Ġw enty
Ġtr wania
R ÄĻ
Ġna sy
Swo jÄħ
Ġprze no
ĠosiÄħg nÄħÅĤ
ĠL ar
ĠS pi
Ġtu tej
ĠEuro pa
Ġ198 6
Ð º
Ġm ni
Ġu ksztaÅĤ
ĠzabÃ³j stwa
Ġpara fi
Ra czej
Ġp res
dy kt
Ġdre szcz
Ġwynika jÄħcych
niÄĻ tymi
Ġpol scy
Ġser cem
Ġparlam ent
Ġnienawi ÅĽÄĩ
Ġch wa
Ġemis ji
Ġnajlep sza
Ġdzwo ni
komu nika
d owÄħ
ĠdÅ¼ in
za jutrz
Ġpod pisy
Ġu siÄħÅĽÄĩ
ĠBan k
Ġwpad ÅĤa
ĠNajwyÅ¼ szej
Ġli dze
Ġzat rudnia
be ra
Ġpozost aÅĤy
ĠRich ard
Ġhum oru
Ġpotencj aÅĤ
k siÄĻ
Ġpo Å¼Äħ
Ġmie dzy
ĠP C
Ġnastro ju
ĠKsiÄĻ Å¼y
k ane
Ġperspekty wie
ĠuÅĤat wia
Ġnadz Ã³r
ĠTe re
Ġdotar li
Ġkontynu owaÄĩ
Ġzd ob
dz kich
Ġroz pra
Ġspecjal ny
Pod staw
Ġkatego ri
Ġmeto da
R Y
Ġwst rzÄħs
Ġwymie nia
ĠzdjÄĻ ciu
ĠFacebo oku
Ġko li
Ġpo py
in du
Ġtowarzy stwo
Ġzmniej szenie
Ġzazna czyÄĩ
ĠpÅĤy nie
ĠP ost
zy ka
Ġlin k
B Ã³g
t nymi
Ġwieczo ra
Ġpat rzÄħ
Ġog rodu
Ġme cena
Ġnie mniej
D Y
Ġodd ych
sko p
Ġu do
Ġsprowa dza
Ġ5 8
ĠWy daw
ĠÅĤy k
dz kim
Ġutra ty
Ġcywi lnego
Ġproce sy
Ġ194 6
Ġzgo dziÅĤa
Ġszero koÅĽci
Ġdom owych
Ġbli skich
ĠwnÄĻ trze
ĠT Y
Ġkierow nik
H istoria
ĠLe wicy
Ġzaba wa
Ġgru be
po lity
Ġpat rz
ĠStef an
Ġwe tery
od Ã³w
aÅĤy ÅĽmy
Ġa pro
ĠwÄĻd rÃ³w
Ġist niaÅĤa
Ġpi ra
Ġ198 3
ĠMora wie
ĠKance larii
E E
za cho
Ġnieprzy tom
Ġzdoby ÅĤa
Ġptak i
ĠmoÅ¼ liwych
Ġh rabi
il y
Ġprzeby waÅĤ
ĠJak i
ĠkÃ³ÅĤ ko
Ġskier owane
ĠNa ro
ni owej
Ġniewi do
Ġdotychczas owych
ĠTur cji
Istnie je
Ġorgan u
Ġspo re
... ]
Ġwyraz u
Ġniewiel kÄħ
Ġsku tkiem
Ġod noszÄħ
ĠpotÄĻÅ¼ ny
Ġczy tam
Ġuzasad nienia
Ġde l
ÅĤu jÄħ
Ġfun dacji
K ie
j ne
Ġpo ÅĽcie
Ġop on
Ġspowo dowaÄĩ
Ġpolity cznym
czy taj
Ġspo za
Ġstat ki
Ġpo daw
ĠogÃ³l ne
ĠInstytu t
ĠcaÅĤ ych
wi ki
Ġrozpo cznie
Ġwaha nia
Ġ ).
Ġdrob nych
ĠdÅĤoÅĦ mi
Ġlud noÅĽÄĩ
Ġposta wy
te li
fry ka
Ġre alne
Ġhi gie
ĠSta lin
pisu je
Ġu pi
Ġdu sza
Ġprze kle
ĠgÅĤÄĻbo kie
Ġcho re
Ġnau czyÅĤ
Ġwykon any
Ġosob owych
ow nej
Ġegzami n
Ġp ta
Ġu warunk
czy c
C O
ĠHol andii
ĠF il
ĠUni versi
f ru
Ġwie rzyÅĤ
Ġogar nia
ÅĤ ko
Ġwi nien
ĠpuÅĤkow nik
Ġeuropej skiej
Ġwymy ÅĽl
Ġpowo dzenia
@ @
Ġzro bienia
Ġi mieniem
Ġkontynu owaÅĤ
ĠMo gÄĻ
In ni
9 2
Ġzach owaÅĤ
ĠW aÅĤÄĻ
Ġnast rÃ³j
Ġsal ÄĻ
Ġdzi ury
sz oÅĽÄĩ
D r
ĠZ na
ĠwystÄħpi Äĩ
Ġbez cze
Ġza Å¼y
ChÅĤo pak
Ġpozy cja
zi ony
ĠB et
wy kop
ĠCz as
Ġindywidu alnych
Ġna mie
Ġprzyj mie
Ġ195 6
obi ÅĽcie
Ġsz ty
ĠoÅĽwiad czenia
ĠTe at
ĠzajÄĻ cie
lg rzym
Ġnagra nia
ĠGre cji
Ġ5 7
Re szta
Ġhi p
Ġnaj p
ĠporÃ³wna nia
Ġwyraz y
Ġbie ga
?? ?
ciska jÄħc
Ġpoza rzÄħd
cia z
d d
Ġszan sy
Ġjakby ÅĽ
Ġzosta jÄħ
Ġgospodar czÄħ
ĠH ali
Ġobsza rach
ĠpodjÄĻ ÅĤa
os kon
ĠMate usz
Ġza ciÅĽ
Ġuzna je
Ġbez u
Ġkryter ium
ĠWis ÅĤy
e ro
K la
ĠwyciÄħg nÄĻÅĤa
Ġbur mistrz
Ġcmenta rzu
Ġpozosta jÄħ
Ġz lo
na c
k lÄĻ
cj um
ĠnastÄħpi ÅĤa
Ġchoro bÄĻ
u waÅ¼
Å¼ kÄĻ
Ġprzy gnÄĻ
P or
ĠK oÅĽ
ĠdÅĤu got
chy liÅĤa
Ġsygn aÅĤy
Ġtrud nych
Wy borczej
Ġat ra
Ġwykorzysta nie
Ġopowiada Äĩ
Ġher batÄĻ
gn aÅĤ
ĠLe cha
Ġpowie ki
w czej
ĠJo e
Ġbzdu ry
Ġspad ku
Ġstar tu
Ġzgo da
Ġtrium f
Ġniez dol
Ġpubli cznÄħ
Ġubra ny
ĠRze cz
u gh
Ġwybor czej
k el
Ġstro nÄħ
Ġg da
Ġpowiad omi
Ġba Äĩ
Ġkontro le
Ġporu cznik
ĠsÅĤu szne
W ycho
Ġubezpie czeni
Ġzmi anÄħ
Ġwizy tÄĻ
Ġu czÄĻ
Ġpo dziel
Ġjakiego kolwiek
ĠMistrz ost
Ġtransak cji
ĠM et
Ġwyd aÅĤo
ĠLi p
ĠK O
ĠBiaÅĤym stoku
ĠstraÅ¼ nikÃ³w
Ġ198 7
an tem
row aÅĤy
Ġodse tek
Ġzapis ane
biut owaÅĤ
szy ÅĤem
Ġroz sy
k any
ĠNi kt
Ġtowarzy szÄħ
Ġkam pa
Ġprze konu
u szka
ĠRa faÅĤ
ty cy
Ġprzedmio tu
ĠRzÄħ du
Ġro py
Ġa pel
ĠbÄĻd Äħcych
Ġu rze
Ġcze kali
Ġstar sze
Ġbizne su
Ġwz niesi
Ġkul tura
ĠprzestÄĻp stwo
ĠzwiÄĻk szyÄĩ
dli wy
Ġdrog owego
Ġfun tÃ³w
ĠspoÅĤe czna
Ġka zd
ĠuÅ¼y wane
Ñ Ĥ
Ġpal cach
Ġnie w
ĠciÄĻÅ¼ kich
Ġtrze ciÄħ
ĠU bezpie
Ġzbyt nio
ley a
B er
S iÄĻ
Ġref lek
Ġteore tycznie
Ġwspom nieÅĦ
Ġsp aÅĤ
Mie li
ĠwskaÅº nik
P I
ĠpoÅĽwiÄĻ ciÄĩ
Ġob wodni
Ġsiost rÄĻ
ĠnajwyÅ¼ szy
ĠPO LI
Ġrozpa czy
ku ment
Ġcof nÄħÅĤ
Ġz dy
Ġznak Ã³w
cÅĤa w
ĠAn der
w scho
ĠZ osta
Ġporozumie nie
Ġsw ymi
ĠPa ra
ĠTrze ba
Ġhan del
Ġpokrzy w
Ġfote la
Ġwie ki
Ġzer waÅĤ
Ġautor Ã³w
Ġupad ÅĤ
Ġwy ÅĽmie
ch ii
Ġzadowo lona
ĠzÄĻ bami
py ty
Ġkar to
T uÅ¼
ĠdwÃ³ r
Ġb er
Å¼ nÄħ
Ġinwe sto
ak e
Ġprzy niosÅĤa
Odw rÃ³ciÅĤ
bra ÅĤ
Ġwy rw
ĠpoÅĤo Å¼yÅĤa
Ġfrancu ski
Ġlu n
Ġodwo ÅĤa
Ka pitan
Ġpie lgrzym
Ġstowarzy szenia
Ġnapra wiÄĩ
Ġmusi aÅĤam
Ġprzej ÅĽciu
ĠoÅĽrod kÃ³w
Ġb ier
Ġorganiza cyjne
Ġod stÄĻp
B ro
ĠA po
Ġgospodar kÄĻ
Ġpotwier dzenie
ĠrÃ³Å¼ niÄħ
p aÅĤy
Spo tka
Ġstara m
Ġzmienia jÄħ
Ġ( "
ĠmiÅĤo ÅĽciÄħ
Ġwzro sÅĤa
Ġlokal ne
Ġge nia
Ġsie dzÄħ
le go
Ġcywi lnej
ĠU nia
ĠAmeryka nie
ro sÅĤaw
bo li
ĠI S
Ġlep szÄħ
sta nia
ĠpoÅĤo Å¼yÄĩ
ĠmÅĤod ej
wÃ³ ch
Ġcer tyfika
ĠzakÅĤa dach
mi aÅĤam
b ad
Ġma x
Ġsamo tnie
Ġrodzi nnego
ĠM ont
Ġspraw nie
Ġmo cÄħ
ĠI T
Å¼ onymi
Ġdowo dem
Ġobraz Ã³w
fi cer
B C
Ġe ska
Ġpopro siÄĩ
Ġspra wiÅĤ
Ġcieka wo
Å» oÅĤnie
Ġreligij nych
Å¼ ny
Wy ko
ĠBy ÅĤ
ĠF re
ĠzachÄĻ ca
Ġdal szy
nÄħ cy
Ġi dÅº
bÄĻ dÄħ
er syj
Ġznajom oÅĽÄĩ
Ġli czyÅĤ
nij my
ra nia
20 13
ĠzÅĤo Å¼enia
Ġoczeki waÄĩ
ologi cznych
Ġmiliar dÃ³w
ĠXV II
ĠÅĤaÅĦcu ch
Ġko sza
Ġzwraca jÄħc
ĠWszy scy
Ġi wy
Ġfi zj
ĠÅĤatw oÅĽciÄħ
Ġw ww
ĠW am
Ġp ch
Ġproduk cja
rz onej
Ġprzy prowa
Ġzrobi my
mier Äĩ
ĠbiaÅĤ oru
Ġstrze liÅĤ
ĠobowiÄħzu jÄħcych
ĠPier w
Ġnaukow cÃ³w
Ġprze szk
Ġpozwo lÄĻ
ĠwyÅ¼ szej
Ġdo ktry
ĠmoÅ¼ liwie
Ġry tm
Ġopi suje
Ġubezpie czeÅĦ
Ġpodob aÅĤo
ĠMo ja
h at
ĠpiÅĤ ki
c owi
Ġza gu
Ġle ktu
Ġre wol
Ġma py
Ġpie ÅĽni
stÄħpi ÅĤa
Ġh eli
ĠÅĽmi aÄĩ
sie d
s no
Ġak ce
Ġwy ce
Ġbi Äĩ
Ġnie dziel
ĠMag dale
Ġde leg
Ġprzewo Åº
Ġkoali cji
Ġzarabi aÄĩ
ĠzaczÄĻ ÅĤam
Ġna rodzi
Ġmie dzi
Ġ- -
Ġkoncent ra
si o
Ġszyb kiego
Ġbez sens
Ġg aÅĤÄħ
Ce lem
Ġzw ery
poÅĽ le
sta je
Ġredak cji
we lo
ĠEuropej skÄħ
Ġfizy czne
ĠB ene
z owane
Ġgro b
Ġin wali
Ġofice ra
Mi rko
Ġdy wan
Ġna raÅ¼a
Ġ197 2
Ġd wanaÅĽcie
cze b
Ġdo minu
pi ni
Ġchmu r
Przy got
Ġkonsu m
ĠodmÃ³wi ÅĤ
Ġbla d
za li
wal ne
Ġbar wy
mi strza
rÃ³ sÅĤ
ĠV an
NastÄĻp nego
Ġpyta Äĩ
Ġ owej
âĢ ľ
ĠÅ ľ
Ġobja wy
Ġpozwo lenie
du jÄħc
Ġzni szczy
Ġkobie tami
Ġzawod owego
ĠpasaÅ¼e r
ĠV in
ĠDemokra tycznej
n gu
Ġdzier Å¼a
atu ry
Ġpat rol
Ġ1 10
Gdzie ÅĽ
Ġsprze czne
k owaniu
se ra
Å¼a nie
O l
Ġzna li
Ġdzieci ak
? âĢĿ.
Ġza ost
Ġdyrektor em
Ġsiedzi by
ĠpowtÃ³ rzyÅĤa
Ġdowie dziaÅĤem
ne la
Ġkomenta rzy
Ġwe se
Ġmi ar
Ġ197 6
ĠÅĽredni ch
dz kie
Ġpozosta wi
P la
Ġtech nik
Ser ce
ĠwÅĤas noÅĽciÄħ
stan ÄĻ
ĠpoÅĤÄħ czyÄĩ
ali zacji
Ġbater ii
Ġpowie ÅĽÄĩ
Ġlek kie
jech aliÅĽmy
Ġpodob nÄħ
ĠprzeÅĤo mie
Ġkart ki
ĠBla ck
Ġko pu
Ġautor em
ĠokrÄĻ ty
Ġot w
Ġniepo rozumie
Ġdosta jÄħ
Ġniewi ary
Ġf ut
Ġk naj
ĠwaÅ¼ nego
Ġwykona niu
Ġra sy
Ġzi gnor
ĠKa Å¼
Ġpodob nej
cie liÅĽmy
Ġwin dy
Ġwi rusa
Ġprzy pada
sem i
ak tu
Ġnajlep szego
ĠhaÅĤa s
ĠChi ny
Do ktor
Ġdo koÅĤa
Ġniesko ÅĦcz
kon stru
Ġmiaste czka
Åļ rod
Ġpow rÃ³ci
Ġzbud owany
sto p
Ġszy by
Ġzbro jnych
ĠB roni
szcze niem
i nie
ĠS us
Ġci chy
ĠwÄħtp iÄĻ
Ġprze ka
Ġruch Ã³w
si ng
Ġpl ak
ĠIzra el
Ġpod wÃ³
ĠÅĽci ska
ĠK U
Ġod legÅĤ
Ġzer knÄħÅĤ
Ġzjawi sk
Praw dzi
9 4
Ġrozumie niu
Ġser ial
Ġprocedu r
KoÅĽci Ã³ÅĤ
ĠT ransp
ni my
Ġdo ga
Ġgnie wu
ĠPu ch
Ġpod usz
ÅĽ ÅĦ
ĠJagiel lo
Ġklasy fikacji
Ġek strem
Ġs ro
Ġu ruch
!! !!
g Ã³ÅĤ
g owa
Ġnierucho mo
po la
Ġrosyj ski
ĠwrÃ³ cÄĻ
Ġi gnor
Ġmagazy n
su wa
pad ek
Ġwybra nych
Ġkapelu sz
Ġzawiad o
9 8
ĠskrÃ³ cie
ĠwÅĤo sami
ĠzÅĤo Å¼ony
ĠprzyjÄĻ ciu
ĠÅļlÄħ ska
Ġse lek
ĠwnÄĻt rzu
ĠRad ÄĻ
Ġod pa
le row
9 1
ĠdotyczÄħ cego
Ġbog aty
li on
Ġczy taÅĤem
ĠTu ska
wen cja
... "
b ana
Naj wiÄĻk
Ġprze to
ck er
Ġwej ÅĽci
Ġtore b
Ġopar ty
li ÅĤy
Ġzrezygn owaÄĩ
ĠwypeÅĤ nia
Ġpil n
Ġe ro
Ġcywi l
Ġza lu
Ġ19 19
Ġprowa dzÄħcy
Ġgmi nÄĻ
Ġkier owaÄĩ
Ġobywat ela
Ġprzej dzie
Ġob wi
ĠB ran
T re
Ġnapis em
Ġs ent
N atu
ĠpÅĤa cz
Ġpostanowie nia
ĠRad io
ĠT ego
ĠD or
ĠchÄĻ tnych
dzi aÅĤo
Ġpan dem
Roz mawi
ĠT obie
Ġpedo fi
li stÃ³w
ĠdruÅ¼y na
ĠpoÅĽpie chu
Q u
A ha
Naj lepiej
R U
Ġaut ono
Ġtempera tura
ko s
ĠgÅĤupo ty
Ġzd jÄħÅĤ
a cjÄĻ
os ie
Ġlotni sku
z in
Ostat nie
Ġpodej ÅĽÄĩ
w czym
Ġpopraw ÄĻ
Ġniep owo
ĠK re
ĠRos jÄħ
Ġeksp ort
Po st
Ġspo glÄħda
ĠZa granicznych
Ġul gÄĻ
Po trzebu
ĠoÅĽrod ka
ĠÅĤÄħ cznoÅĽci
Ġzapra sza
Ġwpatry waÅĤ
ĠFran cja
r owy
ck y
v ar
cz amy
Ġzrobi one
Ġe lek
ĠF u
Ġwyz wanie
Ġtrud ny
Ġwojsk owe
Wi dziaÅĤ
Ġzmniej sza
Ġtor by
ĠI l
Co raz
Ġperspek tyw
ĠwÅĤas nymi
Ġgra czy
Ġpow raca
Ġmeto dÄħ
Ġinterpe lacji
Ġszuka jÄħ
Ġmo gl
Warsza wa
Ġkolej no
Ġpor tal
Ġna wil
Ġwymy ÅĽli
Ġdum ny
Ġnaj piÄĻk
Ġ Ā
Ġzlikwi d
Ġpozba wione
Ġwypad kach
puszcz am
pa cz
sko r
( ...)
ĠLi gi
Ġkad en
Ġposiad aÅĤ
Ġfunkcjon ariusz
ĠB lu
ĠpoÅĤÄħ czone
Ġpolicj anta
ni akÃ³w
Po zna
Ġgene ralnego
ĠÅ¼oÅĤnie rza
Ġsi ad
Ġrzecz ach
ĠR ach
rÃ³dmie ÅĽcie
Ġprzer wie
Ġpen sji
Ġbar ier
Ġnieba wem
T E
Ġbezpie czny
Ġw hi
Ġwar unk
ĠRos yj
I M
ĠJ en
Ġstrze laÄĩ
st ri
Ġminist rÃ³w
Ġuz godni
Ġf emi
Ġnarko tykÃ³w
Ġi den
Ġor kie
rz onym
Ġsen sa
now ski
ob u
Ġczego kolwiek
Ġargu men
ĠJaro sÅĤawa
z ow
Ġkonstru kcja
ĠwystÄħ pienie
k cjÄħ
N owa
Ġdzie ÅĤ
Z arÃ³wno
ĠK li
ĠkÄħ cie
Ġograni czyÄĩ
Ġlam py
Ġspe ku
Ġstuden ci
ĠNow ak
ĠÃ³ sm
Ġgard le
P on
Ġchci aÅĤy
ĠzwÅĤo k
Ġwy stra
Ġodkry ÅĤ
Ju tro
ĠL am
Ġzni szczenia
ĠpoÅĽ lubi
ĠAnto ni
Ġzmie rz
Ġdzisiej szej
Ġbie gÅĤ
Ġpoko lenie
Ġzmu szony
ĠBi aÅĤy
Ġsekre tar
Ġpro stytu
Mie js
s nÄĻÅĤa
ĠPod la
Ġotwar cia
ĠFi lip
ĠCz ego
ĠrÃ³wnowa gÄĻ
ĠSena torze
Ġfor tu
Ġnadzie ja
t nikÃ³w
ÅĽle nia
C JA
9 3
Ġprzy niesie
p lan
ar skiej
Ġuzy ski
Ġzapo biec
Ġja ja
ĠdziaÅĤa niach
H ej
Ġb rzÄĻ
pli ka
Ch odÅº
t owym
Ġ193 8
ĠA ri
z ia
CiÄĻ Å¼
Ġniewiel ka
wie cie
Ġmieszka jÄħ
am ro
ami l
ĠCh ÅĤo
k owanym
Ġin tui
Ġczy je
ma cie
Ġza cz
Ġbra mÄĻ
f en
Ġma gii
Ġfron tu
Ġkompeten cje
Ġwi zji
Ġwyda rzenie
Ġwa szej
ĠsÅĤuÅ¼ ba
P ÅĤy
ĠÅĽwie tny
Ġczy sty
Ġstar sza
m ono
U J
Ġkul tu
â Ĺı
ĠszczÄĻÅĽli wa
ĠWil hel
ĠLud owej
ĠAfry ce
Ġwojewo dy
Ġka rze
Ġisto ta
Ġw sk
al nymi
bi Äħ
Ġopan owaÄĩ
Ġwyd any
ĠStan u
ĠsamorzÄħd owych
ĠBiaÅĤ ego
ĠAustra lii
Obo je
Ġface tÃ³w
Ġkieru jÄħc
ĠGol d
Ġokaz aÅĤy
lo gÃ³w
Ġnegatyw ne
W D
Ġre pres
ru j
Ġude rzenie
CZY TAJ
ra le
st wu
Ġmikro f
ĠwÅĤad cy
ĠWiel ka
ĠCzy li
Ġdru kar
ĠZ bro
Ġzi denty
Ġprzetar gu
Ġsta j
Ġskon stru
Ġaktyw noÅĽÄĩ
ĠH ej
Ġanalo gi
ĠA ir
Ġniez mie
Ġprzezna czonych
Wy znania
s Ã³b
Ġprywat nej
Ġpan ny
Ġodebra ÅĤ
Ġprze krÄĻ
Ġwsp aniale
ĠszczegÃ³l nÄħ
nonim owe
Ġzda waÅĤa
Mo gÅĤa
ĠrzÄħd owego
Ġdu zo
Ġznak iem
ĠpielÄĻ gna
szcz ony
Ġfunkcjon owaÄĩ
ĠwypÅĤa ty
Ġre we
v es
g owym
O O
ĠciÄĻÅ¼ kiej
Ġwycho dzÄħ
Ġkry sztaÅĤ
Ġlo sy
ĠpotÄĻÅ¼ ne
Ġnormal nych
Ġdocho du
Ġli tery
Ġdyspon uje
Ġsekre tarza
Ġrodza je
Ġosobist ych
Ġprzewodni czÄħca
Ġwil go
rz ach
ĠLu cy
Ġwi nny
ĠS Z
Ġcza rodziej
ĠInter ne
Otwiera m
Ġpo kro
wia j
ĠG ri
ĠdostÄĻp nych
Ġwam pi
P oÅĽ
Ġrealiz owaÄĩ
ĠF ra
ĠMie szka
P er
Ġpowta rzaÅĤ
Ġsto jÄħcy
dÅº cÃ³w
Ġbohate ra
Ġzespo ÅĤem
ĠK ost
Ġnies prawie
ÅĤu chaj
Ġhas ÅĤa
Ġlek kim
Ġniebezpie cze
sie ÅĦ
ĠRo y
ĠprÃ³ g
ĠÅĽwiat ÅĤem
Ġstara ÅĤa
pi ng
Ġprzerw ÄĻ
ĠmusiaÅĤ by
ĠwrÃ³ci li
Ġpodej rzenia
dera cja
O by
Ġby ly
Ġj ar
ĠÅĽwiÄħ te
i da
Ġcho rob
Ġzabezpie czenie
do ks
Ġcho lera
Ġso cj
mu ni
Ġotwar ta
Ġwa szych
Ġojczy zny
x D
ĠDa vi
Ġprzyzwo i
ĠM nie
zy l
szczÄĻ ÅĽli
Ġwol nej
Ġprze Å¼yÅĤ
Ġkance larii
te resu
Na sza
Ġzmu sza
sf al
ja ce
Ġra towaÄĩ
ĠkoÅĤ nie
f Ã³w
twa rz
Ġpreze sem
Ġgada Äĩ
Ġbar barzy
Ġm em
rÄĻ t
Ġsklep ach
ĠZak ÅĤad
to k
rÃ³d ÅĤo
ĠD s
Ġgu berna
9 6
Ġpubli cy
z owaÅĤ
Ġwie ksz
ob serw
ow ro
Ġpod daÄĩ
ĠzaÅĽ miaÅĤ
Ġist niaÅĤ
Ġu bi
ĠWoj ska
ow Ã³d
Ġbo ki
ĠkrÃ³l owa
Ġsekun dÄĻ
sy n
ĠIn fra
Ġrobi Äħc
sze wskiego
ci al
Ġpoli czki
dz mi
Ã³wi Äĩ
ĠZa raz
Ġubezpie czenie
Ġprawdzi wej
Ġkrymi nal
We st
Ġkabi ny
cha nia
as ie
ow skÄħ
Ġweso ÅĤo
Ġog ÅĤu
ĠB on
ĠszczegÃ³l nym
po s
ĠSzko ÅĤy
Ġob rÃ³ciÅĤ
Ġbie giem
ĠpopeÅĤ niÅĤ
i ÅĤem
Ġli ni
t nia
Ġni skim
Ġwyd ane
Ġprzycho dzÄħ
za cje
ĠtrÃ³j kÄħ
Ġop cja
Ġkontro lÄħ
Ġporu szyÅĤ
Ġgwaran tuje
ĠJ ej
Ġewentu alne
Ġmaj or
stÄħ pienia
P s
Ġdziad ka
liza beth
Ġsz tan
Chci aÅĤam
glÄħd am
Ġwrzas nÄħÅĤ
ĠSa int
pe la
Ġfunkcjonariu sze
Ġopar te
Ġuczestni czyÄĩ
Ġsto jÄħcego
Ġfarma ceu
P L
ariu sze
Ġtale nt
Ġobej rzaÅĤ
la rza
ĠwiÄĻ Åº
Ġ15 00
ĠR at
Ġban da
Ġnazwi skiem
Ġzwraca Äĩ
Ġsp ro
ĠToma sza
Ġefek tÃ³w
Ġskompli kowane
Ġpo danie
W Äħ
ĠTade usza
Ġop rzeÄĩ
Ġto ru
Ġwielki mi
Ġuzna nie
go ra
Chci aÅĤa
Ġfoto graf
Ġzaczyn am
Ġpo szedÅĤem
Ġzna czne
Ġ7 2
Ġpostanowi ÅĤem
s le
ĠmÅĤo dzieÅĦ
Ġdzi ura
Ġa rom
Szanow na
ĠCz ÅĤowieka
ĠopÅĤa c
Ġkrzy czeÄĩ
Ġkom bina
ĠEgi p
rym in
Ġmarynar ki
Ġnieu f
Ġs chodzi
Zost aÅĤa
ĠK le
Ġwycho dziÄĩ
ul l
Ġkolej owej
Ġwyko pu
Ġniemiec kim
Ġrobi ÅĤem
rza nie
Ġmam ie
Ġzastrze Å¼eÅĦ
gen ty
Ġodci nka
nonimowe Mirko
Ġna kry
niu m
: )
Ġwi dy
Ġmo kre
Ġwszel kiego
Ġskute czne
ĠB row
Ġpol sku
ĠB ÅĤa
Ġopi saÄĩ
Ġczerw onÄħ
ĠZ groma
Ġopu ÅĽciÅĤa
Ch wy
d Å¼
nonimoweMirko Wyznania
ni aki
ty wy
ĠprawidÅĤ owo
Ġor to
ĠzgÅĤo szeÅĦ
Ġa dap
Ġkul turze
Ġbol szewi
O j
Ġinwesty cja
ĠO K
Ġkwali fikacji
Ġuzasad nienie
Ġla sÃ³w
k nÄĻÅĤam
Ġs la
Ġkorzysta jÄħ
Ġprawo sÅĤaw
Ġschro ni
ĠLe o
Ġpogo da
P iÄĻk
ĠciÄħ gnie
ĠMa zowie
aki ja
Ġu por
c s
Ġrezul t
Ġzd raj
ĠwspÃ³ÅĤpra ca
Ġmle ko
Ġczwart ej
an owi
Ġsil na
Ġtor bÄĻ
Ġg no
Ġ6 7
g aÅĤo
ĠsamobÃ³j stwo
Ġzoba cz
ĠpociÄħg nÄħÅĤ
Ġr i
k tach
A kurat
ĠdruÅ¼y n
Ġpowiedzi al
Ġ13 0
Ġma gia
Ġwoje n
Ġpersone lu
Ġdo t
ĠPro gramu
Wy da
Ġepi demii
Ġus praw
Ġnormal nym
Ġpospie sznie
Ġ- >
k owanej
ĠZe spo
Ġchwi lach
ĠP h
ĠO gÃ³l
Ġs ad
mu ch
Ġprofi lu
ĠS IÄĺ
b ec
L in
Ġsta cja
Ġpoczu ÅĤem
Ġchwy ta
ar ski
Ġfor mÄħ
D em
st on
Ġstandar dÃ³w
Ġusta la
Ġpom nik
Ġroz le
Ġwy ga
ĠtÅĤu mu
ni cach
K west
Ġkie ÅĤ
ra ÅĤa
Ġza sÅĤugi
Ġzach owywaÄĩ
kÅĤada jÄħ
ĠSi kor
Ġrze kÄħ
ĠS owie
ĠP ia
gi p
w skie
Ġdes pera
Ġma zowie
Ġu piera
Ġstad i
Ġprzed w
Ġki j
O koÅĤo
Ġhipo kry
Ġniewol nikÃ³w
Ġkrzy Å¼a
Ġup amiÄĻ
ĠKali for
Ġrozu mu
Ġz niesienia
Ġsprze daje
Ġlotni sko
ĠWy borczej
Ġobec na
Ġda waÅĤa
Ġli stÃ³w
ĠpÄĻ t
Ġzbli Å¼yÅĤ
ĠZacho du
ĠKa cz
Ġ194 8
" ).
ĠGo ogle
Ġwymie nione
zu jemy
ĠV III
Ġzd aÅĤ
m l
Ġcieka wa
Ġrozmi arÃ³w
t onu
h re
Ġm ad
Ġwy ÅĤu
ĠBoÅ¼e go
Ġpubli czna
ĠÅĤ Ã³dÅº
Ġbi lety
Ġzwolen nikÃ³w
ĠNarod owy
Ġregulami nu
Ġz ma
ĠIra ku
s owi
AN IE
0 23
Ġwy Å¼y
ĠbÅĤy sk
wodni czÄħcy
Ġpoka Å¼e
Stra Å¼
Ġ197 9
Ġprze mawia
Ġbiuro kra
Ġzda rzaÅĤo
Å¼Äħ cy
Ġ196 0
Ġtek stÃ³w
Dro ga
Äħc ymi
Ġzawo dy
Ġroz przestrze
Ġprzerw aÅĤa
Ġwi ru
Ġwyja zdu
Mo gÄħ
ĠkrÄħ Å¼
Ġkar ierze
kwi zy
ĠMari usz
Ġ6 1
leg aÅĤ
Ġli mit
kazu jÄħc
Ġprze peÅĤ
Ġspowod owane
Ġrela cjon
ĠwyksztaÅĤ cenia
W sp
ni sa
Ġpo byt
zu ry
Ġdy na
Z wie
Ġwojsk owego
Ġzatrudni onych
row ski
Ġpar k
P ÅĤa
Ġmater ia
Ġpsychi cznie
Ġro bÃ³
ĠpamiÄĻ taj
W ÄĻ
Ġprzeprowa dzenie
Za pom
MoÅ¼ liwe
Ġprze ana
Ġprze ba
Ġtro nu
ĠAr ka
m oÅĽci
Ġstar szego
Å¼a nia
Ġd at
Ġfan aty
Ġw ÅĤam
Ġprofe s
! ".
Ġbene fi
Ġzespo le
Ġuczestni czyÅĤ
ĠK ON
ad Äħ
Ġzdo ÅĤaÅĤa
ĠÅ¼a lu
Ġpan owania
Ġna daw
Ġk ami
Ġu wi
F A
Ġwizer unek
w nym
Ġinstru ment
! âĢĿ.
Ġameryka ÅĦskie
Ġtrans fer
Ġnazy waÄĩ
ty zmu
Wie cz
le gi
Ġra cje
Ġstere oty
Ġwy wiera
Ġmor skiej
Ġczy nu
Ġdo myÅĽl
j aÅĤa
Ġstwier dzenia
l noÅĽci
Ġdzi wiÄĩ
kÅĤa dni
wy ciÄĻ
ba nie
Ġkolej ki
ak uje
Ġdo ma
Ġgale rii
Ġ6 2
Ġuzy sku
Ġwojewo da
Ġodwie dziÄĩ
Ġzdu mie
Ġrozpozna Äĩ
ĠS hi
Ġstos owne
g owaÄĩ
Ġlep szych
Ġposta cie
Ġpoczu Äĩ
ChÅĤo p
O soby
Åļ wie
Ġnag rÃ³d
ĠspÃ³ dni
S il
Za dzwo
Ġno ga
Ġozd ob
Ġna ft
Ġkwest iach
ĠL or
Ġprzy p
Ġw ciÄħg
dy sku
B P
Ġog rod
Ġo ta
Ġkontrol owaÄĩ
Ġjas ny
kie run
Ġwz nosi
Bior Äħc
P rz
ĠÅļlÄħ sku
Ġ197 4
ĠrozpoczÄĻ cia
ĠpÄĻ k
ĠPlat forma
T C
d ron
Ġm ÅĤy
Ġnarod owoÅĽci
Ġpoja wiÄĩ
jeÅ¼dÅ¼ aÅĤ
Ġisto t
Ġsw emu
la racji
O trzym
ĠKom endy
Ġma pie
j on
ĠniezbÄĻ dnych
Ġrad ia
ĠwojewÃ³dz kich
ĠKo rei
Ġzam el
Ġodw rÃ³ci
nu jÄħc
9 7
Ġdysk rymi
ĠWrocÅĤa wia
K tÃ³
Ġodszkod owania
ĠmogÅĤa bym
ĠinÅ¼ynie r
Ġz grzy
Ġutw orÃ³w
Ġzrozumie niem
ĠdotyczÄħ ca
Ġwyro bÃ³w
Ġodwa gÄĻ
Ġski nÄĻÅĤa
Ġran gi
ĠogÅĤo szenia
ÅĽla Äĩ
Ġw nik
Ġzainteres owanych
ĠwiÄĻ zi
Ġ6 6
ĠKon fe
ĠprzywÃ³d cy
Ġtra sÄĻ
Ġimigra ntÃ³w
czÄħ t
l da
Ġpodej mie
Ġwd raÅ¼a
Ġwych owy
Ġzad eklar
Ġrodzaj Ã³w
on tari
zn aÅĤem
Ġzamk niÄĻta
In na
lan ych
Ġurlo p
Ġjedwa b
Ġszta bu
Ġautor stwa
ÅĽmier tel
Ġzespo ÅĤy
cz onymi
Ġnatural nych
Ġmniej szym
Ġmacie rzy
H o
Ġpoko leÅĦ
ĠPre zesa
Ġpodejm owaÄĩ
li ce
Ġwy glÄħdu
ycha jÄħc
Ġuro dzenia
Ġpodstaw owym
Ġana lity
Ġku la
Ġprzezna czony
Ġsate li
Ġ16 0
Ġbudow nictwa
ĠM en
Ġrezul tat
Ġu poÅĽle
Ġh rabia
Ġpar sk
Ġwe ÅĤ
Ġpro stych
Ġwy stawy
ar stwo
Ġk lik
g ane
Ġr ow
Ġkontrow ersyj
ĠkÅĤam stwo
ĠnieszczÄĻ s
ĠO D
rÃ³ Äĩ
Ġ14 0
Ġzab rzmi
Ġo mal
Ġpopra wia
Ġprowa dzona
ĠsÅĤ owy
Ġprze myÅĽl
Ġpraw nÄħ
outu be
Li czba
ĠPro du
Ġmet ry
Do tychczas
Ġwy ty
ĠStowarzy szenia
Nie mal
Ġodbi ja
ĠC ez
ĠpÃ³ÅĤ ro
ĠobowiÄħz kiem
Ġzdo ÅĤ
Ġzasad ami
Ġzap aÅĤ
Ġpowo ÅĤania
Ġszko dzi
ĠG wia
Ġpomie szczeÅĦ
ĠWÄĻ gier
Ġdyrekty wy
ĠÅ¼y li
Ġzaka Å¼enia
Ġwie czy
Ġzach owaniem
Mieszka ÅĦcy
Ġob lÄĻ
Ġwo zu
Ġkoch aÅĤ
Ġst r
Ġreali zacja
Ġprzekaz ane
Ġk e
je den
ĠwÅĤo Å¼yÅĤ
Ġna raÅ¼
i ra
Ġko st
Ġeksperym ent
Ġcho dzÄħ
cze li
ĠmarszaÅĤ ku
Ġst rzaÅĤy
ba j
Ġroz kazaÅĤ
Ġleka rzem
Z ako
Ġza ÅĽwiad
ĠMoÅ¼e sz
Ġdziw nym
ĠpoÅĤÄħ czeniu
Ġlu stra
Chwi lÄĻ
Ġfotografi i
ÅĽ wiata
am p
Ġprez entu
Ġreak cjÄĻ
Ġposta ciÄħ
Ġplan owane
Ġdostrze gÅĤa
ĠmuzuÅĤ ma
Ġu dzieliÄĩ
be ÅĤ
Ġzda rzyÄĩ
Ġpad ÅĤo
Ġpod b
ktor Ã³w
sze liÅĽmy
ĠÄĩwier Äĩ
Ġcholer nie
ĠAnge les
Ġpotrafi li
ĠMo rza
Ġb rodÄĻ
ĠElÅ¼bie ta
fe sor
ĠP ali
Ġwra caÅĤ
20 12
d ki
Od kry
s se
li o
Ġlu ster
ĠwyÅ¼ szym
Ġpij any
ĠÅĽwiat opo
ĠwspÃ³ÅĤczes nych
cj usz
ĠrzÄħ dzie
Ġnie waÅ¼ne
ĠPOLI TY
Ġ6 3
Ġznaj dÄĻ
s nÄħÄĩ
B ry
S ÅĤowa
ĠnarzÄĻ dzie
Ġkwo cie
Ġ197 8
ĠwspÃ³l nych
Ġskle py
Ġroz mie
Ġdo bieg
stawie nia
Ġintensyw nie
Ġczwar ty
ÅĤy ÅĽmy
ĠÅ¼y czÄĻ
Ġrze kom
nor mal
wi sko
Ġuli cÄħ
r r
ĠJe an
Ġzach owaniu
lo gie
Ġzapyta nia
Ġgospodar czy
Ġzwie rz
Ġprzeczy taÅĤ
ĠAgnie szka
Ġmu ru
zu jÄħce
Za py
Ġcie nie
ĠCh e
c ti
raÅº nie
ĠFun dacji
Ġb ali
za ÅĦ
ĠPo cz
Ġapara tu
k si
... ?
czy ciel
z ej
Ġpozna nia
ĠÅ¼y we
ĠBruk seli
Ġzam ont
Ġmu ry
ĠzamÃ³w ienia
ĠStra Å¼
Ġpow tÃ³r
Ġczerwo na
Ġczyn niki
in teres
Ġja zda
Ġklat ce
Ġa sfal
ĠtwÃ³r czoÅĽci
Ġrom ans
Ġdy stan
Ġob ce
ÅĤy by
ĠgÅĤu pia
Ġwyr waÄĩ
ĠrzÄħ dzi
Ġistnie jÄħcych
ĠzaÅĤo Å¼enie
Ġjedno czes
Ġrzecz nika
Ġusz ach
Ġformal nie
Ġstu lecia
ali Äĩ
Ġzobaczy sz
Ġprzy jechaÅĤa
Ġdzisiej szy
Ġsk Äħ
Ġkieli szek
ĠK UR
Ġze sta
Ġskru pu
M aÅĤ
o let
ĠP I
ĠodmÃ³wi Äĩ
c re
o dem
ĠS he
Ġhe re
Ġiz rael
W okÃ³ÅĤ
SZ Y
fi zy
Ġdwie ma
ĠS portu
Ġo szac
Ġzwy kÅĤa
Ġbar y
Ġnazy wajÄħ
Ġzasu ger
ĠW er
J ÄĻ
Ġtra wie
Ġzastana wiajÄħc
Ġbu duje
Ġw stÄĻpie
ĠÅ¼y ÅĤa
ĠÅĤ Ã³
stu je
Ġi gno
Ġsie dzÄħc
Ġnegatyw nie
Ġpro stej
one s
ĠzajÄĻ ty
ĠA ha
Ġponu ro
ĠSta lina
Bar dziej
ĠK ri
Ġprze mo
P IER
Ġkla sa
Ġst rÃ³j
Ġ19 21
ĠMi ÅĤo
sz czÄħc
Ġroz g
Ġo kie
Ġisto tnych
Ġpowodu jÄħ
ĠskrzyÅ¼ owania
ci ÅĦski
ĠSzwajcar ii
ĠbyÅĤ ych
Ġczy sta
ym u
Ġinstytu cja
Ġd na
ĠwczeÅĽniej szych
Ġorze czenia
ĠwÄĻ giel
Wi dzisz
d niem
Ġdyscypli nar
Ġlek cje
tow nie
Ġcho le
Ġzabra ÅĤa
n noÅĽÄĩ
OW A
Ġport re
Ġod ÅĤam
f an
Ġsk aÅĤ
cze kaj
Ġwywo ÅĤuje
Ġpowie dzia
Ġpozwo lÄħ
Ġod li
ĠjÄĻzy kÃ³w
Ġzdecyd owaÅĤa
dÅĤ ami
Ġ6 8
Ġogrom nej
Ġar miÄĻ
Ġlo du
stanowie nia
Ġza ga
ĠWor ld
Ġnie re
Ġdob ÄĻ
ĠBar bara
Ġotwart ych
Ġkonserw atyw
j or
Ġzainteres owany
Ġzdecyd owaÄĩ
Ġco m
Ġto ksy
dli wie
il d
Ġmagi stra
Ġpie kie
Ġm aka
Ġin stan
Wnios ek
ĠM ona
Ġszyb ÄĻ
Podej rze
ĠPa lesty
Ġmanife sta
Ġrad nych
Ġprote sty
Ġwi zu
Ġter mo
Ġlokal nej
Ġkibi cÃ³w
Z daje
Ġsukce sy
Ġku bek
ĠN at
r owaÅĤ
ĠLi z
Ġra nny
dza jÄħcych
Ġzanie pokoj
Ġwspom nieÄĩ
n owe
ĠÅĽwiad ka
ĠM E
Ġna sÅĤu
Ġdo cel
Ġm er
ĠpomysÅĤ Ã³w
Ġz nosi
ĠE ri
ĠzgÅĤo szenia
z l
F e
Ġspowo dowaÅĤo
ĠwÄħ tek
Ġdotar ÅĤo
ĠParlamentar nego
st ol
Ġbli Å¼
S prze
Ġoprac owania
Ġkon tr
Ġkul turÄĻ
ĠY o
Ġpraco dawca
sz ach
Ġpatrzy li
ĠÅģ Ã³dÅº
Ġzorganiz owaÄĩ
Ġwy godne
ĠV ol
Czu ÅĤa
Ġust os
Ġs cep
t te
d ych
Ġp aÅĤ
Ġniewiel kim
Ġpresti Å¼
T V
Ġnau ce
t ch
Ġpra sy
sz aÅĤo
Ġza pisaÄĩ
tor i
ĠWarsza wskiego
ĠRy nku
ĠÅ¼y czenie
Ġwymaga ÅĦ
ĠN owa
sek su
Ġbrz miaÅĤ
Ġwi szÄħ
cza jÄħce
Ġwypowie dzieÄĩ
CiÄħ gle
Ġkla u
D osta
Ġmu ze
Ġsu weren
st ie
sz Ã³w
Ġwier nych
Ġodw rÃ³ciÄĩ
tu re
W szÄĻdzie
Ġpo jÄħÄĩ
ĠsÅĤy szÄħc
Os obiÅĽcie
p nie
Ġod ry
ĠuÅ¼ytk ownika
ĠUniversi ty
Ġkana pie
de ch
Ġu czyÅĤ
Ġposiad ÅĤoÅĽci
Z nale
E d
ĠrzÄħd owym
Ġch am
Ġn oÅĽ
ĠI le
ĠRejon owa
ĠciÄĻÅ¼ kim
ur Äħ
mo m
Ġsztu kÄĻ
Ġmas ak
Ġmie nia
ĠWol noÅĽci
Ġpozba wiony
ĠwÅĤo Å¼yÄĩ
Ġtab let
ĠFry d
ĠE le
W IE
Ġch ra
ĠM ach
le gle
ĠAmery kanÃ³w
Ġh ra
Ġle wym
Ġdziedzi ny
Ġautostra dy
Ġpracu jÄĻ
Ġana liza
ĠzmarÅĤ ych
Ġrze ka
Ġ194 7
Ġpan ce
Ġupew niÄĩ
ru chu
ĠpeÅĤ niÄħ
rza jÄħ
ĠParlam entu
Ġnaukow cy
for mie
ĠP rem
Ġkonkur sie
Ġbieg nÄħ
Ġznak u
ĠmÃ³wi ÅĤam
Ġpostanowi li
i cho
ĠgorÄħ cz
Ġza daÅĤ
Ġprzeprowa dziÅĤ
li sty
Ġkon wencji
ĠÅĤa p
Â ´
Ġzajm owaÅĤa
cz nikÃ³w
Ġlegi tym
Ġwa dy
ĠMikoÅĤa ja
Ġkolej owych
ĠpieniÄħ dz
rzÄħs nÄĻÅĤa
ĠwyÅ¼ szego
Ġzw racaÅĤ
ĠY ou
Ġtrud nej
Ġpu ÅĽciÅĤ
Ġkry jÃ³w
ĠszczegÃ³l ne
ba cie
Ġwro cÅĤa
UÅĽmie chnÄħÅĤ
Ġwy rwaÅĤ
Ġb lat
nu jÄħ
ĠObywatel ska
ĠMe di
Ġu b
Ġin tym
Ġzawiera jÄħ
Ġnad szedÅĤ
Ġnie for
ĠR ud
Ġprzemie szcza
Ġprzeszk Ã³d
Po lacy
Ġfundu sze
Ġs wiat
Cho dziÅĤo
Ġekran u
ro id
Ġstruktu r
Ġpan owaÅĤa
Ġzja wiÅĤ
S S
Ġwyst art
t owÄħ
Ġzatru dnienie
Ġcho rego
ĠZjedno czone
W ziÄĻ
li sz
Ġokrzy k
Ġodpowiada jÄħ
Ġfrancu skiego
Ġjed ne
ĠzaÅĤat wi
Ġdu pÄĻ
Ġsz anu
Ġprzesta je
z en
Ġszko lenie
Jak oÅĽ
ĠwÄħtp liwoÅĽÄĩ
ĠsÄħ dziÄĩ
ĠwysiÅĤ ek
Ġtelef onie
Ġz wiÄħza
ĠPut in
ĠbÄĻdÄħ cy
Ġzd em
cz ach
Ġwykon ana
Ġokoli ce
Ġb ÅĤÄħ
ha ha
Ġdo bie
Ġrze mie
ĠodgÅĤo sy
pa ni
Ġprzygot owaÅĤ
j ki
% %
ĠM Ã³w
Ġim ponu
Ġkompro mis
mie siÄĻ
Ch ar
Ġoczy szcza
Åļ wiÄĻ
Z byt
Ġdo z
Ġzrealiz owaÄĩ
Ġsz lak
ĠpowaÅ¼ nych
or ient
Ġkon ce
Ġtelef ony
Ġmandat u
Ġspra wiaÅĤ
uje k
Ġtch Ã³
sko katoli
lo tu
Ġuro dziÅĤa
Ġdoprowa dziÅĤ
Ġza f
ĠbÄĻdÄħ ce
Ġtre ne
Ġkonf ron
ĠF l
Ġ196 9
Ġd aÅĤem
Ġszu kam
ĠzÅĤo tÃ³w
Ġdwudzie sto
Ġot ym
Ġbez rad
aÅĤ at
Ġzastrze Å¼enia
ĠdÅĤuÅ¼ szego
Åº dzi
Ġzim ny
. ?
ĠI X
Ġsek cji
Ġwarst wy
Ġniez miernie
ĠPL N
ĠTwo im
Bi aÅĤ
Ġelektry cznej
ĠHi szpa
Ġw po
ĠBibli ote
Ġzie leni
Ġob cego
s che
Ġzazna czyÅĤ
du jÄĻ
Ġkole ÅĽ
ĠC D
Ġkoru p
Ġk ÄĻ
ĠWy glÄħda
ĠpoÅĤo Å¼enie
Ġdo konu
Ġdowo du
Nie zaleÅ¼nie
ĠwyksztaÅĤ cenie
Ġag res
ĠTwoje go
ni anych
Ġcz wÃ³r
Ġzna cznej
F aj
Ġon line
ĠtwÃ³r cy
H er
ene m
Ġchcieli by
Ġmoderni zacji
ĠchrzeÅĽci jan
we ll
ĠSko ro
go ÅĽÄĩ
Ġbu rz
Ġopieku ÅĦ
Ġpedago gi
ĠG ot
Ġwyda waÅĤy
Ġuwiel bi
Ġtwier dzÄĻ
u tan
Ġod daje
Ġwykorzystu je
ĠD NA
Ġdo konuje
Ġim port
Ġdw oru
Ġdokona nia
Ġcze kam
Ġta nie
RÃ³w no
Ġprze nosi
ĠAr tur
ez erw
Ġbada niach
Ġspo dni
Ġdzieci aki
Ġheli kop
Ġochro nÄħ
U czest
ĠsÅĤab oÅĽci
ĠCh am
Ġkryter iÃ³w
an do
ĠprzyszÅĤ ych
ĠW aty
ĠszczegÃ³ÅĤ owych
ist nie
Ġstatu su
Ġgra nica
Ġwzmac nia
Ġdo go
Ġwie Å¼
And rzej
ĠpieniÄĻ dzmi
ĠP iÄĻ
Ġzabu rzenia
In ter
Ġprze ÅĤam
S ÄĻdzi
lÄħ t
z mie
Ġwprowa dzone
p pe
Ġkamie nicy
t oÅĽÄĩ
ĠzaÅĤo Å¼eÅĦ
ĠÅĽwiÄĻ ty
Ġpokaz aÅĤa
Ġwiej skich
Ġsej mi
Ġmoc ny
Ġat aki
bu ry
liz owany
Ġbe da
Ġpolity kÄħ
Ġwy krÄĻ
da y
Ġzagra Å¼a
Ġprze bi
Ġprawdzi wych
Ġinten cji
ĠÅ¼ onie
Ġut wÃ³r
rzy sty
Ġdy sko
ĠNau ki
ĠNau k
Ġdostrze ga
ĠFran cis
ĠK rem
Ġstwier dzono
ĠkrÃ³t kiej
Ġu kÅĤadzie
ĠskÅĤa daÄĩ
Ġuzasad nione
ĠksiÄĻ gar
ĠwÅĤaÅĽci ciele
pie l
c cy
ĠSÅĤu Å¼by
Ġpotrzebu jesz
Ġpa czkÄĻ
ĠK ir
w ro
ĠwyobraÅ¼ am
Wie dziaÅĤem
liza cjÄħ
ĠkÄħpie li
Za le
Ġwios nÄħ
ĠzewnÄĻtrz nych
ĠÅĤo pat
â ĪĴ
Ja ck
Ġzim ne
Prze j
ĠniechÄĻ Äĩ
an dar
Ġmodli twy
Ġob wie
Ġd owiad
eri aÅĤ
Ġsta waÅĤ
Ġegzami nu
Ġprze st
M P
WÅĤa dze
Ġide alny
os ÅĤowa
Ġwol nÄħ
li ÅĤo
Ġw ach
si my
Ġszklan kÄĻ
Ġzezna nia
Ġpi ja
Ġreli gia
Ġwi rus
Ġpo et
Ġle tnie
dzi al
p owi
Jo hn
Ġsp ytaÅĤem
ĠBo giem
Ġprzy biera
Ġutwo rzenia
ĠokreÅĽ lonej
ĠciÄĻÅ¼ ka
Ġzm arÅĤa
Ġwstrzym aÅĤo
ĠwysiÅĤ kiem
ĠZ ato
ÅĽ ka
ĠpaÅĦstw owego
Ġna trafi
Ġre tory
ĠX II
Ġsztu ce
g Ã³d
ĠCz erw
ĠT an
Ġmi ne
Ġsmu tek
ren cji
Ġhe he
Jakie ÅĽ
ĠÅ¼ad nÄħ
Ġdostanie sz
pra wia
Ġobli cze
Ġprzyjem nie
o j
ĠP ort
Ġnie typ
Ġzrezygn owaÅĤ
ĠzwykÅĤ ego
N O
Ġuzna li
Ġanty semi
ĠÅĽmi aÅĤo
Ġzdrowo tnych
Ġzech ci
Ġniewiel kiej
ĠToru niu
Ġoku p
Ġpopraw kÄħ
ĠZ ako
Ġtra wy
ĠMie czy
Ġdwie ÅĽcie
he im
Ġzg waÅĤ
Ġ8 3
den s
ĠwspÃ³l ny
gi Äħ
e lu
f ield
ĠFranci szek
l onych
bie rz
Ġspecjal nej
Ġroz dziale
Ġhistory cznych
h ater
Ġlicz bÄħ
ĠwszczÄĻ cia
Ġzim Äħ
pol skiej
Ġl ord
Ġgene ralny
Ġpokry te
Ġelektrow ni
a cja
Ġfor muÅĤ
ChÅĤo piec
tyku ÅĤ
Ġza trzas
Ġod twarza
Ġpowsta jÄħ
Ġw nÄĻtrz
Ġstar cie
cza niu
Ġsport owe
ĠB ol
ĠgÅĤos owaÅĤo
O powie
m am
niej si
Ġpoja zdy
ĠI wan
Ġg rym
M as
Ġwspomina jÄħc
Ġka zdy
Ġ197 1
Ġusi ÅĤujÄħc
Je sli
Ġlat o
ĠG rze
rowi cz
Ġdziewczy nie
ch yba
Ġl ÅĽniÄħ
Ġprzedstawiciel ami
Ġwycof aÄĩ
Ġzauwa Å¼y
B la
ĠThom as
ĠrÃ³Å¼ nicÄĻ
ĠPiÅĤsud skiego
ro dy
Ġnarod Ã³w
ĠTwoje j
Ġbezpie cze
Rodzi ce
Ġpali wo
Ġzapach u
Ġprzyro dni
Ġspraw cy
tow aÅĤo
Ġnapraw de
Ġprze twarza
Ġrozumie jÄħ
Ġwscho du
ow em
Ġcie szyÅĤ
Ġzn anego
Ġkal ku
ĠG ale
Ġka pÅĤa
l onÄħ
K rÃ³t
Ġlep szej
Ġstandar dy
nie bie
or ne
ĠW szech
nic kiego
ch ali
Ġsko ru
ĠÅ¼y jemy
Ġsp rzymie
Ġude rzyÅĤa
Ġroz kazu
ĠmiÄĻdzynarod owe
Ġsu my
Ġzdol ny
Ġsejm owej
pi ona
Ġpo cisk
D wu
Ġde welo
ĠPo z
Ġlicz b
niÄħ dze
Ġunika Äĩ
mo na
Ġzap ÅĤo
Ġdo ÅĤo
B O
Ġwspiera Äĩ
Ġwez wanie
Ġpodej ÅĽcia
Ġpraw ym
Ġroz ciÄħga
ti onal
ĠNowo czes
Ġgro nie
ĠprzysÅĤu guje
Ġmu sz
by ÅĤ
pol skie
ĠJu lia
ĠC at
Ġinternet owych
ĠJE ST
Ġta gu
brz mie
Ġko sti
Ġprzesta nie
Ġwy ciÄĻ
Ġu nd
by l
Ġdotk nÄħÄĩ
Ġzw ane
Ġdom ku
Ġ197 7
Ġzmar szczyÅĤ
Ġu ciÄħÅ¼
Ġod sunÄħÅĤ
Ġpojedyn cze
ĠD latego
on tan
Ġskute cznoÅĽÄĩ
Ġpo ÅĽci
ÅĤ owe
T U
Ġz io
Ġsp Ã³r
Ġs finans
ĠpiÄĻ tra
Ġgat unki
Zwy kle
rz onÄħ
ĠpowtÃ³ rzyÄĩ
Ġod sÅĤa
ĠnajwiÄĻksz ej
Ġludz ki
ĠSÅĤa wo
zie nie
Ġcy kl
Ġko la
ĠS ad
Ġkon soli
Ġgru by
Ġzaby tk
Ġho lu
ĠLu bel
Ġner wy
Ġko rek
Ġm akija
Ġtru ci
PozostaÅĤ e
ĠczÅĤonkow skich
rzy n
on ki
b ak
Ġza pi
Ġdodat kowy
Ġtabli cy
ĠRe d
Ġpa czki
ĠCz emu
ĠWÅĤo dzi
Ġodby ÅĤy
Ġspotk aÅĤa
K lik
ĠÅĽli nÄĻ
Ġzabra li
Ġchu ste
ĠznaleÅº liÅĽmy
Ġprze jÄħÄĩ
Ġwol aÅĤ
ĠwewnÄĻtrz nego
Ġodwo ÅĤania
Ġzastana wiaÅĤa
Ġn owymi
Ġsprawi ÅĤo
Pol ski
ĠNie stety
Ġcze kola
ĠprÄĻd ko
Ġan gaÅ¼
ĠciÄĻÅ¼ kÄħ
ĠKrÃ³le stwa
T wÃ³j
Ġmagazy nu
Ġzosta wiajÄħc
ĠksiÄĻ gi
ĠT em
ĠD Z
zo lu
Ġprzy s
M istrz
ĠporzÄħd nie
Ġbro niÅĤ
Ġciep ÅĤe
Ma cie
Ġbezb ron
k owanego
Ġzain west
Ġzawiad omi
Ġpartne rÃ³w
Ġprzeprowa dz
Ġmaszy na
Ġsekre ta
H u
ĠK il
ĠzmarÅĤ ego
wi aÅĤem
Ġkiw nÄħÅĤ
ĠKiel cach
ÅĦskie mu
ĠgÅĤupi o
ĠK lub
Ġkonkre tnej
ĠsiÄĻ gnÄħÄĩ
Ġmi le
Ġpod la
Ġdzi aÅĤu
Ġnatural nego
ca go
Mo c
MÅĤo dy
sy ÅĤa
ĠAka dem
ĠS mith
S ejm
Ġdzie liÄĩ
ĠA bra
Ġprze sad
Z y
Ġsze rzej
Ġtera peu
Ġ196 7
Ġefek tem
Ma g
Ġprogram em
Ġtotal nie
Ġniepraw dzi
ĠwÄħ tro
Ġzd ez
Ġdaw aÅĤo
Ġpopra wiÅĤ
Ġnormal nego
ĠIr landii
Ġdziennika rze
Ġmiesz kam
wiÄħz aÅĤ
Ġpod noszÄħc
ĠpaÅĦstwa ch
ĠD ÄĻ
Ġtelef onÃ³w
ĠÅĤad na
Ġdrzew ami
Ġzdr owe
Ġmi strzem
Ġwojsk owy
Ġ19 50
A ktu
w nej
Ġgra wi
Ġkontrow ers
Ġno szÄħ
Ġszcze pieÅĦ
ĠchÅĤop Ã³w
Ġzde fini
Ġrobo tni
gi ni
ĠSa u
Ġpusty ni
Ġko k
ci t
ro r
H en
ĠsÅĤy szaÅĤam
Ġbli ski
Ġhistor iÄħ
ĠdziaÅĤal noÅĽciÄħ
Ġzabra nia
ly n
Ġuro dzin
ĠsÅĤucha wki
ĠdziaÅĤa niu
Ġsto czni
ĠL ek
ĠR Ã³
n no
Ġdecy dowaÄĩ
Ġtr wo
ÅĽ nikÃ³w
Ġkorpo ra
Ġkra dzieÅ¼y
Ġkapita nie
rzy ÅĽci
ĠprzykÅĤad Ã³w
Ġwy trze
ĠMacie re
Ġprywat nego
ĠRzesz owie
Ġnie sÅĤych
Ġwy dzie
cki mi
Ġ }
.. ...
Ġplan em
Ġ7 4
Ġobser wat
Ġciem nych
ĠmÅĤod szy
Ġprze moc
Ġmet r
Ġtyp owy
ĠobjÄĻ te
Ġgaze t
ĠniespeÅĤ na
ĠzajÄĻ li
zi om
Ġdo stoj
ĠmÅĤo dÄħ
ĠbyÅĤ bym
Ġeg zo
ĠC es
Ġwro giem
ĠSy stem
ali zacja
Ġwspomni aÅĤem
ĠpowaÅ¼ na
Ġofer uje
Ġsp rost
ĠB ill
Ã³j rz
Ġregu lacje
Ġsuger uje
ĠmyÅĽl ami
Ro ze
szy sz
Powi nni
Fir ma
ĠoÅĽwiad czyÅĤa
Åļ mie
Ġlo go
Ġpowo dzeniem
Ġskrzy deÅĤ
ĠnajwiÄĻk sza
ĠwzglÄĻ dzie
Ġcmen tarz
Ġpopro siÅĤa
Ġnaczy nia
Ġag resji
Ġza ciÄħg
Ġbezrobo tnych
Ġsamo po
ĠZ im
Ġla sy
ĠP atry
Ġf en
Ġdo liny
Ġe tat
Ġal gory
ĠtwÃ³r cÃ³w
ĠwdziÄĻ czny
Ġ owym
Ġop ony
Ġmart w
Ġpo mal
ĠR A
Ġnum ery
Ġskier owany
Ġpolega Äĩ
ĠumiejÄĻ tnoÅĽÄĩ
tow aÅĤy
wie ÅĦ
ĠÅ¼y czenia
Ġpier dol
Ġprze wyÅ¼
Ġmart wy
re ny
ĠXX I
ĠMeksy ku
ĠInfra struktury
Ġinforma cjÄħ
ĠA sh
Ġznajdu jÄħcych
ĠporÃ³wna Äĩ
i zm
ni amy
ĠJanu sza
ĠP E
Å¼y na
Ġpowtarza Äĩ
Ġwarsz tat
Ġst resu
Roz ej
Cz tery
Ġhistory czne
Ġu ÅĽ
Ġwywo ÅĤaÄĩ
Ġmor skich
hi te
Ġdowie dziaÅĤa
Ġda dzÄħ
Ġdwu na
Ġmieli by
Ġpozosta wiajÄħc
Ġprzy ÅĽpie
Ġprzyj rzaÅĤ
ÅĦski mi
âĹı âĹı
Ġdo peÅĤ
Ġener gia
ĠLegisla cyjne
Ġwyda niu
Ġmul ti
ĠspeÅĤ niÄĩ
ĠspoÅĤe czno
Ġprzezna czona
wi i
Pio tr
ĠuÅ¼y wania
ĠGru py
Ġokru cie
Ġk ano
Ġpierw si
Ġs my
Ġpraco dawcÃ³w
Ġwybor czych
Ġryzy kow
Ġigno ran
Ġbar u
Ġprze konuje
Ġodkry Äĩ
Ġre be
Ġmie czem
k aÅĤo
Ġprzy d
Ġniebezpie czeÅĦstwa
ĠciÄħg nÄĻÅĤa
o c
nios Äħ
Ġuwa gÄħ
Ġi u
Ġnum e
Ġreje str
Ġmo jemu
Ġpie kar
ĠokreÅĽl onym
ĠgÅĤ Ã³d
ĠzrÃ³w nowa
Ġt chu
Ġp Ã³l
Ġosz al
Ġklasztor u
Ġprze pad
Pra ce
Ġpowo ÅĤa
Ġli czeb
Ġsukce sem
ĠSÅĤu chaj
ĠKu ki
Ġdo cze
Ġkobie tom
kow cy
Ġpilo ta
ĠurzÄĻdni k
Ġpow ÅĤo
Ġbi je
M niej
Powie dziaÅĤa
Ġpozwo lenia
Ġnazwi sk
Ġa ro
ĠT al
ĠwyÅĽci gu
Ġpiersi ach
Ġno gÄħ
Ġcz ole
Ġbra li
Ġza i
Doty czy
Ġide a
Ġkawi arni
Ġogrom nie
Ġzdrowi u
Ġobu dziÅĤ
Ġwydo staÄĩ
Ġprzekon ana
ĠI gna
ĠkÅĤam stwa
Ġgor szy
Ġwszak Å¼e
Ġw tym
Ġport fe
Ġzade biutowaÅĤ
ĠpiÄĻÄĩ dziesiÄĻciu
Ġo cal
ĠI PN
Ġroz rzu
Ġ196 4
Ġtrenin gu
Ġsp iÄĻ
Ġdek laracji
ĠJad wi
ur ch
ĠMi ckie
Ġrza dziej
ĠWÅĤady sÅĤawa
ĠdostÄĻp ny
ĠPar ku
Ġrzym skokatoli
ĠpamiÄĻta sz
nie li
Ġlogi ki
Ġzastos owaÄĩ
20 20
Ġmiejsc owych
Ġpazno k
Ġtry bun
Ġkrzy czy
Ġwiel ce
Ġwymi ana
Ġwido czny
ĠmÃ³gÅĤ byÅĽ
Ġprawdopodob ieÅĦstwo
Ġeki py
z am
Ġzy ska
n da
Ġodpowiedzi Äħ
ĠmoÅ¼ liwa
ST A
Ġme ble
wi lej
Ġtra ciÄĩ
Ġdetek tyw
Ġmi ÅĤe
Ġu biera
Ġzasko czona
Ġobro nÄĻ
Ġofer t
la li
Ġf el
Ġwybo rami
ar ne
Ġmru knÄĻÅĤa
S ch
Ġpodejm owane
Ġzbiera Äĩ
ĠpodwyÅ¼ ki
ĠR Ã³w
ĠmÃ³wi ÅĤo
Ġd baÄĩ
Ġoto czenie
ĠK wa
Ġch cieÄĩ
Ġhit lerow
pier do
p ÅĤo
Ġle wicy
Ġx d
Ġklim atu
Ġob rze
Ġma chi
Ġznaj omi
C J
i g
ĠNorwe gii
Ġre spek
ĠOlszty nie
c aÅĤem
Ġbom by
de na
K ol
Ġmiesz kaÅĤa
ĠOst at
Ġ7 7
Ġdrew no
Ġotwo rzy
Ġobej m
Ġwym amro
G re
ĠzwierzÄĻ cia
Ġkatoli cy
ĠB ara
Ġzach owa
Ġte zy
Ġstan em
ja ÅĽ
Ġwybra ÅĤa
Ġdo czekaÄĩ
Ġzagra ÅĤ
nia rzy
ĠnieskoÅĦcz on
Ġlibe ra
Ġpo nur
Ġgrze cznie
Ġdram at
Podni Ã³sÅĤ
Ġbie da
Ġotwart ym
cz oÅĤ
Ġwie ÅĽÄĩ
Ġpozn aÅĤem
Ġza tytuÅĤ
ĠA la
Ġprote stÃ³w
Ġsta wiaÄĩ
ĠKraj owego
ĠL en
Ġdo chÃ³d
Ġpopat rzyÅĤa
B ÄħdÅº
20 15
Ġmo tory
Ġdy wizji
Ġwo jsku
Ġw ciÄħga
Ġroz wie
Ġsz nu
Ġfaj ny
Ġukaz aÅĤa
Ġodzie dzi
PiÄĻ Äĩ
ĠLi tera
ĠrÃ³Å¼ nie
ĠprÃ³b owaÅĤem
Ġczy stej
Ġspraw dziÅĤ
Ġwra cam
Ġna kazaÅĤ
ĠnieszczÄĻ ÅĽcie
Ġregional nych
ku m
ĠD en
T owarzy
ĠCze ÅĽÄĩ
Ġatmos fera
U de
zdra wiam
Äħ ce
Po ÅĤo
ĠP is
bat Äħ
ĠSpoÅĤe cznych
gu r
Ġwar ta
ĠpeÅĤ ny
ĠKrzy Å¼
ER MA
M ary
ĠdÅĤugie go
Ġprzy wy
Ġpoja wiÄħ
Ġu legÅĤ
Ġokrop nie
Ġpo ty
Ġnaj po
Ġpsychi at
Z wiÄħz
Szcze rze
ĠnajbliÅ¼ szej
ph y
ĠKomi tet
r ich
Ġwy szuki
Ġprze chy
Ġwal czÄħ
ĠwÅĤÄħ czyÅĤ
czu cie
S ÅĤa
Ġsz mat
Ġopodat kowania
K lub
Ġlubi sz
Ġci u
ĠPut ina
ĠskÅĤa dania
ĠoÅĽrod ek
Ġzat rud
Ġpodejm owania
bi net
ĠwspÃ³l nym
Ġludz kÄħ
Ġprzetar g
Ġekonomi cznych
Ġkomis je
Ġogni ska
Ġpubli cznoÅĽci
ĠZ ga
Ġwykrzy knÄħÅĤ
daw no
Ġutw ory
Ġb at
Ġtemat Ã³w
Ġwi nna
k cyjne
ko nt
W in
Odpowie dÅº
Ġkomend anta
pod oba
ĠP iÄĻk
Ġkom panii
Ġstara Äĩ
Ġpu sta
e ta
ĠkrÄħ g
Pra ca
Ġprze ciÄħg
Ġukry te
U mie
Ġkar ta
pre cyz
Ġre kompens
Ġmie cza
or ry
Ġsp re
Roz mowa
P ad
Ġbu t
ĠPZ PR
Ġwy kazy
Powie dziaÅĤem
Ġprzych odÃ³w
ĠSi ÅĤ
ĠNa pole
ĠpÅĤy tÄĻ
Wa Å¼ne
je w
Ġo glÄħdaÅĤ
Ġu prawi
Åģ O
Ġprzy ciÄħg
st in
ĠC li
Ġdoty ka
ĠzajÄĻ ÅĤo
ĠurzÄĻ dzie
Ġpod stÄĻp
Ġcentymet rÃ³w
wi onÄħ
ĠdziaÅĤa niem
Ġrestruktury zacji
si ÅĤy
Ġwymi arze
Ġkar k
Ġkorzysta jÄħc
Ġpod niesienie
gÅĤ Ã³w
Ġ193 7
Ġprze szli
Ġadministra cyjnie
Ġty to
ĠlÄĻ ku
Ġzw ari
Ġofi arÄĻ
Ġgo l
I lu
Ġfil mach
ĠTe atru
Ġfesti wal
tr waÅĤ
ĠG rand
Ġpart iÄĻ
Ġprywat nym
ĠÅĽlu bu
mi Äĩ
Ġolimpij skich
Musi aÅĤa
Ġob cym
K E
sto k
g ate
mo t
Ġinwesty cyjnych
Ġwierz cho
Ġzobaczy ÅĤam
Ġnied ostÄĻp
P U
ĠK rym
Ġstra szli
Ġpom or
ĠczÅĤon kami
ĠmiÄĻdzy czasie
Ġ7 3
Gru pa
ak ami
mi j
ur t
Ġinwest orÃ³w
Ġsto jÄħc
20 16
ĠK ing
Ġsym u
Ġpole mi
Ġzmieni ÅĤy
Ġ196 6
ĠpomyÅĽl aÅĤam
Ġrejestra cji
ĠSztu ki
) ?
Ġhrab stwie
Ġmniej szÄħ
d in
' ,
Ġuszko dzenia
Ġj aÅĤ
Ġrad oÅĽnie
Ġsprze cznoÅĽci
Ġtro szkÄĻ
Ġumy ÅĽle
Przypom nÄĻ
Ġroze bra
ĠdoÅĤÄħ czyÅĤ
pi onych
Ġusta leÅĦ
Ġpi rami
Ġniedowierza niem
Ġreprez entuje
Ġal fa
ĠÅĤa wce
b re
Ġma rzeÅĦ
Ġminu s
ĠP y
Ġopar ta
Ġniez god
Ġpomie szczenie
Ġniez li
Ġpowo ÅĤanie
p ha
Ġzainteres owaniem
Ġpodlega jÄħ
ĠuÅĽmiecha jÄħc
ĠbezpoÅĽre dniego
Ġposzu kaÄĩ
ĠmÃ³wi ono
Ġnumer em
Ġal bowiem
ĠAl bo
li sta
si one
Ġinteli gen
Ġnumer u
ĠzmÄĻ czona
ĠC er
ĠciemnoÅĽci ach
Ġuro dzi
stÄħ pienie
ĠokreÅĽ lonego
Ġodpowiad am
Ġnego cj
siad ÅĤem
Ġwal ory
Ġprzetr waÄĩ
Ġna prawy
ĠRz ymi
Po trafi
Ġro sy
ĠwyraÅº ne
Ġuczest nicy
Ġau tem
ĠgÅĤÄĻbo kim
Ġnieza wo
Ġkan cle
Ġzej ÅĽÄĩ
ĠuwzglÄĻ dnieniem
Ġm ej
ĠK er
t rzy
je r
Ġwyposa Å¼enie
Ġwi od
S tro
lo nie
r iÄĻ
Ġsem in
Ġsto jÄħcych
Ġuzyska nie
Ġpono Äĩ
z ka
Ġspi sk
Ġos Äħ
ĠposiÅĤ ek
Ġrzecz niczka
ĠpoÅĤo Å¼one
Ġref un
Ġigrzy skach
ĠdziaÅĤ ki
Ġum ar
Ġsub wencji
Ġode szÅĤa
Ġzagrani cznej
Ġprzej mu
ĠmoÅ¼liwoÅĽci Äħ
Ġdelika tne
Ġwyszep taÅĤ
Ġle w
Ġpowiedzi ane
Ġprzyja cielu
Ġogranicz one
Ġzapropon owaÄĩ
My ÅĽli
Ġustos unk
Ġte dy
gra mÃ³w
P as
li c
zu jÄħcy
U cie
Ġw rÃ³Å¼
ĠsiÅĤ ami
Ġrodzi com
Ġupo ko
ĠtoÅ¼sam oÅĽÄĩ
ĠdziewiÄĻ ciu
Ġpr ych
ar nych
Ġniezna jom
Ġprzed woje
ÅĽwiÄĻ t
Ġobec nÄħ
Poczu ÅĤ
ĠPol aka
ge s
Ġwal czyli
ĠdoÅ¼y wo
ĠDy rek
Za czyn
Ġot wÃ³r
bur gu
Ġzdzi wiony
gro dy
Ġza ta
Ġczar ow
Ġlekce wa
rzÄħ sa
Ġm ez
Ġzatrzym ania
ĠrobÃ³ t
Ġinforma cjami
ĠL eÅĽ
5 00
Ġdyskus je
i dy
Ġb rzy
Ġznakomi cie
P owy
Kt Ã³re
pis aÅĤ
Ġsz are
Ġma g
ĠR en
wiÄħza nie
Odpowiada jÄħc
pu s
ĠB lo
! ?
ĠPie cho
Ġsz lo
lem ent
Ġnarko ty
Ġpropag and
Ġzmian ami
Ġrozmowa ch
Ġfrancu skiej
trzym y
Ġ194 9
Ġrosyj skie
sz na
wi ali
Ġru sz
ĠJ ar
RÃ³w nie
ur Ã³w
Ġniepoko ju
ĠWojcie cha
Ġska le
Ġczy stoÅĽci
Ġla sach
ni czne
Å¼y te
Ġzapew niajÄħ
ĠMari an
Ġwy noszÄħ
Ġcy try
ĠEd war
Ġple cÃ³w
ni ana
ĠSP ERMA
t n
be la
Ġistnie niu
Ġmedy cznej
C ent
k en
WyglÄħd aÅĤo
Pro pon
Ġprzekaza nie
Ġpoe ta
ĠFranci szka
j uÅ¼
ych y
dziaÅĤa ch
am entu
Ġpotrzeb owaÅĤa
ĠW en
Ġro dze
ĠPoli techni
Ġczy ny
ĠpowyÅ¼ szego
cy na
ĠÅĽre dnie
Ġdo li
Ġniesko ÅĦ
i sta
ĠBu ÅĤgar
Ġogo n
Ġbudowlan ych
ĠMar ta
Ġka pu
ĠPod sekretarz
Ġs fery
ĠuÅĽwiadomi ÅĤ
F o
Ġma pÄĻ
ĠUbezpie czeÅĦ
tora mi
u g
Ġzrobi c
ĠGÅĤÃ³w nego
Ġspod oba
MÄĻÅ¼czy Åºni
20 17
wie zd
wi aÅĤy
w nego
Ġma le
Ġzab rz
Ġwybiera Äĩ
Ġzao pini
po ra
ĠSim on
L ud
Ġrzemie ÅĽl
DA LA
Ġwy dziaÅĤ
Ġlokali zacji
ĠMar k
Ġze ra
Ġzwol nienie
Ġwsty du
S krzy
Ġewolu cji
Ġkategori ach
Ġprzyjm owaÄĩ
Ġbezrobo cia
Ġod dziale
ĠskÅĤadni ki
Ġta ble
Ġzawart oÅĽci
Ġzoba czyli
Ġna reszcie
Ġho lender
ĠuwaÅ¼ ali
mi ni
ĠU sta
Ġzaplan owano
Ġprzyby li
Ġsto lika
ĠurzÄĻ dy
ĠpowoÅĤ any
ĠDonal d
ĠRumu nii
ĠA ma
ĠprÃ³ bie
Ġi ra
f um
Ġprze rwa
âĢ¦ âĢ¦
Ġmorder stwa
Ġkom bine
Ġare sztu
Ġko mo
ĠNie pod
Ġpew ni
Ġpers onal
Ġza obserw
ĠuÅ¼y wany
Ġge o
ĠuÅ¼y cie
Ġzabi tych
Ġkolum ny
g un
Ġba weÅĤ
rzÄħ dzenie
Ġuro dziny
Ġwol ontari
Ġodpo czÄħÄĩ
Ġposta wa
- ).
k wa
Mich aÅĤ
U waÅ¼a
zie nia
ĠSam a
ĠwyrÃ³Å¼ nia
Ã³ t
Ġni ska
Ġsymbo lem
art oÅĽci
Do pÃ³ki
Ġface ci
koj nie
ĠsÅĤo dy
ĠW at
SK I
ĠÅĽ ciÄĻ
u el
ĠsprÃ³b owaÅĤ
Ġpozy ski
ĠLu dzie
ez on
Ġop rÃ³Å¼
Ġwykorzysty wane
Ġtyp owe
ĠSo juszu
Ġniez wÅĤo
Ġsufi t
lan o
\ \
Ġu czÄħ
od rÄĻb
bi one
ĠkrÃ³le stwa
Ġegzeku cji
ĠnajbliÅ¼ sze
Ġw bija
Ġz rÃ³b
Ġodby waÄĩ
ĠN y
Ġtow aru
Ġprzeprowa dzone
Ġkomunika t
Ġdofinans owania
tu l
ja cych
pe dia
Ġdostar cza
Ġdz ban
Ġszlach ec
Ġnaru szenie
Ġdziew czÄħt
z ory
Ġprzystan ku
Ġba rze
Ġidzie my
G or
Ġokupa cji
Wz ru
ĠwÅĤÄħ czyÄĩ
ĠwspÃ³ÅĤczes nej
Ġpoz wÃ³l
Wie lki
Ġ7 1
Ã ¨
Ġrozmai tych
Ġsu bie
KaÅ¼ de
ĠÅ¼yw noÅĽÄĩ
Ġob er
ĠdziaÅĤa czy
Ġklien ci
Ġ7 6
ĠpÃ³ÅĤ ki
ÅĤ any
Ġwy war
Ġbom bar
Ġdaw ne
Ko mu
ĠH or
Ġnaj trud
Ġj ach
Ġb Äħ
Ġotwart Äħ
Ġudziela nia
Ġspyta Äĩ
Ġu jÄħÅĤ
Ġw lo
Sz czÄĻ
ĠobojÄĻ tnie
Ġpraw na
Ġbez tro
Dzie cko
Ġwie rze
Mo ze
Ġnaj bli
Ġzrobi ÅĤeÅĽ
Ġspotka niach
ÅĽl ony
ĠzamÃ³w ienie
Pod szedÅĤ
A U
ĠF ilm
Ġg los
ĠM es
re l
Ġ9 8
Na zy
ĠnaleÅ¼ noÅĽci
Ġrodzi nnym
Ġprzy jechaÄĩ
ĠD ok
sko czyÅĤa
. ;
ren ce
ĠciÄĻÅ¼ arem
Ġprzy sta
Ġzd ej
Ġpostaw ÄĻ
der u
ĠhaÅĤa su
Ġob rzÄĻ
Przy ja
Ġpo spoli
Ġw su
Ġno tari
My ÅĽlisz
Ġspad nie
Ġop as
Ġupad ek
Ġz wiad
W cale
Ġprocedu ra
Ġz an
Ġpapiero sÃ³w
Ġzem sty
Mie liÅĽmy
Ġzebra nych
Ġaby ÅĽ
Ġkaz aÅĤa
Ġbie gnie
Ġzapro siÅĤ
ĠZ oba
Ġf re
Å¼ ymy
Ġmon ar
Ġdoty czyÄĩ
Ġdra pieÅ¼
Ġwierzy sz
Ġznaj dowaÄĩ
ĠChar les
Ġdotyczy ÅĤo
MÃ³wi Äħc
Mie sz
Ġ196 5
Ġco ro
ĠoÅĽ wie
Ġpal ca
robi ÅĤ
Ġdy dak
Ġprzy kÅĤadu
ĠwÅĤaÅĽci wÄħ
Ġoce niaÄĩ
Ġd ata
Ġwytrzym aÄĩ
Ġbez wÅĤad
Ġfizy ki
Ġk wart
Ġstruktu rÄĻ
Ġzezna ÅĦ
Ġmog e
Ġzao szczÄĻ
Ġpras owej
Ġdzieci ÅĦstwie
Ġpowierzch nia
ĠsierÅ¼ ant
Ġzm ru
ÅĽci ÅĤem
Ġszta b
ĠI sa
Ġkrzy czaÅĤ
Ġham ul
ĠskrzyÅ¼ owaniu
ĠT obÄħ
Ġopi niÄħ
ÅĤ ane
Ġdo biega
lÄħ ÅĤ
ĠÅĤ zami
Ġprecyzyj nie
ĠZbignie wa
ol ly
Ġkrzy ki
Ġkan aÅĤu
Ġzarob ki
Ġzarabia jÄħ
Ġprowa dzÄħc
Ġforma cji
ĠciÄĻÅ¼arÃ³w ki
eri ne
Ġwywia dzie
Ġpas em
ĠwrÃ³ci ÅĤem
ĠMi ke
Ġpokar m
Ġpi Ã³
Ġauto rzy
ĠporÃ³wna nie
M on
Ġak a
or un
stw ami
Ġareszt owany
Wyob raÅº
Ġlogi czne
Ġpodtrzym y
Ġbar wach
Ġzn anym
Ġpokry wa
Ġdemon stra
Ġh os
Ġk lan
art oÅĽÄĩ
T ry
ĠU n
Ġgra jÄħ
Ġpoga daÄĩ
== ==
ast er
Ġide ologi
di t
i ÅĤy
pol ska
la dy
ĠV o
wcze ÅĽniej
ĠmiÄĻk kie
Ġskar pe
Ġprzypomin aÅĤa
Ġucie r
Ġpoli czkach
Ġwy nu
ĠnÄĻ dz
Ġpod ÅĽwiad
r owych
ĠW si
Po de
re czki
Ġpowtarz am
ĠMa y
ĠsÄĻdzi owie
ĠR aj
ĠH istory
re br
Ġ193 6
stan Ã³w
h al
Ġatmos ferÄĻ
Ġforte pi
Ġkel ner
Ġv an
Ġe tni
li ÅĦskiego
Ġre zolu
Ġra nem
bo gat
ĠV ale
Z ÅĤa
Ġbrzu cha
Ġtego Å¼
Ġotwart ymi
Ġg Äħ
ĠposÅĤu sze
Ġzap rzyja
ĠE S
ĠB ec
pres s
PIER DALA
Ġzba daÄĩ
Ġtabe li
Ġpul s
ĠjeÅ¼d Å¼Äħ
Ġwynika jÄħ
K M
ĠW Äħ
Ġpar e
ĠrozsÄħd ku
Ġpotwier dziÄĩ
Ġniepoko jem
Ġbaj ki
Ġzapyta nie
czy ki
P yta
szy n
Ġzgo dzi
p aÅĤem
Ġwez waÅĤ
Ġprzedmiot owej
gÅĤÄĻ bia
bie niu
Ġsprawie dliwoÅĽÄĩ
U N
Ġfinans owÄħ
Ġeksploata cji
ne nt
Ġwycof aÅĤ
Ġkraj owego
ĠstraÅ¼ nicy
Ġdwor ca
Ġstwier dzam
Ġzachowy waÅĤ
Ġszczepion ki
Ġm d
Ġod dal
ĠD al
Ġkomend ant
Z rozu
ĠCho dzi
Ġpo ÅĤam
Ġfizy cznego
Ġodpar ÅĤem
Ġrze kÄĻ
Ġchoro bÄħ
Ġpapie rÃ³w
Ġde zy
s ma
D owie
kt Ã³ry
Ġta g
Z mar
S trze
Ġna turze
Ġinspek tor
ĠwÅĽcie kÅĤy
Ġmiesz kan
Ġtro n
Ġszcze ci
ĠrÃ³w noÅĽci
Ġprzypad kowo
Ġroz wiÄħ
Ġhe tero
Ġprzyjem ne
Ġwa szym
B en
ĠprzyjaÅº ÅĦ
E C
G i
p nÄĻÅĤa
Ġist niaÅĤy
ĠWa sza
ĠRe na
Ġzie lony
ĠkoleÅ¼ anki
kow aÅĤy
Ġspowo dowaÅĤ
Ġsil nym
Ġnau kowej
http s
R ol
ĠU waÅ¼
fo nii
la rzy
Ġroz ÅĤÄħ
ku ry
Ġbi t
Ġzwie rzch
ĠgÅĤÃ³w na
S ami
ĠWy dziale
Ġil oÅĽciÄħ
ĠT rzy
Ġkorzyst ne
ĠP IS
Ġsta wiÄĩ
dem okra
ĠUkrai ÅĦcÃ³w
ĠdokÅĤad niej
Ġpomaga jÄħ
ĠZ ast
Ġcie szÄħ
Ġje ÅĦcÃ³w
ficjal nie
ĠXI V
l aÅĤy
Ġuli ca
Ġ8 2
Ġ7 8
ĠÅĽpie wa
ĠGo rz
ĠrzÄħd owych
Ġwy niosÅĤa
Ġkre ty
Ġch wali
... ,
Ġdiece zji
ĠusÅĤy szÄĻ
at ym
p ty
ĠzaczÄĻ to
Ġnie ma
Ġznajom ego
O G
Ġprze jazd
Ġp ur
Ġmi gra
Ġku le
Ġza go
f ej
szcz aÅĤy
Ġrozgry wek
Ġisto tna
Ġu du
Ġo praw
Ġkre atyw
Ġa ud
Ġdziel nic
Ġhum or
Ġstara ÅĦ
Ġra kiety
Ġza stra
ĠHol ly
Ġzam ru
Ġsk ak
Ġli czÄħ
Ġse tek
Ġwyp ali
ĠS ki
Niewie le
Ġprze raz
Ġludz ka
Ġsuk ni
Dzi aÅĤ
Ġpi cia
Ġsamo tnoÅĽci
g y
ĠzamkniÄĻ tych
od c
ĠmÄĻÅ¼czy Åºnie
Zamy kam
Ġe gip
ĠdoÅĽwiad czeniem
ĠnapisaÅĤ eÅĽ
Ġjakimi ÅĽ
io nie
Ġcier pliwie
Ġzi my
Ġwyposa Å¼enia
Ġza cisnÄħÅĤ
ĠÅĽmie je
Ġodby waÅĤy
ĠLud owego
Ġbi letÃ³w
Ġskraj nie
ĠsÅĤo ÅĦcem
ĠTrum p
Ġdzie jÃ³w
Ġn y
Ġpoez ji
Ġ195 7
Ġsto ÅĤem
Ġkon fe
Ġab on
Ġkoch an
ĠGre en
u b
Ġarty lerii
kowie c
Ġobserwu jÄħc
Ġw zywa
d owany
Ġpotrzebu jemy
o dy
ĠNi co
ĠrÃ³Å¼ nym
ĠKo ro
W spÃ³l
ĠBi r
Ġogar nÄħÄĩ
ĠKodek s
ĠksztaÅĤ tu
ĠoddziaÅĤy wania
ĠLe piej
Ġstro ju
Ġkomi sarz
Ġzaku pÃ³w
Ġdom owe
f fe
Ġag entÃ³w
Ġprzesu nÄħÅĤ
S ena
fi kuje
Ġteor ie
Ġcho ra
ĠG ÅĤos
ĠbÃ³ lem
Ġud owa
Ġsre b
Ġutrzymy waÄĩ
dze niami
ĠpÅĤo nÄħ
Ġrewol wer
Ġwprowa dzeniu
Ġwypowie dziaÅĤ
Ġpotencjal nych
Ġpakie t
Ġ8 9
Ġku rzu
st ymi
Ġzas nÄħÄĩ
Ġu noszÄħc
Ġzrobi ÅĤam
V i
ĠdziewiÄĻ tna
Ġ $
ĠstaÅĤ ego
Ġ8 8
Ġwi zja
Ġniepotrzeb nie
sty na
Ġwygla da
Ġsiost rÄħ
nios ÄĻ
ĠÅ¼y wych
ĠzÅĤo Å¼yÅĤa
dni kÃ³w
M al
ĠÅľ e
Ġprzy kÅĤadzie
ĠB at
Ġprowa dzÄħce
Ġfir mÄħ
t in
Ġofer ta
Ġdrewni ane
ĠWscho dzie
Ġwycie czki
Ġlogi ka
Åļ rÃ³dmieÅĽcie
Ġpl amy
ĠposÅĤu chaÄĩ
z ar
Ġkosz towaÄĩ
Ã³Å¼ my
20 18
Kier owca
Ġcier pienie
Ġroz strze
ĠprzesÅĤucha nia
Ġpoko i
Ġ193 3
Ġs ra
Ġkoryta rzem
Ġko du
ĠA nonimoweMirkoWyznania
Ġh ek
Ġtre nera
Ġmasz er
Ġstra cili
ĠPol skim
Ġoba w
Ġskar gi
ber ga
Ġ196 1
ow nia
KsiÄħ Å¼ÄĻ
ĠwewnÄĻtrz ny
Ġhar mono
Ġprote stan
Klik nij
Ġro szczeÅĦ
Ġwizy ta
ĠPau la
Ġser iÄĻ
wal ny
ĠJ ur
Ġmedy czne
cier pli
Ġpot wo
trze ba
W W
Ġobro ÅĦcy
Ġczyn Ã³w
Ġode p
Jak Å¼e
ĠSz pita
Ġefek tu
ĠD rÃ³g
ciera jÄħc
g lo
Ġog niu
T ej
st olat
dz two
pu jÄħc
Za zwyczaj
Å¼a cy
le sa
ĠB as
D oskonale
Ġpi k
Ġjad ÄĻ
Ġszko lnego
Ġko ci
kobie r
Ġh oÅĤ
Ġnagra nie
c aÅĤu
Jedy nym
Ġcio tka
Ġprzedszko la
Ġzauwa Å¼yli
ĠzaÅĤo Å¼eniu
Ġzosta wiÅĤa
ĠZacho dzie
Ġwoj ownikÃ³w
Ġczyta niu
d s
Dru gie
ĠBÄĻ dÄĻ
Ġcieka woÅĽci
M W
Ġodby wajÄħ
200 6
Ġdelika tny
Ġnieu cz
Ġwskaz aÅĤa
Ġrol nicy
ĠwÅĤaÅĽci wej
Ġciem ny
Ġdoskon aÅĤy
Ġgro na
Ġkap su
Ġdo stanÄħ
ĠStef ana
Ġtelewi zor
ba nia
Ġwy kazaÄĩ
ck e
Ġna ÅĦ
F E
Ġzap asy
west ion
Ġnie kon
Ġodd ychaÄĩ
z owany
ĠszczegÃ³l ny
ĠsÄħ dziÅĤ
Ġodkry cia
Ġzaw sty
cha jÄħc
Ġszkol nictwa
Ġd baÅĤ
Ġpe ty
Ġzary zy
Ġza peÅĤ
Ġ ane
Ġprze lo
Ġszklan ki
Ġ195 8
Ġpowszech ne
ĠnajwiÄĻk szego
Ġobni Å¼enie
Ġpreten sje
Ġgara Å¼u
Ġwyklu cza
Ġsiedzi bÄĻ
Ġszpita lach
Ġkom endy
ĠpoÅĤÄħ czeÅĦ
Ġinspek tora
Ġsum ÄĻ
Ġe wange
ĠwÄĻ z
ĠdÅĤugot rwaÅĤ
Ġroz grze
ĠczoÅĤ gÃ³w
ja jÄħ
Ġprzeczy ta
Ġnaj dalej
klu czone
Ġze tk
Ġpo gÅĤÄĻbi
Ġzw ÄĻ
" :
kt ery
ĠÅ¼ywi oÅĤ
Ġzgo dnoÅĽci
is s
ĠG ry
ĠH anna
Ġna go
Ġsu cho
mi nuje
Ġkrzyw dÄĻ
Ġkoncep cja
o Å¼y
Ġno siÅĤa
ĠP anu
Ġwido kiem
dent Ã³w
z an
Ġzim nej
Ġkierun kach
Ġutwo rzenie
ĠleÅ¼ aÅĤo
cjonal nie
ĠdÅĤu gu
Ġpacje n
Ġtar czy
Ġrzeczywist oÅĽciÄħ
li ki
Ġpracow nikom
Nie dÅĤugo
ĠNarod Ã³w
Ġch rzÄħ
Ġreligij ne
Ġbogat ych
ka rzy
Ġdzie lÄħ
Pat rzÄħc
tak i
ku j
Ġat akÃ³w
ĠpiÄĻk nej
Su per
owie nia
Ġch aty
Ġpo szÅĤy
Za bra
CZ E
Ġpriory tet
bri dge
Ġe u
Ġwery fikacji
Ġdum Äħ
ĠD wa
ĠDzie n
Ġni skich
p r
ĠdÅ¼ un
ĠjÄĻ knÄħÅĤ
wia sz
kowy znania
Ġbos kÄħ
Ġod ra
ĠJez u
Ale Å¼
ĠChi cago
Ġob jÄĻcia
Ġniejedno krotnie
Ġtwar de
Ġniebezpie czny
Ġwybrze Å¼a
Re gu
Ġrozmy ÅĽla
am eryka
Ġek spe
Ġpoko naÅĤ
Ġz gas
Ġreali zuje
Ġprzej m
Ġpoprze dnie
Ġprze ro
sz en
ĠCh eÅĤ
Ġse g
Ġprawa ch
Dob ry
Ġb le
Ġzw anej
Ġremon tu
Ġfry zje
Ġmas ki
Ġref leks
Ġrozpo znaÅĤ
Ġza siada
Ġplane cie
s cia
Ġdo precyz
ĠKo ÅĤo
Ġper fek
ni Å¼ej
li my
g amy
D oÅĽÄĩ
Ġeksp ortu
Ġwy szu
fi r
Ġbu rzy
Ġnied ost
ĠKo lum
rÃ³ dziem
ÅĽle niu
U E
pra woz
Ġszko lnych
Ġregulami n
Ġna wiÄħ
Fa cet
S ek
nie niami
d ÅĤeÅĽ
Ġdowo dzi
ĠLe e
Ġstop ami
Ġkam e
E m
Two ja
P ytam
Ġzorient owaÅĤ
ĠobjÄĻ tych
Ġinteresu jÄħ
Ġmatematy ki
ĠusÅĤy szeli
E uro
Ġuzysk aÅĤa
Ġopozy cja
pozy cja
Ġucz ciwie
ĠpowiedziaÅĤ eÅĽ
Ġhra biego
Ġro le
daw cÄħ
ĠWi dzÄĻ
ĠChci aÅĤbym
Ġzni szczone
Ġpras owy
ĠosiÄħ ga
b ary
ĠNarod owym
ĠÅĽwiad czenie
Ġobywatel skich
Ġkampa niÄĻ
cj one
ĠmoÅ¼ liwy
Ġod szu
Ġgar ÅĽÄĩ
Å¼en tel
Ġdoj rze
redni o
Ġkole gami
dz any
Ġprze ÅĤÄħ
ĠbezpoÅĽre dnie
Ġzapozna Äĩ
Ġodw rÃ³t
Ġkryty ki
Ġnie du
ĠE lekt
Ġnowoczes ne
Ġa pelu
ĠB ory
wo m
Ġrozmai te
Ġzaba wne
Ġpo gÅĤa
Ġbezpie czna
Ġarchi te
Ġk in
pu ÅĽciÅĤ
Ġnapi sze
. /
Ġpie czÄĻ
Ġor dyna
Ġ196 2
Ze spÃ³ÅĤ
ost wa
ĠwzglÄĻ dnie
Ġplo tki
ĠczÄĻstot liwoÅĽci
Ġrapor cie
ĠgÃ³r nej
U sta
Ġwyrzu ciÄĩ
Ġm gÅĤa
SÅĤo ÅĦce
ĠmieszkaÅĦ com
j akie
ĠzapÅĤa ciÅĤ
Ġme tali
Ġpowo je
ĠSte ph
Ġinstru mentÃ³w
Ġpod stawa
ĠCh mie
ĠWscho du
Ġaw aryj
Ġjed ni
ciÄħ gu
Ġwi nÄĻ
Ġtele komunika
Ġangiel skim
ĠdÅĤu g
Ġnie okre
ĠÅĽrod kiem
ar kÄĻ
S kÅĤad
O bu
ĠN u
Ġmecz Ã³w
Ġzn aÅĤem
Z E
Ġzasad Äħ
rz chni
js cy
No c
ĠÅĽwiÄĻ tych
jaw sko
ĠLa u
czu k
Ch i
X X
ĠÅ¼ ÅĤo
Ġprze raÅº
ĠgÅĤo si
ĠSt any
Ġwykony wanie
ĠpodjÄĻ te
ĠF BI
Ġkwa s
Ġdo szÅĤa
Ġod chy
Ġrozpacz liwie
ĠzaÅĤo ga
ĠsÄħd owych
ĠA k
Ġu chro
Ka Å¼d
anow skiego
ĠwspÃ³ÅĤ dziaÅĤa
ĠE pi
ÅĤe Äĩ
Gaze ty
Ġk oÅĽÄĩ
Ġtytu ÅĤÃ³w
e p
ĠMa h
P al
ĠS ÅĤowi
D ane
Ġby tu
ĠsÅĤa ba
ĠIn dii
Ġdo mo
ĠwÄħ skie
e uropej
ĠLw owie
Ġpot rÄħ
ĠuwaÅ¼ aÅĤa
Ġjak kolwiek
Ġ193 4
Ġlat ami
Ġbla skiem
Ġkontra ktu
Ġparlamentar nych
z ana
Ġpracow ni
Ġkredy ty
Ġudzieli ÅĤ
Ġp amie
ĠÅ¼ela za
Ġpod wy
Ġs mar
s aÅĤ
ĠprzywÃ³d cÃ³w
O kazuje
te ch
Ġgo ÅĽciem
Ġdobrow ol
ĠuchwaÅĤ ÄĻ
Ġkierow nika
Ġdo biegÅĤ
Ġo rÄĻ
Ġtek ÅĽcie
Ġchi cho
ĠAm eri
Ġobie cy
Ġparlam encie
Ġza ham
ĠD ariusz
chÄĻ tniej
Ġzmniej szyÄĩ
Ġkonfi gu
Ġob jÄħÄĩ
ĠpeÅĤ nych
Ġnie ÅĽmiertel
ĠrÃ³w ie
da ÅĦ
Ġpro mienie
T ÅĤu
si c
Ġra dni
Å¼ nym
Ġof ensy
Ġpogo dy
ĠwÅĤaÅĽci wych
ni cznych
ĠdziaÅĤ aÅĤa
Ġzadowo leniem
Ġsent ym
ĠTrum pa
Ġpowi atÃ³w
cz nia
ĠkrÃ³t kich
ĠpudeÅĤ ko
Pot wier
Ġpro stÄħ
Ġdotychczas owe
Ġbu rza
Ġprzedstawi am
fik owane
czÄħ ÅĤem
Ġha js
Ġryzy kowaÄĩ
Ġustro j
Ġkorzysta nie
Ġczterdzie stu
ĠMu zy
Ġbrytyj ski
Zga dzam
ter s
Ġo ÅĤÃ³w
C ena
Ġpre para
% #
Ġbiur ko
Ġsmu tkiem
Ġs ok
ĠpoÅ¼y te
Ġopis aÅĤ
Ko ro
Ġza sty
ĠdruÅ¼y nie
an cie
u szek
Ġprobo szcz
Ġwymy ÅĽliÅĤ
Ġna li
Prokura tura
Ġpomy sÅĤem
d ing
Ġpoczu ÅĤam
ĠS and
Ġwy se
ĠpÃ³ÅĤnoc ny
Ġzezwo lenia
Ġwpatru jÄħc
Ġprze gÅĤos
grafi a
Ġskrzy wiÅĤ
Ġpierwo tnie
Ġgroma dy
Ġf ontan
Ġseksu alne
Ġprakty ka
Ġf anÃ³w
ĠÅ¼ arÃ³w
Ġinf o
ĠBer lina
Ġtro ski
Ġcywi liza
Ġ3 50
Ġz szedÅĤ
Ġprze cha
Ġob co
Ġzatrzym any
Ġkwo t
ku s
ĠLudwi ka
Z Y
Ġ195 9
ĠZygmu nt
Ġdo bi
Ġwe szÅĤy
Ġtajem nicÄħ
Ġcieka wych
Ġprzed szkol
ĠStron nictwa
Ġkarabi n
Ġzagrani czne
Ġzawo dzie
Ġparlam enta
Ġreak cje
le wa
Zak ÅĤad
Ġkilku set
Ġo liw
Ġprzeprowa dzono
Ġprezy dium
Ġzapew ni
Ġsiost rze
ĠK C
Ġkur tkÄĻ
Ġumie szcza
Ġprzy jechali
Ġdo siÄĻ
Ġzabi je
Ġprzegra ÅĤ
ke ra
Ġstru mieÅĦ
Do daÅĤ
Naz wa
Ġfin aÅĤu
ĠpielÄĻgni arki
Ġopiera jÄħc
ĠC IA
ĠD er
Pat rzyÅĤ
Ġprez entuje
M ari
ĠszeÅĽÄĩ dziesiÄħt
Ġide alne
Ġczerw onych
Ġopera cjÄĻ
Ġosie dli
Ġklucz owe
Ġwo rek
Ġklu by
Ġpi sk
ĠÅĽ lep
Ġw biÅĤ
ĠjakÄħ kolwiek
Ġsmu tno
Ġnos ie
D E
ĠszczegÃ³l nych
I L
Ġsy nu
ĠPuch aru
Ġod gad
Ġrach unku
Ob raz
Ġobie cu
mu s
f ak
Ġpo kre
Ġprywat ny
Ġko pi
Ġposiada Äĩ
u su
Ġza pada
ĠRad ia
ĠK in
Ġmas kÄĻ
Ġwhi sky
Åļ ci
Ġ19 28
ĠÅĤu k
Ġpo biegÅĤ
Ġrozry wki
ĠCent ralnego
la rze
ĠwspÃ³ÅĤpra cu
Ġob raÅ¼
Ġprzewodni czÄħcym
F un
Ġroz dziaÅĤu
Ġmro k
Ġmiej skie
Ġniezna cznie
Ser io
Ġoskar Å¼ony
Ġpo ciskÃ³w
Ġpropagan dy
u szy
Ġsz ki
Ġmi t
ĠdostÄĻp na
R ada
ĠrzÄħd em
Ġnarod owe
Ġstu dni
f fa
Ġredak tor
jak o
ĠsprzÄħ ta
Ġost rym
nie z
sam o
Ġucz nia
Ġg lo
Ġniezwy kÅĤe
Ġpomo gÅĤa
T ÅĤuma
ĠZa akceptowaÅĤ
piÄħ Äĩ
Ġe skor
Ġprofil ak
Ġpubli czny
ciÄĻ Å¼
Ġdotyczy ÅĤy
ĠW s
b lÄħ
Ġjesie ni
ar nej
Ġgdzie kolwiek
Ġwier sz
v ent
Ġanali zie
Ġwarzy w
Ġz arÄĻ
th er
Ġnu kle
Ġnamio tu
ĠCzerwo nej
Ã³r ki
g rÃ³d
Ġ196 3
am bu
Ġzareag owaÅĤ
ĠdziaÅĤa cz
ÅĦczy ka
Ġprzygot owuje
Ġzrozumie nie
ĠN K
Ġmusie liÅĽmy
ow nikiem
Ġinte gracji
Ġsprzeda waÄĩ
i sz
Ġubra na
Ġnatural nym
Ġnajmniej szej
Ġszero kÄħ
Ġkomenta rza
ni an
ĠK ad
Pro ces
Ġd ana
Ġprzy kla
Ġambasad or
Ġobserw uje
Ġekonomi czne
Ġ8 7
Ġdal szÄħ
ĠChar lie
ĠprzyjÄĻ li
ĠuÅ¼y wajÄħc
ĠÅĤa ski
Ġc ala
Ġzawodni k
Ġkom entuje
ĠPrzed siÄĻbior
Ch ÄĻ
Ġozd obi
Ġzie lonego
Ġsprawoz daniu
Ġ7 9
Ġwz mi
Ġpie szo
Nor mal
b ku
h it
Ġprzytak nÄħÅĤ
Ġgrun tu
Ġzim nÄħ
Ġdotk nÄĻÅĤa
Ġwy odrÄĻb
Ġra kie
Å į
Ġte stu
Ġewident nie
ĠzÅĤo ÅĽciÄħ
ĠDepartam entu
ĠZa rzÄħd
ĠRa dzi
Ġigrzy sk
Ġo su
wi ÅĤem
Ġsz ara
ĠO ce
ĠS cho
X D
ĠpociÄħg Ã³w
ĠzÅĤ ej
ĠrÄĻko je
Ġrozmawi aliÅĽmy
Ġmargi ne
ĠH un
Ġzap owiad
ĠskÅĤada jÄħ
k nÄĻÅĤo
Ġnar ciar
ĠÅĽwiÄħ t
Wy glÄħdaÅĤ
ĠzrozumiaÅĤ e
Ġg ang
Ġkonstytu cjÄħ
Ġgospoda rz
Ġz bieg
Ġdosta wy
ĠBibli i
Ġmani pul
aj cie
inte gr
Ġmode le
Cze ÅĽÄĩ
UÅĽmie ch
Ġby dgo
fika cjÄĻ
Ġlubi ÅĤa
Ġzachodni o
Wy bra
ĠÅĽcieÅ¼ kÄĻ
Ġmo k
Ġhon oru
ĠuÅ¼y waÅĤ
Ġdzi urÄĻ
Ġd atÄĻ
Ġopis ane
h or
do na
Ġch rze
Ġnaru szenia
Ġprowo ka
Ġna prawi
nawi rus
Ġokoli c
Ġv s
Ġustal ono
ĠJ AK
Ġkogo kolwiek
Po prze
Ġpodb rÃ³d
ĠX III
Ġrehabili tacji
Ġspu szcza
rÄĻ dzej
Ġde dy
ĠÅĽmiertel nie
ĠO jciec
Ġsz ok
Ġo mÃ³w
Ġbior ÄĻ
Ġczwar te
Ġro ck
ĠEuge niusz
ĠStar ego
ĠWY PIERDALA
ĠzewnÄĻtrz ne
zu jÄħcych
Ġw stÄħpiÅĤ
Ġczerwo nej
t noÅĽciÄħ
Ġpow rÃ³ciÄĩ
th an
Z miany
Ġprzer waÄĩ
sz kÄħ
Ġod ÅĽwie
Ġa fryka
Ġoficjal ne
Ġle cÄħ
G ar
Ġasyst ent
Ġstad ion
Ġprzed mie
Ġwo dz
Ġdodat kowego
u de
Ġzagad nieÅĦ
ĠpuÅĤkow nika
ĠÅ» ad
Ġc ale
Ġmarket ing
ĠZa wo
Ġry cer
Ġukry wa
ĠL is
Ġwymi anÄĻ
Ġjed nemu
Ġzy cie
Ġude rzyÄĩ
Ġnie to
ĠWscho dniej
Dy rektor
Å¼ nie
Ġbi twa
Ġciem nej
Ġdo n
Ġwypo czy
Ġdok torze
Ġspotka li
Ġcie pÅĤy
Ġsta cjÄĻ
Ġziel onych
Ġprze nika
Ġinteresu jÄħce
Ġwcho dziÅĤ
Ġrol nej
Ġdziw na
Ġum arÅĤa
Ġzwy kÅĤÄħ
Ġprowa dzonej
Ġteor iÄĻ
Ġkur sy
ĠuÅ¼y ÅĤ
ana wia
Ġza ra
ĠÅ¼y wy
Ġzabija Äĩ
ĠP ers
prze j
mir kowyznania
j aki
ĠgÃ³ ra
ĠRadomi u
Ġzdoby cia
ch Äħ
dz aÅĤem
Ġze sz
Ġnieu chron
Ġbrzmi aÅĤo
Ġmechani zmy
Ġz gad
Ġzapropon owaÅĤa
Ġpoj m
Ġopi niami
ĠA lek
Ġpomo gÅĤo
S O
ĠAr t
Ġtelewi zja
od por
ĠDa nii
ĠW od
Ġwa szego
Ġjed nych
Ġh az
cyj noÅĽÄĩ
Ġpozy ska
Ġspostrze gÅĤ
Ġwymy ÅĽliÄĩ
Ġpod rÄĻ
tu jÄħce
ĠJ ord
Ġ8 6
Ġbudow li
Ġmy lÄħ
Ġsmu tne
Ġzagro Å¼eniem
Ġmorder stwo
Ġpodo pie
ĠTAK Å»E
ĠE U
Ġpie kÅĤo
ĠLe a
sko t
Ġfundam ental
Ġba lu
Ġnie ÅĤa
Ġumi l
ĠRu chu
ĠsÄħ siada
Ġdoprowa dzi
le tem
ĠdziaÅĤa jÄħcych
Ġkoja rzy
w s
Ġpas ek
Ġatmos ferze
Ġs chy
ĠKt oÅĽ
Ġdyscypli ny
ĠD ow
Ġwi dow
ĠpiÄĻ ÅĽciÄħ
Ġmi nie
Ġprzy pis
ĠfaÅĤszy we
ĠÅĤa twy
Ġfinans owym
Ġsil nikÃ³w
Ġwyba czyÄĩ
a b
ch or
re dy
ĠâĢ Ĵ
Ġkra dzieÅ¼
Ġpowszech nego
Ġserwi su
Za ÅĽ
Ġspra wiajÄħ
Ġniemal Å¼e
·½ï·½ï·½ï·½ï ·½ï·½ï·½ï·½ï
Ġbez ra
Po siada
Ġhas ÅĤem
ĠniecaÅĤ e
Ġwi dzieliÅĽmy
ĠprzedsiÄĻbior stwo
lu jÄĻ
Ġm enu
Ġcy tat
ĠM ON
Ġzb ad
Ġg ma
Ġmon taÅ¼
Ġmiej skiego
Ġdzi ur
Spo dzie
ran ge
Ġtwier dzÄħc
ni zmu
Ġani Å¼eli
Ġpopular ne
Ġpodat nikÃ³w
Ġskute cznoÅĽci
Ġzgroma dzenia
Ġza praszam
ĠH ans
Ġniez rozumiaÅĤ
ĠspoÅĤe cznoÅĽÄĩ
Ġoba wiam
Ġja ÅĽniej
Wy nika
Ġci szÄĻ
ĠH il
ĠPeter sbur
ĠGabr iel
Ġsch owaÅĤ
Tak ich
ĠpÅĤy ta
ĠZ dzi
B li
Ġubra ÅĦ
t nam
ĠzakÅĤa dzie
Ġtwar do
Ġmam o
Ġszcze blu
log y
ĠbrÄħz owy
Ġsto ÅĤe
ĠczÄĻÅĽci ach
ĠmaÅĤ ymi
ĠwÅĤo s
Ġape ty
Ġdowci p
Ġanonim owÄħ
ĠSzcze cin
Ġrozmawi amy
rzeÅĽci ja
Ġkonkre tny
â ĺ
Ġ 00
ja zdy
nes s
ĠÅĽredni m
Ġstanowiska ch
ĠstaÅĤ ych
ĠchÅĤop cze
ĠspÃ³ÅĤ kÄĻ
p per
Ġpil nie
Ġde p
ĠMar cina
ĠBryta nia
ĠD ia
Ġu kÅĤada
Ġpoko je
Ġurlo pu
ĠuÅ¼y wam
Ġzd obi
ĠRo dzi
Ġnaci skiem
Ġo dzi
Sy n
Ġkomis ari
Ġprzy pisy
ĠrÄĻko ma
ĠFe deracji
ch aÅĤem
w cza
Ġzadzi wia
W pis
Ġzmar szcz
Ġpod pisu
ĠPos ÅĤa
Ġaro gan
P art
Do dam
ĠC BA
ĠG ie
k sem
ĠC ro
Ġopowiad aÅĤa
Ġpraw nik
Ġe chem
Ġzmo dy
x x
koÅĦ cu
Ġkapi tu
Ġgra m
Ġblo k
ĠkÄħ t
Ġwp at
ĠWin dows
e ty
ĠsÅĤu p
Ġprofesj ona
Ġi roni
Cz er
ĠprÃ³Å¼ no
Ġdostar czyÄĩ
ĠWyso koÅĽÄĩ
Ġut rudnia
Ġpan owanie
ĠpopoÅĤu dnia
ĠL E
Ġod mawia
ĠrÄĻ cznie
Ġczy niÄĩ
Ġzak Äħ
M aj
Ġgranic ami
Ġodbior cÃ³w
Ġprzygot owana
ĠOrgani zacji
Ġprze mi
ĠPO L
Musi aÅĤem
Ġce lach
Ġzdzi wieniem
Ġgi ta
Ġsz czo
Ġwers je
ĠzapÅĤa ty
ĠpopoÅĤu dnie
2 000
Ġpo sk
Ġstara jÄħ
ci my
ĠpÃ³j dÄħ
ĠAu to
K lu
Ġwygra ÅĤa
Ġpostanowie niem
Ġwe p
Ġl ondy
Ġstandar d
Ġprzecie z
Ġ9 6
Ġ19 14
Przy zna
tar g
Ġem it
Ġptak a
ĠS che
Ġmu rÃ³w
Ġre cy
Ġgrom ad
ĠS in
Ġprzeciw nych
ter em
Ġzamieszki waÅĤo
Ġstos unkach
Ġdo tacje
ĠD am
Ġprze ku
sz kÃ³w
Ġprzy wiÄħz
ĠPrezy dium
ro ka
Ġu gry
Ġpo na
Ġlek ka
Har ry
ĠprzyjÄĻ to
pod staw
mu nd
ĠwiÄħ Å¼Äħ
Ġwprowa dzaÄĩ
Ġch owa
zi one
ĠpoÅĤo Å¼ony
ĠnakÅĤad Ã³w
ĠciÅĽnie nie
ate s
Ġwyda wania
Ġstan Ã³w
Wzi ÄħÅĤ
Ġroz bÅĤy
ĠH ill
ĠrozpoczÄĻ ÅĤy
zu peÅĤnie
sk akuje
Ġna tk
ali zm
ĠpiÄħ tej
Ġpod wÅĤad
Ġniesam owicie
Ġza soby
Ġprze bu
Ġf as
Ġspor Äħ
Ġdzwo nek
Ġprzyje dzie
u da
ĠsprÄĻ Å¼y
Ġmusi cie
Ġkomis jÄĻ
Ġule gÅĤa
ĠwspÃ³l nÄħ
ow cami
Ġzapomni aÅĤem
Wie lka
âĢĿ [
li st
Ġma nie
Ġ195 2
ĠK atoli
Ġpod ium
ĠkÅĤam ie
Ġprzekony waÅĤ
pierda la
ĠnaleÅ¼ Äħcych
Ġodruch owo
Ġnotat ki
k ÅĤam
Ġznik nÄĻÅĤy
Ġop ÄĻ
Ġwyposa Å¼ony
Ġopad ÅĤa
ĠWil l
Ġmieszkani owych
Ġpopat rzeÄĩ
ost ra
Ġde ski
ĠIs lam
Ġniez rÄĻ
b ÅĤo
Ġto tali
Ġlit oÅĽÄĩ
GÅĤos owaÅĤo
Ġstre f
Ġnew s
pi sze
Ġkorespon den
Ġpos ÄĻp
Ġmi ÅĤa
Ġpo ÅĤa
Ġszko d
Ġopak owania
c ana
Ġspad kobier
nu s
Pon ownie
k owaÅĤem
Ġwoje nnego
Ġrekor d
Ġchodni ku
Ġpos ÅĤem
wido czniej
Ġsza fy
wo na
Ġdrugi ch
Ġpad ÅĤa
har mo
gu jÄħc
Ġnajlep szej
ve ra
istor ii
ĠpiÄĻk nych
ĠE lizabeth
Ġw k
Ġp si
at ka
ĠwidziaÅĤ eÅĽ
ĠUS B
Ġda jÄĻ
Ġlo tÃ³w
ĠspoÅĤe cznie
Pra kty
tal ny
Ġbez kar
Ġzazna cza
Ġna kÅĤada
ĠS MS
Ġautory te
Ġpojawi aÅĤy
Ġmedy cznego
Ġtwar dy
d t
Ġspo glÄħdaÅĤ
Ġs in
Ġu bÃ³
Ġba ga
Ġoprac owanie
Ġbie liz
bi ona
Ġjezi oro
Ġpod raÅ¼
ĠZacho dniej
ĠS tru
ĠpokrÄĻ ciÅĤa
Ġodde chu
Ġro bienia
Ġfi nale
ĠdowÃ³d cÄħ
Ġprzytom noÅĽÄĩ
ĠnarzÄĻ dziem
ĠP ress
bar dzo
Ġtowarzy szyÅĤ
ĠusÅĤy szaÅĤam
d owane
Ġ19 30
Ġzoba czÄĻ
Ġsz wajcar
ĠD is
Ġ8 4
ĠsÅĤuÅ¼ Äħcych
ĠT rzas
sz ok
Ġgrup ach
Ġpi szÄħc
Ġodbi cie
Ġtow ary
Ġtransp ar
Ġe s
ĠPo za
Ġpozor nie
Ġnor we
Ġdo rzu
on ka
Ġinter we
Kil ku
ĠwystÄħ pieniu
b ny
Ġport ret
tu rach
Ġbenefi cje
Ġpra sie
Ġla ski
Ġrozko sz
P rÃ³bu
Ġkole kcji
an ami
Ġbram ki
Ġtajem nicÄĻ
poko ju
ĠodrÃ³Å¼ nieniu
Ġmistrzost wo
Cie m
Ġzdu mieniem
nicz kÄħ
Ġeuropej skie
Ġtwarz ach
ĠreÅ¼ im
Ġo szuki
pu r
Ġrocz nicÄĻ
nist Äħ
ĠTe chno
Ġnieu nik
Ġdzi wo
Ġobwo dzie
Ġtro pi
Ġniewy star
ĠMia sto
Ġpu ch
P h
Ġhistory k
ĠbieÅ¼ Äħcym
Ġcu da
Ã³ ÅĤu
Ġlotni sk
ĠuÅ¼y ciem
Ġterro rysty
Dost rze
Ġkomna ty
Ġwol niej
Ġw ciska
Ġzn ami
ĠzapytaÅĤ am
Ġodm owie
Ġnada jÄħ
ĠmiÅĤos ier
P remier
Ġbudow lane
Ġk lep
Ġod miany
rza nia
Ġprze bo
ĠÅĽwiat u
Ġmil czenia
ĠklÄĻ ski
Ġa f
c oÅĽ
Ġktor ych
o pera
Ġkonie cznoÅĽciÄħ
Ġs ing
Ġdoty czyÅĤa
Ġeksper ci
Ġmari hu
Ġch ÅĤÃ³d
ĠoglÄħda jÄħc
Ġre pu
Ġdzi wiÄĻ
Ġsek torze
Ġprzy rzÄħ
ĠP AN
Ġroz sta
T ur
m el
Ġprzy pÅĤy
Ġprzet ÅĤuma
Ġdzi kie
Ġz nÄĻ
Ġsuk niÄĻ
k aÅĤam
ĠwiÄĻksz oÅĽciÄħ
Ġsil niki
ĠszczegÃ³l nego
Ġszy der
Ġprzez roczy
da jÄĻ
Ġstos owany
Ġaspek t
Ġpi je
ĠPo t
j nie
Ġsprze daÅĤ
ĠF ri
atu ra
Ġto m
Ġadministra cyjnych
Otwo rzyÅĤ
ĠsiÄĻ gnÄĻÅĤa
go rzej
Ġczerw ono
si ÅĤam
Ġpil nowaÄĩ
rzy liÅĽmy
Ġzadowo leni
Ġwniosko dawcy
ĠCa ro
liz owanych
Ġmo tor
Ġnaj prost
t ary
Ġstara li
ĠwylÄħd owaÅĤ
Rob ert
ĠPOLITY CE
Ġwste cz
li ch
Ġnegocja cje
Ġza ciÄĻ
Ġfa wory
Ġspier do
wi ska
Ġprzy ÅĤa
ca sz
Od noszÄħc
Ġprzej mowaÄĩ
ĠTele wizji
l ob
Ros ja
szcz ona
Ġmecz ach
Ġuprzy wilej
K IE
Ġry sy
p hi
Ġno Å¼y
Ġpodat kowe
ze li
Ġskier owaÄĩ
row skiego
Ġtra cÄħ
czy ny
ol f
Ġsko czyÅĤ
Ġrozstrzyg niÄĻcia
Ġwyj ÅĽci
ar skiego
Ġprosto kÄħ
Ġnor ma
½ï¿½ï¿½ï¿½ï¿½ï¿½ï¿½ï¿½ï¿½ï¿½ï¿½ï¿½ï¿½ï¿½ï¿½ï¿½ï¿ ½ï¿½ï¿½ï¿½ï¿½ï¿½ï¿½ï¿½ï¿½ï¿½ï¿½ï¿½ï¿½ï¿½ï¿½ï¿½ï¿
Ġ20 22
Ġporozumie niu
Ġrodzi ciel
tar ÅĤa
Ġkoncer ty
ĠBrazy lii
Ġpod su
c or
Ġwybie rze
ĠrÃ³w na
h ard
Ġstanowi li
ĠL et
T ych
bo ok
Ġosobist ego
Ġzach owujÄħ
ĠobjÄĻ ÅĤa
sy stem
ĠRos jÄĻ
u sze
Ġwysp ÄĻ
Ġuzasad nieniu
Ġwi cep
ĠEgi ptu
Ġautobu su
Ġniepotrzeb ne
Ġak sami
Ġob ar
Ġbra ÅĤa
Ġw sunÄħÅĤ
Ġzasad niczo
ĠwÅĤÄħ cznie
ĠwÅĽciekÅĤo ÅĽci
Ġczy Å¼
Ġw paÅĽÄĩ
Ġtale rz
Ġsz anta
Ġprzy rze
Ġsz kÅĤo
K raj
Po zdrawiam
Ġ9 1
Ġt wego
ĠTransp ortu
Ġrozpow szech
ĠzeszÅĤ ego
Ġpozn aÅĤa
Ġniemow lÄĻ
Ġwykorzy staÅĤ
syj ne
Ġskle pi
Ġkwa ÅĽ
Ġoba wiaÄĩ
ĠT ony
Ġwycho dziÅĤ
Ġbil ans
ĠostroÅ¼ noÅĽci
Ġwyczer pu
Ġru szaÄĩ
Ġzebra ÅĤ
ĠWYPIERDALA J
Ġmene d
ĠCzÄĻstoch owie
ĠC re
Ġzmian ach
Ġwy wi
Ġwy niÃ³sÅĤ
ĠDonal da
Ġtrakt atu
nt on
Ġprowa dzili
Ġtoale ty
Ġna daÄĩ
Ġdokon ano
ĠA gencja
Ġdro go
ĠprzeraÅ¼ ony
Ġkawa ler
ĠcaÅĤkowi tej
Ġbie dny
20 10
ĠO Powi
Ġzamie szanie
ĠnajwyÅ¼ szych
Åļ mierÄĩ
Ġzaatak owaÅĤ
Ġkol orÃ³w
ĠwÅĤo ski
UÅĽmie chnÄĻÅĤa
Ġtrze j
Ġopera cja
raz u
Ġhandl owe
Ġki no
tor ium
Sp rÃ³bu
ĠSzcze cina
Ġwypad ki
ĠAli ce
Ġdi alogu
ĠÅĽwie tne
te raz
p rowi
Ġd aÅĤy
ĠosiÄħ gnie
anie l
Ġusy tu
ÅĤÄĻ bo
Ġzad oÅĽÄĩ
ĠrozeÅĽ miaÅĤa
Ġzag ÅĤu
Bada nia
ja ca
it t
Ġwym ach
Ġhi per
Z S
cho ciaÅ¼
Ġprzera Å¼enia
Ġwych owanie
Ġsubie ktyw
Ġzapali ÅĤ
de sa
Ġprakty k
Ġtrakt owane
P P
Ġsko rzyst
Ko ÅĦ
Ġo kaza
Ġ8 1
Ġzamie rzaÅĤa
ÅĽ lone
ĠMo Å¼na
ĠÅĽci ÅĽ
Ġuto Å¼
ĠkomÃ³r kÄĻ
ĠzamÃ³w ieÅĦ
Wo da
Ġchwy ciÅĤa
Ġwy gna
Ġgodzi nami
Rodzi na
Ġwarszt aty
Ġr ownie
Ġtez ÄĻ
sie nie
ĠogÃ³l nych
ĠRad om
Ġfa zy
G ÅĤu
ĠGÃ³ ry
Ġa lian
Ġob na
ty s
Ġpoma gaÅĤ
ĠJe den
ĠMusi sz
Ġusu niÄĻcia
ĠPio t
Ġ19 26
ĠS obie
Ġciekaw oÅĽÄĩ
Ġna mal
Ġosob no
ci liÅĽmy
NajwaÅ¼ niejsze
Ġzawar ta
Ġtrzy krotnie
ĠP RZE
ĠS ien
Ġprzy ÅĤo
ĠmiaÅĤy by
Ġpacje nci
SZ E
Ġtrzyma jÄħ
ĠIn terna
Ġtrafia jÄħ
d akÃ³w
Ġpropozy cjÄħ
Ġsur owo
ĠPrzy kro
Ġuli cami
li Äħ
Ġpie kÅĤa
Ġtowarzy sza
Ġstrasz ny
ĠprzyjaciÃ³ÅĤ ki
de ro
Ġsz aty
Ġzagra nicy
Ġdobrow olnie
U krai
Ġpocho dzÄħcych
cze rw
f le
ĠS chu
ĠÅ¼Äħ danie
Ġprawi cy
Ġfrancu skich
Ġkomi tetu
Ġsrebr ny
b ow
Ġ195 3
Ġci che
ĠkrÃ³ tka
ĠpocaÅĤ owaÅĤ
po sa
ĠMo nika
Ġzagra Äĩ
ĠInstytu cie
st encji
Ġto ry
Ġprzekon aÅĤ
cza li
Ġniebie ski
OW E
Ġodpor noÅĽci
Ġpo god
gra mie
Ġwzro stem
Ġelek tora
gi l
T woje
ĠRy szar
ost wo
ĠpÅĤa cze
Ġwy jÄĻ
go v
ni g
Ġkodek su
Tak Äħ
ĠoÅĽrod ki
ĠR ak
Ġob ciÄħÅ¼
Ġdwu nastu
ĠBy Äĩ
Ġadministra cyjnego
wat er
Ġwy ka
Ġlapto pa
Pa weÅĤ
D al
ĠBe ata
ĠÂ °
ĠJaku ba
ĠpoÅ¼y czki
Ġprze budowy
Ġpowinna ÅĽ
Ġpo rw
Ġspra wiÅĤa
$ #
Ġcodzien nego
Or gani
ĠspeÅĤ nienia
Ġin ge
ĠgorÄħ ce
Ġu jem
Ġzapom niaÅĤa
kla sy
Ġu leg
ĠLew and
Ġniepraw dopodob
Ġpod legÅĤe
Ġni skiej
Wym ie
Ġza wy
Ġagen cja
Zm arÅĤ
y o
Ġznalaz ÅĤam
ĠpodkreÅĽl aÅĤ
Ġmi g
???? ????
Ġju bi
Ġstop ÄĻ
ĠpowaÅ¼ nym
Ġzabezpie czyÄĩ
jad ÄĻ
ĠH all
Odw rÃ³ciÅĤa
âĢĿ )
Ġoder waÄĩ
Å ĵ
Ġim peri
ĠB O
I O
âĢ¦ )
ĠPro gram
ĠMi ra
dza sz
ĠstaÅĤ ej
Ġstruktu rze
la h
ĠwziÄħ ÅĤem
ĠSta ro
ĠzÅĤa go
ĠA i
Wie lo
Ġrze ce
Ġszko dÄĻ
Ġodczy taÄĩ
Ġle ku
Ġczytel nikÃ³w
Ġanaliz ÄĻ
Ġpias ek
ĠPos el
ĠzabÃ³j stwo
Ġnaru sza
Ġkonser waty
Pre zes
Ġw rÃ³g
Ġwyzna nia
Ġoce n
Ġface tem
Ġroz kwi
Ġeki pa
Ġin fek
Ġcier pie
ĠnajwyÅ¼ szÄħ
W S
200 9
ĠUkrai na
Ġzar ezerw
pl ami
ĠosiÄħg niÄĻcie
Ġpodmio tu
Ġregu ÅĤ
ĠO to
dzien nie
Ġisto tÄĻ
Ġzaj rzeÄĩ
Ġpodejrz anych
Ġzd jÄħÄĩ
Ġucze ÅĦ
Ġbran Å¼
moÅ¼ liwie
ĠÅĽredni Äħ
Ġnapo tk
Ġprzystoj ny
Ġprag nienia
Ġzy cia
Ġzdrowo tne
Ġucie kÅĤa
Ġz ruj
Z im
Ġlegen dar
Ġprac owaÅĤem
Ġmi sjÄĻ
Ġk ÅĤu
Ġokre ÅĽliÅĤ
ĠUkrai nÄĻ
ÅĤkow nik
Ġmieli byÅĽmy
Ġidzie sz
Pod sum
ty ny
Ġsie dzenia
Ġdu chy
Ä į
ĠG ier
ne l
Ġsil nÄħ
ĠZ el
ko go
Ġchary t
Ob owiÄħ
Ġle czyÄĩ
Ġzrobi ÅĤy
O gar
Ġzawah aÅĤ
Ġp aty
Ġko ty
Ġwi zjÄĻ
Ġnie mo
Ġprzej muje
Ġzost anÄĻ
Ġnad er
cjonal ne
Ġcieka wego
Ġ193 5
ĠstaÅĤ ym
Ġorganiz mie
pe t
wÃ³ z
Ġmi ny
d ostÄĻp
Ġw bud
ĠT ery
Ġuwie rzy
ĠposÅĤ anka
li wo
Ġfar tu
Ġm owie
ĠWÅĤad imi
Ġrowe rze
Ġp sem
so le
lar ne
ĠK en
Ġsu kie
Ġwo le
ĠspÃ³ÅĤ ce
Ġukry waÄĩ
ĠW el
Ġpowa gÄħ
Ġrach unki
glÄħ dzie
ĠkoÅĦ czÄħ
Ġtytu ÅĤy
Ġro bienie
Ġnajd roÅ¼
ĠrzÄħd owi
Ġwiat rem
Ġwy nosiÅĤ
Ġpoczu ciem
Ġwy szÅĤy
Ġce nne
Ġl Å¼ej
Ġba zÄĻ
it z
Ġzaczyn aÅĤa
Woj na
k nij
ĠW spÃ³ÅĤ
ra da
ad o
Ġwyj ÅĽciem
Ġzgi nÄĻli
pi ÅĦski
ĠH um
Prz ycho
Ġmat era
Najlep szy
Ġpora dni
Ġpocho dzenie
Ġwymo gÃ³w
ĠnastÄĻp nÄħ
ĠÅĽwiatopo glÄħd
B ur
Ġba ron
Ġspodzie waÅĤem
ĠupÅĤy wie
zy k
Ġm szy
ĠS un
za i
ĠUsta wodaw
Ġgwi zd
ob raÅ¼
Ġblon dyn
tal nie
Mu sie
Ġpra wy
Ġdrog owym
Ġtej Å¼e
Ġwo kali
Ġoficer owie
Ġznalezi ska
g ary
Ġwybra li
ZaczÄĻ ÅĤa
ĠLegisla cyjnego
ÅĤÄĻ ki
Ġumie ÅĽciÄĩ
Ġwst rÄĻ
b ne
Ġa di
ĠR em
Ġh obby
Ġgrze ch
Ġmiaste czku
Ġoj c
Ġpapiero sy
Wy niki
Ġusta wiÄĩ
Ġsp ara
Ġutrzyma niu
Naj gor
ĠKonstan ty
Samo chÃ³d
wa z
ĠSejm owi
d iÄĻ
ĠA rab
Ġodp rÄĻ
cjal nie
lis my
Ġsto lik
ĠchÅĤo dno
Ġnaczy ÅĦ
Ġle t
ĠP iÄħ
Ġpozosta wia
Ġwyd ana
fik owany
Ġspoko jem
Ġprze szÅĤy
Ġspecjal nym
ĠstraÅ¼ nik
Ġw stÄĻpu
Ġzapotrzeb owanie
Ġrozu mi
Ġdzie wi
M Y
ĠTa y
Ġd Å¼entel
Ġcich ym
Ġutw oru
Ġzdr owego
Ġwraca jÄħc
Ġopad ÅĤ
ĠchÅĤop akÃ³w
Ġwykon ano
ĠÅĽcieÅ¼ kÄħ
Ġjacy ÅĽ
ĠE sto
i sa
ĠuwaÅ¼ amy
Ġzaba wÄĻ
Ġzad baÄĩ
Ġpro mu
Ġare sz
pol sce
Ġpisa nie
Ġmo skie
ĠwÅĤÃ³ k
k owanÄħ
sze chni
Ġamuni cji
Ġwyro ki
Ġszpita le
kuje sz
Mar ia
c la
ĠzgÅĤo szenie
ĠMiej skiej
ĠpopeÅĤ nienia
ste ra
ĠPolak om
Ġobyd wu
R D
Ġsu che
Ġlitera turze
Ġroz prawy
ĠÅĽredni cy
Naj czÄĻÅĽciej
Ġznie cierpli
cu m
czni j
t owano
ĠnieskoÅĦczon oÅĽÄĩ
L ist
t ÅĤuma
Ġznie rucho
Ġkra sno
su jÄħ
Ale ks
ĠsÅĤab oÅĽÄĩ
Ġzdecy duje
ĠBo Å¼ej
Ġwt Ã³r
ĠF C
ĠmiÄĻdzynarod owego
ĠwyÅĽwiet la
ĠO B
rza wszy
c aÅĤo
Ġi na
n kiem
rz al
Ġcierp liwoÅĽÄĩ
ati onal
Ġzda jÄħ
Ġkon te
Ġprzed osta
ĠwczeÅĽniej sze
Ġwydarzenia ch
wit z
Ġwi dze
ma wiajÄħ
Ġdem ografi
Ġpo se
aty czny
Ġgospodar czym
Zw racam
Ġp ery
Ġfilozo f
Ġprzedstawi ony
Ġzamiesz kaÅĤ
Ġe tatÃ³w
Ġ Î
Ġbez skute
ra na
Ġg astro
or ia
Ġspotk aÅĤo
ĠKo lo
Ġcent ra
Ġgo ogle
r t
ĠLe wi
Ġwypad ÅĤ
ariu szy
Ġre alnie
Ġklu cze
Ġniez godne
ĠSÅĤo ÅĦca
Ġza tro
Ġna b
Z mie
ĠJe dno
I G
Ġan ten
p sy
ĠzaangaÅ¼ owanie
ĠPat ri
Ġprzy puszczaÄĩ
ĠpiÅĤka rzy
ph ie
cho dzÄĻ
Ġwier szy
Ġbie dnych
Ġprezyden ckich
ĠdoskonaÅĤ e
ĠogÃ³l nego
Ġpisa rza
Ġm anu
j na
ĠzaÅĤoÅ¼y ciel
Ġszko dliwe
Or ganiz
z owanych
Ġusta lenie
ĠR on
ĠpÃ³Åºniej szych
Ġprzod kÃ³w
Le karz
s at
Ġwoje nne
Å¼y sz
Ġ193 2
ar Äħ
Ġprzy zwyczaj
ba ni
Ġnaj bogat
Ġludz koÅĽÄĩ
ĠB un
Ġna rzuca
cie lom
Ġkom po
Ty p
Ġre stry
KsiÄħ Å¼ka
bur ga
ĠchciaÅĤa by
di Äħ
Ġpartne rem
ĠS TA
ĠLe szek
Ġodpowie dziaÅĤem
I z
Ġzna cznÄħ
Ġukra d
Ġd anymi
Ġnie czy
Ġwraca jÄħ
ĠS um
ma il
ĠNi ck
Ġnieli cznych
Pan owie
Ġniemiec ka
mi on
Ġwo ÅĦ
Ġchci al
Ġob ez
Ġwy grywa
n tach
m oÅĽÄĩ
ĠgÅĤad ko
Ġz Äħb
ĠSÅĤu cham
Ġdro Å¼
ÅĤ owski
Ġrozmi ar
ĠpowaÅ¼ nÄħ
da niem
Ġob se
Ġwar unek
Ġimi ona
ĠzobowiÄħz any
Ġrodzi nnej
Ġza gry
Ġkon klu
Ġbra cie
ĠprzyjaciÃ³ÅĤ ka
Ġwido ku
ĠO limpij
Ġ19 22
Ġwar stwa
Ġme te
Ġw re
m as
czes ne
Ġsz ary
Ġkar nych
st ce
Ġdo leg
U rzÄĻ
ĠpoczÄħ wszy
Naj wiÄĻcej
rac amy
ĠSz czy
ĠbiaÅĤo sto
Ġzmniej szenia
Zwy ciÄĻ
Ġpolity cznie
re dnia
Ġprzyw rÃ³ciÄĩ
Ġdochodzi ÅĤo
Ġdzisiej sze
U waga
Ġ9 00
Ġprz Ã³d
Nie dawno
Ġstop nie
Ġdar em
Ġprzeciw nej
Ġprzym ie
ĠoÅĤ ta
@ #
Ġdoprowa dziÅĤo
Ġteat r
ĠIn dia
Ġczyn nik
Ġbank ru
ST Y
Ġpapie rze
Ġodwo ÅĤy
Ġpyta niami
Wiecz orem
Ġza gÅĤa
ĠpowaÅ¼ nego
Ġmie r
Ġemi gracji
Ġmieszka li
Ġod ÅĤoÅ¼yÅĤ
Ġpodob ieÅĦstwo
Ġmian em
Ġs ny
Ġstruktu ra
Ġmodli twÄĻ
Ġsp oru
Ġmieszka niec
Ġam ator
j ny
ar skie
Ġzagro Å¼eÅĦ
Ġwy rasta
us ch
tar nej
Ġo szcze
Ġtelewi zo
Ġdrog owych
prac owaÄĩ
Ġregu lu
ĠWal dem
ĠposÅĤ aÅĤ
o czywiÅĽcie
ĠwystÄħpi ÅĤa
Ġwaka cji
ĠLubli n
ĠMy ÅĽlisz
ymi ary
Ġst ery
Ġkontak cie
Ġwybuch ÅĤa
chi um
Ġrobi ÅĤo
Ġtrakt owania
ĠposiÅĤ ku
sÅĤ aÅĤ
Wy j
Ġwycho dzÄħc
Ġode sÅĤa
ĠzaangaÅ¼ owania
Ġmy sli
Ġzaplan owane
Ġzw anego
Ġpoda jÄħc
Ġwoje nnej
Ġ12 5
ĠN ob
ĠczÅĤon ko
ĠwyraÅº ny
Ġdepartam encie
Ġsystem atycznie
Ġpedo fil
Ġkrew nych
ĠS RA
Z doby
t aÅĤy
Ġzawar cia
ĠH as
Ġswobo dy
Ġgo dnoÅĽÄĩ
Ġdi alog
Ġmiejs cami
Ġosobist ej
ĠPrzy ja
Ġno ce
dza jÄħcy
dzi Äħ
ĠuÅ¼y wajÄħ
Ġwyprost owaÅĤ
ĠJed nak
ĠdoÅĤÄħ czyÄĩ
Ġprzy glÄħdajÄħc
niej szymi
Ġfinans owy
ĠskrÄĻ ciÅĤ
Ġewentu alnych
A D
Ġwi dowi
Ġfinans owo
Ġgra tu
ĠprzeciÄĻ tnego
Ġby wajÄħ
czy l
Ġprzypomina Äĩ
ĠsformuÅĤ owanie
ĠpoÅĤudni owy
Ġtwo rzeniu
Ġsi od
ĠS ky
rÄĻ d
Ġdokumen tach
Ġgro bu
Å¼e sz
ĠpociÄħ gi
Ġmuzy kÄħ
Ġzak rzy
Ġpersone l
ĠâĢ ¦
Ġkro ple
ĠE ve
Ġwin ni
Ġpokazy waÄĩ
Ġdru go
Ġkierow nicÄħ
Ġcier piÄħ
Ġto ny
Ġniecier pliwie
s obie
ĠP on
Ġprzewidzi ane
N im
ĠrozpoczÄĻ ciem
ĠwÃ³z ek
Ġrozlu Åº
ĠdowÃ³dz two
Ġstudi owaÅĤ
Wido cznie
Ġska la
o rach
Ġnie wia
Ch cieli
Ġotwart ej
KrÃ³t ko
Ġg ni
Ġob le
ĠtÅĤu mi
Ġspecjal nÄħ
Ġ17 0
Mo gli
. ]
Ġna o
O grom
Ġkolo nia
Ġt ato
Ġ195 5
Ġsprowa dziÄĩ
czÄħ tk
Ġ9 7
Ġist niaÅĤo
ĠÅ¼ydow skiej
Ġwie trze
j ka
Mich a
ĠsÅĤa bym
ĠgÅĤ owi
Ġpo lubi
Ġtermi ny
Ġju tra
ĠnaleÅ¼ aÅĤy
Ġspraw cÃ³w
Ġpie szcz
Ġwyszep taÅĤa
Ġser wer
Ġ19 17
ĠrozporzÄħ dzeniu
Ġ195 1
v ery
Ġdziedzi nach
Ġwy go
ByÅĤo by
ĠA c
U U
In for
Ġszale ÅĦstwo
Ġcharaktery styczne
ĠniÅ¼ szy
Ġtajem nica
ĠÅĽwiÄĻto krzy
Ġak cy
Ġp szcz
Ġza skar
Ġpro mi
Ġzadzwo niÅĤa
Ġmat u
Ġna tÄĻ
ĠS ty
er Ã³w
Ġsie dzÄĻ
Ġdo rÃ³w
Ġtor pe
Ġkompu terze
wa gi
Ġkry pto
ĠA C
Ġosobi sty
ĠS el
Ġba za
Ġr ych
ĠLu ke
lu bie
Ġpo gra
Ġwy kur
BÄĻdzie sz
Ġw tor
ĠPo to
ie ÅĦstwa
Ġm lo
Zastana wiam
ÅĽnie nie
ĠdziaÅĤ aÅĤo
Ġprzygo dy
Ġbrze gi
Ġtre ÅĽciÄħ
ne i
Ġzmie rzyÄĩ
lin k
pi aÅĤa
Ġgo dne
ĠpÅĤy n
ĠKaÅ¼ dy
Ġko stki
sie k
3 00
Ġisto tÄħ
ĠuniemoÅ¼li wia
W ro
Ġsz ka
Ġra dziÄĩ
dz u
ĠjeÅº dziÅĤ
nicz kÄĻ
Ġ19 24
Ġob rÃ³t
p lom
Ġdzi ale
Ġzna cznym
ĠF ak
Ġdoprowa dziÅĤy
Ġktor ym
Ġar mat
Ġprzygot owaÅĦ
Ġ19 29
Ġguzi k
je cie
Ġprzy czyna
ĠobowiÄħ zujÄħ
aÅĤem u
Ġul tra
Ġekonomi i
ty godni
Ġpie c
je szcze
ĠchÄĻ ciÄħ
ĠS krzy
Ġotrzym ujÄħ
ĠVi ctor
Ġtro je
Ġsoli darnoÅĽci
Ġspoczy wa
ci ny
Ġ9 2
K ul
Ġsta cje
ĠsiÄĻ g
rza jÄħc
Ġpowstrzym y
bi oty
Ġznajdu jÄħce
Ġmon arch
Ġprzezna czenia
Ġdach em
ĠgÄĻ stoÅĽÄĩ
Ġli niÄħ
Ġpozosta waÅĤ
Ġkorpo racji
Ġra my
rÃ³ Å¼e
Ġstad ionie
Ġdo cenia
Ġs nem
ĠdÅĤuÅ¼ szej
ĠInspek cji
se na
Ġkonsu mentÃ³w
Ġpi Ã³r
Ġokoli cznych
Ġroz pÅĤy
Ġpo mniej
Ġdyrektor Ã³w
Ġkrze seÅĤ
Ġuda jÄħc
Ġekonomi cznej
Ġspraw dzaÄĩ
Ġumie szczone
Ġeta pu
Ġpozwala jÄħc
ĠJ on
Ġprzeciw nikiem
jech aÅĤy
ĠO ne
ĠkÄħpie l
Ġciem nÄħ
Ġla ure
Ġnoc nej
Ġodwie dziÅĤ
Ġinne mu
20 14
ĠgaÅĤÄĻ zie
Ġzatrzym uje
Ġpostawi ÅĤa
ĠP ÅĤa
ĠÅ¼y jÄħcych
Z O
Ko nie
c ano
Ġbas en
Ġlokal nego
rzad ko
Ġbole ÅĽnie
ĠSt ary
ĠkrÃ³lew skiej
lan dia
ĠS en
nie miec
ĠÅ ¹
ĠposiÅĤ ki
Ġszczu p
Za czyna
Ġtro sk
ĠPo mocy
Ġzale ty
ĠTe st
ĠciÄħg nÄħ
Soli darnoÅĽci
ĠPo la
Ġtechno logia
Ġna szy
ĠD re
Ġgwia zda
Ġwszel kiej
CiÄĻÅ¼ ko
Ġzach icho
ĠuzupeÅĤ nienie
ing ton
ĠszczÄħ tki
ĠG od
Ġmy lÄĻ
Ġogranicz ony
Ġszanow ni
Ġpoli czku
Zak ÅĤa
Ġsukce sÃ³w
Ġwari ant
Ġmel du
Ġprze kÄħ
Poczu ÅĤa
Ġge niu
Å»ad na
Ġu n
Ġwios ny
Ġkur ier
AN IA
Ġin cy
Ġh aj
Ġprawdzi wie
Ġwielo kro
ĠstanÄĻ li
Ġma chnÄħÅĤ
Ġ9 4
ĠmÄħd ry
Ġstra ta
Ġod set
gi o
Ġwo dnych
ĠDzie ci
ĠskÅĤad aÅĤ
ma i
Ġpis m
Ġbzdu r
Ġwyd ru
Ġisto tnÄħ
ym a
Ġpora dzi
Ġosie dlu
Ġpopraw nie
ĠS ali
Ġnieo po
ĠnawiÄħza Äĩ
Ġadwoka t
Ġkieru nki
olo giÄĻ
Ġzmy sÅĤy
Ġrad ny
Ġprzyzna nie
chi waÅĤ
Ġro sÅĤy
Ġnaj sil
ĠÅĤam ach
ĠT witterze
ĠnajwyÅ¼ sze
Ġde si
ĠpÅĤu ca
ĠMÅĤo dzieÅ¼y
Ġdia bli
Ġpoko jÃ³w
Ġce nach
ĠRob in
[...]
